{
  "</s>": 0,
  "<unk>": 1,
  ".": 2,
  ",": 3,
  "\u2581the": 4,
  "\u2581of": 5,
  "\u2581to": 6,
  "\u2581and": 7,
  "\u200d": 8,
  "\u2581in": 9,
  "\u2581a": 10,
  ">>tel<<": 11,
  ">>kan<<": 12,
  ">>mal<<": 13,
  ">>tam<<": 14,
  "?": 15,
  "s": 16,
  "\u2581": 17,
  "\u2581that": 18,
  "\u2581\u201d": 19,
  "\u2581\u201c": 20,
  ":": 21,
  "\u200c": 22,
  "\u2581is": 23,
  "\u2581you": 24,
  ";": 25,
  "\u2581for": 26,
  "\u2581(": 27,
  "\u2581-": 28,
  "\u2581not": 29,
  "\u2581I": 30,
  ")": 31,
  "\u2581be": 32,
  "\u2581with": 33,
  "\u2581his": 34,
  "\u2019": 35,
  "\u2581it": 36,
  "\u2581God": 37,
  "\u2581will": 38,
  "\u2581was": 39,
  "\u2581he": 40,
  "\u2581\u2014": 41,
  "\u2581have": 42,
  "\u2581are": 43,
  "\u2581they": 44,
  "\u2581on": 45,
  "\u2581we": 46,
  "\u2581as": 47,
  "\u2581Jehovah": 48,
  "!": 49,
  "\u2581The": 50,
  "\u2581them": 51,
  "\u2581from": 52,
  "'": 53,
  "\u2581their": 54,
  "\u2581who": 55,
  "\u0d4d": 56,
  "\u2581your": 57,
  "\u0c28\u0c41": 58,
  "\u2581by": 59,
  "\u2581him": 60,
  "\u2581all": 61,
  "\u2581this": 62,
  "\u2581\u2019": 63,
  "\u2581[": 64,
  "\u2581or": 65,
  "\u2581can": 66,
  "\u2581our": 67,
  "\u0cc1": 68,
  "\u2581And": 69,
  "\u2581do": 70,
  "\u2581were": 71,
  "\u2581us": 72,
  "\u2581my": 73,
  "\u2581what": 74,
  "\u2581one": 75,
  "ing": 76,
  "\u0d02": 77,
  "\u2581\u2018": 78,
  "\u2581me": 79,
  "\u2581at": 80,
  "\u2581had": 81,
  "\u2581people": 82,
  "\u2581He": 83,
  "\u2581Jesus": 84,
  "\u2581an": 85,
  "\u2581when": 86,
  "\u2581has": 87,
  "t": 88,
  "\u2581\"": 89,
  "\u0d31\u0d46": 90,
  "\u2581but": 91,
  "\u2581shall": 92,
  "\u2581Bible": 93,
  "\u2581What": 94,
  "...": 95,
  "\u25811": 96,
  "\u2581said": 97,
  "\u2581those": 98,
  "\u2581We": 99,
  "\u2581which": 100,
  "\u0ca6": 101,
  "\u2581In": 102,
  "\u2581out": 103,
  "\u2581about": 104,
  "\u2581may": 105,
  "\u2581so": 106,
  "\u2581would": 107,
  "\u0bae\u0bcd": 108,
  "\u0c41": 109,
  "]": 110,
  "\u0ca8\u0ccd\u0ca8\u0cc1": 111,
  "\u2581\u0c06": 112,
  "\u2581up": 113,
  "\u2581time": 114,
  "\u2581did": 115,
  "\u2581there": 116,
  "\u2581\u0d12\u0d30\u0d41": 117,
  "\u0b95\u0bcd": 118,
  "-": 119,
  "\u2581no": 120,
  "\u0c32\u0c4b": 121,
  "\u0c28\u0c3f": 122,
  "\u2581her": 123,
  "\u0c02": 124,
  "\u0cbf": 125,
  "\u2581if": 126,
  "\u2581life": 127,
  "\u2581%": 128,
  "\u2581How": 129,
  "\u0baa\u0bcd": 130,
  "\u2581It": 131,
  "\u2581\u0d05\u0d35\u0d30\u0d4d": 132,
  "\u2581also": 133,
  "\u2581been": 134,
  "\u2581man": 135,
  "\u2581\u0cae\u0ca4\u0ccd\u0ca4\u0cc1": 136,
  "\u0c3f": 137,
  "\u2581more": 138,
  "\u0cb5\u0ca8\u0ccd\u0ca8\u0cc1": 139,
  "\u0bc1\u0bae\u0bcd": 140,
  "\u2581\u0d28\u0d3f\u0d19\u0d4d\u0d19\u0d33\u0d4d": 141,
  "\u0c15\u0c41": 142,
  "\u0d15\u0d4d\u0d15\u0d4d": 143,
  "\u2581\u2014\u2060": 144,
  "\u2581But": 145,
  "\u0d41\u0d02": 146,
  "\u2581good": 147,
  "\u2581some": 148,
  "\u2581into": 149,
  "\u2581You": 150,
  "\u2581\u0b92\u0bb0\u0bc1": 151,
  "\u2581A": 152,
  "\u2581day": 153,
  "\u2581They": 154,
  "\u0bc1": 155,
  "\u2581\u0c88": 156,
  "\u2581Allah": 157,
  "\u0d41": 158,
  "\u2581\u0c2f\u0c46\u0c39\u0c4b\u0c35\u0c3e": 159,
  "\u2581things": 160,
  "\u2581should": 161,
  "\u2581how": 162,
  "\u2581way": 163,
  "\u2581such": 164,
  "\u0c32\u0c41": 165,
  "\u2581make": 166,
  "\u0c17\u0c3e": 167,
  "\u2581even": 168,
  "\u2581many": 169,
  "\u2581For": 170,
  "\u0cb5\u0cc1": 171,
  "\u2581\u0c06\u0c2f\u0c28": 172,
  "\u2581earth": 173,
  "\u2581than": 174,
  "\u2581made": 175,
  "\u2581\u0c86": 176,
  "a": 177,
  "\u2581children": 178,
  "\u2581other": 179,
  "\u2581before": 180,
  "\u2581then": 181,
  "\u2581come": 182,
  "\u2581know": 183,
  "\u0c2e\u0c41": 184,
  "\u0b95\u0bb3\u0bcd": 185,
  "\u2581unto": 186,
  "\u2581help": 187,
  "\u2581these": 188,
  "\u0cb0": 189,
  "\u0ba4\u0bc1": 190,
  "\u2581This": 191,
  "\u0d3e": 192,
  "\u2581\u0c28\u0c47\u0c28\u0c41": 193,
  "\u2581like": 194,
  "ed": 195,
  "\u2581Lord": 196,
  "\u2581When": 197,
  "\u0c35": 198,
  "\u2581over": 199,
  "\u2581does": 200,
  "\u2581world": 201,
  "\u2581work": 202,
  "\u25812": 203,
  "\u2581love": 204,
  "\u2581she": 205,
  "\u2581because": 206,
  "\u2581_": 207,
  "\u0c97\u0cb3\u0ca8\u0ccd\u0ca8\u0cc1": 208,
  "\u2581could": 209,
  "\u2581If": 210,
  "d": 211,
  "\u2581/": 212,
  "\u2581years": 213,
  "\u2581only": 214,
  "\u2581\u0b8e\u0ba9\u0bcd\u0bb1\u0bc1": 215,
  "\u2581\u0ca8\u0cbe\u0cb5\u0cc1": 216,
  "\u2581see": 217,
  "\u0ba4\u0bcd": 218,
  "\u2581men": 219,
  "\u2581\u0c28\u0c3e": 220,
  "\u0ca8": 221,
  "\u2581say": 222,
  "\u2581\u0d05\u0d35\u0d28\u0d4d": 223,
  "\u2581Israel": 224,
  "\u0bcd": 225,
  "\u0c32": 226,
  "\u0d24": 227,
  "\u2581\u0c08": 228,
  "\u2581\u0b85\u0bb5\u0bb0\u0bcd\u0b95\u0bb3\u0bcd": 229,
  "\u2581\u0c2e\u0c40\u0c30\u0c41": 230,
  "\u2581\u0c24\u0c28": 231,
  "\u2581Paul": 232,
  "\u2581first": 233,
  "\u2581\u0ca4\u0ca8\u0ccd\u0ca8": 234,
  "\u2581\u0d06": 235,
  "m": 236,
  "\u2581any": 237,
  "\u0d3f": 238,
  "\u2581Witnesses": 239,
  "\u2581\u0d28\u0d40": 240,
  "\u2581its": 241,
  "\u2581against": 242,
  "\u2581\u0c8e\u0c82\u0ca6\u0cc1": 243,
  "\u2581\u0c12\u0c15": 244,
  "\u2581page": 245,
  "\u0c97\u0cb3\u0cc1": 246,
  "\u0c24\u0c4b": 247,
  "\u2581take": 248,
  "\u2581upon": 249,
  "\u2581after": 250,
  "\u0cbf\u0c97\u0cc6": 251,
  "\u2581So": 252,
  "\u0d2f\u0d41\u0d02": 253,
  "\u2581Why": 254,
  "\u0b9a\u0bcd": 255,
  "\u0c28": 256,
  "\u0bc8": 257,
  "\u0cb2\u0cc1": 258,
  ".\"": 259,
  "\u2581\u0c92\u0c82\u0ca6\u0cc1": 260,
  "\u2581says": 261,
  "\u2581came": 262,
  "\u2581Christ": 263,
  "\u2581go": 264,
  "\u2581two": 265,
  "\u2581down": 266,
  "\u0cc2": 267,
  "\u2581\u0ba8\u0bc0\u0b99\u0bcd\u0b95\u0bb3\u0bcd": 268,
  "\"": 269,
  "\u0ca8\u0cc1": 270,
  "\u0d24\u0d4d": 271,
  "\u2581name": 272,
  "\u2581Christian": 273,
  "\u2581As": 274,
  "\u0c15": 275,
  "\u0c95\u0ccd\u0c95\u0cc6": 276,
  "\u2581others": 277,
  "\u0cc1\u0cb5": 278,
  "\u2581give": 279,
  "\u0bbf\u0ba9\u0bcd": 280,
  "\u0cc7": 281,
  "\u2581\u0ca8\u0ca8\u0ccd\u0ca8": 282,
  "\u0c47": 283,
  "\u0d46": 284,
  "\u0cb0\u0cc1": 285,
  "\u0d2f": 286,
  "\u2581now": 287,
  "\u2581being": 288,
  "\u2581\u0ba8\u0bbe\u0bae\u0bcd": 289,
  "the": 290,
  "\u2581need": 291,
  "\u2581\u0ca8\u0cbe\u0ca8\u0cc1": 292,
  "\u2581heart": 293,
  "\u2581\u0c86\u0ca6\u0cb0\u0cc6": 294,
  "\u0baf": 295,
  "\u2581faith": 296,
  "\u2581son": 297,
  "\u2581\u0c28\u0c40": 298,
  "\u2581\u0d28\u0d3e\u0d02": 299,
  "\u0d15\u0d4d\u0d15": 300,
  "\u2581\u0c85\u0cb5\u0cb0\u0cc1": 301,
  "\u2581own": 302,
  "\u2581\u0ca8\u0cae\u0ccd\u0cae": 303,
  "\u2581Christians": 304,
  "\u0d35\u0d41\u0d02": 305,
  "\u2581just": 306,
  "\u0d2e": 307,
  "\u0caf": 308,
  "\u2581must": 309,
  "\u2581king": 310,
  "\u0c3e": 311,
  "\u2581spirit": 312,
  "\u2581Then": 313,
  "\u2581Yahweh": 314,
  "\u2581house": 315,
  "\u2581That": 316,
  "\u2581among": 317,
  "\u2581Kingdom": 318,
  "\u2581well": 319,
  "\u2581family": 320,
  "\u2581LORD": 321,
  "\u2581folder": 322,
  "\u2581\u0c85\u0cb5\u0ca8\u0cc1": 323,
  "\u2581away": 324,
  "\u0cb2\u0ccd\u0cb2\u0cbf": 325,
  "\u2581\u0d08": 326,
  "ly": 327,
  "\u2581let": 328,
  "\u2581great": 329,
  "\u2581\u0c35\u0c3e\u0c30\u0c41": 330,
  "\u2581\u0cae\u0cc7\u0cb2\u0cc6": 331,
  "\u2581right": 332,
  "\u2581\u0ca6\u0cc7\u0cb5\u0cb0": 333,
  "\u2581Can": 334,
  "\u201c": 335,
  "\u2581thou": 336,
  "\u2581another": 337,
  "\u2581\u0d1e\u0d3e\u0d28\u0d4d": 338,
  "I": 339,
  "Name": 340,
  "\u2581words": 341,
  "\u2581David": 342,
  "\u2581\u0d05\u0d32\u0d4d\u0d32\u0d3e\u0d39\u0d41": 343,
  "\u2581\u0b87\u0ba8\u0bcd\u0ba4": 344,
  "\u2581get": 345,
  "\u2581example": 346,
  "\u0bbf\u0bb2\u0bcd": 347,
  "\u2581every": 348,
  "\u2581ye": 349,
  "\u2581new": 350,
  "\u2581through": 351,
  "\u2581\u0c2e\u0c28\u0c02": 352,
  "\u0d30\u0d4d": 353,
  "\u2581death": 354,
  "\u2581congregation": 355,
  "\u2581His": 356,
  "\u2581'": 357,
  "\u2581land": 358,
  "\u2581\u0c05\u0c28\u0c3f": 359,
  "\u2581become": 360,
  "\u2581might": 361,
  "\u2581am": 362,
  "\u2581true": 363,
  "\u2581\u0c26\u0c47\u0c35\u0c41\u0c28\u0c3f": 364,
  "\u258115": 365,
  "\u2581hand": 366,
  "\u0c97\u0cb3": 367,
  "\u2581\u0b85\u0bb5\u0bb0\u0bcd": 368,
  "\u0baf\u0bc1\u0bae\u0bcd": 369,
  "\u2581\u0c2e\u0c40": 370,
  "\u2581truth": 371,
  "\u0b95\u0bb3\u0bc8": 372,
  "\u2581put": 373,
  "\u0d41\u0d28\u0d4d\u0d28\u0d41": 374,
  "\u2581Do": 375,
  "\u2581&": 376,
  "\u0d15": 377,
  "\u0d41\u0d15": 378,
  "\u2581spiritual": 379,
  "\u2581\u0c86\u0c97": 380,
  "\u0c38\u0c4d": 381,
  "--": 382,
  "\u2581\u0ca8\u0cc0\u0cb5\u0cc1": 383,
  "re": 384,
  "\u2581where": 385,
  "\u0bbf": 386,
  "\u2581very": 387,
  "\u2581whom": 388,
  "\u0d28": 389,
  "\u0c3f\u0c28": 390,
  "\u2581place": 391,
  "\u2581much": 392,
  "/": 393,
  "\u2581\u0d05\u0d24\u0d4d": 394,
  "\u2581ones": 395,
  "e": 396,
  "S": 397,
  "\u2022": 398,
  "\u2581found": 399,
  "\u0d4b": 400,
  "\u2581most": 401,
  "\u0d47": 402,
  "\u0c95": 403,
  "\u0cb5\u0cbe\u0c97\u0cbf": 404,
  "\u2581\u0ca8\u0cbf\u0cae\u0ccd\u0cae": 405,
  "\u25813:": 406,
  "\u0c3e\u0c28\u0c4d\u0c28\u0c3f": 407,
  "\u0d38\u0d4d": 408,
  "\u0d35": 409,
  "\u2581want": 410,
  "\u0c15\u0c4d": 411,
  "\u0ca6\u0cb2\u0ccd\u0cb2\u0cbf": 412,
  "\u2581\u0c2e\u0c28": 413,
  "\u2581\u0ca8\u0cbf\u0ca8\u0ccd\u0ca8": 414,
  "\u0d15\u0d4d\u0d15\u0d41": 415,
  "\u2581find": 416,
  "\u2581\u0c85\u0cb5\u0ca8": 417,
  "\u2581To": 418,
  "\u2581thy": 419,
  "\u2581\u0ba8\u0bbe\u0ba9\u0bcd": 420,
  "\u0d3e\u0d7b": 421,
  "\u2581back": 422,
  "\u0c30\u0c4d": 423,
  "\u0c3e\u0c21\u0c41": 424,
  "\u2581No": 425,
  "\u2581days": 426,
  "\u2581\u0c15\u0c42\u0c21\u0c3e": 427,
  "\u0c32\u0c28\u0c41": 428,
  "\u0bbf\u0baf": 429,
  "\u0ba4\u0bcd\u0ba4": 430,
  "\u2581times": 431,
  "\u0cb5\u0cbe\u0ca6": 432,
  "\u2581message": 433,
  "er": 434,
  "\u0cbe": 435,
  "\u2581set": 436,
  "\u0d41\u0d28\u0d4d\u0d28": 437,
  "\u0b95\u0bcd\u0b95\u0bc1": 438,
  "\u2581\u0c05": 439,
  "\u2581\u0c85": 440,
  "\u2581\u0b86\u0ba9\u0bbe\u0bb2\u0bcd": 441,
  "\u25812:": 442,
  "\u2581given": 443,
  "\u2581himself": 444,
  "\u2581word": 445,
  "\u2581went": 446,
  "\u25813": 447,
  "\u2581\u0caf\u0cc6\u0cb9\u0ccb\u0cb5\u0ca8": 448,
  "\u2581use": 449,
  "\u0c30": 450,
  "\u2581keep": 451,
  "\u0baf\u0bc8": 452,
  "\u0c97\u0cc6": 453,
  "\u0bb5\u0bc1\u0bae\u0bcd": 454,
  "\u2581used": 455,
  "\u2581\u0c85\u0cb5\u0cb0": 456,
  "\u2581thee": 457,
  "\u0c2e\u0c48\u0c28": 458,
  "\u2581\u0c05\u0c26\u0c3f": 459,
  "\u0bb5": 460,
  "\u0bbe\u0bb0\u0bcd": 461,
  "\u2581father": 462,
  "\u2581saying": 463,
  "\u2581parents": 464,
  "\u2581All": 465,
  "\u0ba4\u0bcd\u0ba4\u0bc8": 466,
  "\u0d28\u0d4d": 467,
  "\u2581nor": 468,
  "\u0c3e\u0c30\u0c41": 469,
  "\u2581each": 470,
  "\u0d41\u0d15\u0d2f\u0d41\u0d02": 471,
  "\u0c30\u0c3f": 472,
  "\u0c30\u0c41": 473,
  "\u2581year": 474,
  "\u2581Picture": 475,
  "\u2581\u0d2a\u0d31\u0d1e\u0d4d\u0d1e\u0d41": 476,
  "\u2581sent": 477,
  "\u2581There": 478,
  "\u2581One": 479,
  "\u2581person": 480,
  "\u2581:\u2060": 481,
  "\u0b95\u0bcd\u0b95": 482,
  "\u2581\u0d05\u0d35\u0d30\u0d41\u0d1f\u0d46": 483,
  "\u0c15\u0c3f": 484,
  "\u2581young": 485,
  "\u0c26\u0c3f": 486,
  "\u2581never": 487,
  "\u2581called": 488,
  "\u0cbf\u0c82\u0ca6": 489,
  "\u2581same": 490,
  "\u2581part": 491,
  "\u2581\u0d28\u0d3f\u0d19\u0d4d\u0d19\u0d33\u0d41\u0d1f\u0d46": 492,
  "E": 493,
  "in": 494,
  "y": 495,
  "\u2581close": 496,
  "\u2581\u0d24\u0d40\u0d30\u0d4d": 497,
  "\u25811:": 498,
  "\u0d3e\u0d23\u0d4d": 499,
  "\u25814:": 500,
  "\u0d2e\u0d3e\u0d2f": 501,
  "\u0bae": 502,
  "\u2581\u0d15": 503,
  "\u2581themselves": 504,
  "\u0c28\u0c47": 505,
  "\u0d24\u0d4d\u0d24": 506,
  "\u0b95": 507,
  "\u0ba4\u0bcd\u0ba4\u0bbf\u0bb2\u0bcd": 508,
  "\u2581brothers": 509,
  "\u2581end": 510,
  "\u2581believe": 511,
  "\u2581\u0c35\u0c3e\u0c30\u0c3f": 512,
  "\u0cb5": 513,
  "\u2581long": 514,
  "\u0ca6\u0cbf\u0c82\u0ca6": 515,
  "\u2581under": 516,
  "\u2581Moses": 517,
  "\u2581today": 518,
  "\u0cc6": 519,
  "\u2581home": 520,
  "\u2581bring": 521,
  "\u0cbe\u0c97": 522,
  "\u2581three": 523,
  "\u2581\u0ba8\u0bbf\u0b9a\u0bcd\u0b9a\u0baf\u0bae\u0bbe\u0b95": 524,
  "\u2581\u0caf\u0cc7\u0cb8\u0cc1": 525,
  "\u2581show": 526,
  "\u2581Our": 527,
  "\u0c02\u0c17\u0c3e": 528,
  "\u2581gave": 529,
  "\u2581(_": 530,
  "\u2581\u0cb9\u0cc7\u0c97\u0cc6": 531,
  "\u0cbf\u0cb0\u0cbf": 532,
  "\u2581\u0b8e\u0ba9\u0bcd\u0ba9": 533,
  "(": 534,
  "\u2581took": 535,
  "\u2581O": 536,
  "\u0cc1\u0cb5\u0cc1\u0ca6\u0cc1": 537,
  "\u2581\u0d28\u0d32\u0d4d": 538,
  "\u0d24\u0d41": 539,
  "\u2581study": 540,
  "\u2581John": 541,
  "\u2581\u0b85\u0ba4\u0bc1": 542,
  "\u2581\u0b85": 543,
  "\u2581too": 544,
  "\u2581\u0c24\u0c2e": 545,
  "\u2581old": 546,
  "\u2581wife": 547,
  "\u2581\u0c26\u0c3e\u0c28\u0c3f": 548,
  "\u0d3e\u0d28\u0d4d": 549,
  "\u0cb8\u0ccd": 550,
  "\u2581Word": 551,
  "\u2581\u0d38\u0d4d": 552,
  "C": 553,
  "\u25815:": 554,
  "\u2581why": 555,
  "\u2581\u0c2f\u0c47\u0c38\u0c41": 556,
  "\u0c24": 557,
  "\u0bae\u0bbe\u0b95": 558,
  "\u2581while": 559,
  "\u2581without": 560,
  "\u0c32\u0c4d": 561,
  "\u2581feel": 562,
  "\u0bbe\u0b95": 563,
  "\u2581though": 564,
  "\u2581My": 565,
  "\u2581knowledge": 566,
  "\u2581Satan": 567,
  "\u0c2f": 568,
  "\u0bc7": 569,
  "\u2581brought": 570,
  "\u2581city": 571,
  "\u2581worship": 572,
  "\u25816:": 573,
  "\u2581between": 574,
  "\u0c21\u0c02": 575,
  "\u0baf\u0bbf\u0bb2\u0bcd": 576,
  "\u0d30": 577,
  "\u2581means": 578,
  "\u0ba9": 579,
  "\u2581here": 580,
  "\u0bae\u0bbe\u0ba9": 581,
  "\u2581human": 582,
  "\u0c2a\u0c41": 583,
  "\u258120": 584,
  "\u2581fear": 585,
  "\u2581\u0cae\u0cbe\u0ca1": 586,
  "\u2581book": 587,
  "\u0d3f\u0d32\u0d4d\u0d32": 588,
  "\u2581\u0c0f": 589,
  "\u0d3f\u0d32\u0d4d": 590,
  "\u25814": 591,
  "\u0c2e": 592,
  "\u0cb8": 593,
  "\u258112": 594,
  "\u2581C": 595,
  "\u2581Is": 596,
  "\u25818": 597,
  "\u2581told": 598,
  "\u25815": 599,
  "\u0baa\u0bcd\u0baa\u0b9f\u0bcd\u0b9f": 600,
  "\u25811,": 601,
  "\u0d15\u0d4d\u0d15\u0d41\u0d02": 602,
  "\u2581b": 603,
  "\u258110": 604,
  "\u2581\u0bb5\u0bc7\u0ba3\u0bcd\u0b9f\u0bc1\u0bae\u0bcd": 605,
  "\u0bb0\u0bcd": 606,
  "\u2581power": 607,
  "\u0ca6\u0cc6": 608,
  "\u2581However": 609,
  "\u2581apostle": 610,
  "\u2581open": 611,
  "\u25817": 612,
  "\u2581\u0b85\u0bb2\u0bcd\u0bb2\u0ba4\u0bc1": 613,
  "\u2581\u0ca4\u0cae\u0ccd\u0cae": 614,
  "\u2581sons": 615,
  "\u0c2a": 616,
  "\u2581servants": 617,
  "\u2581off": 618,
  "\u2581\u0d24\u0d28\u0d4d\u0d28\u0d46": 619,
  "\u2581became": 620,
  "\u0d19\u0d4d\u0d19\u0d7e": 621,
  "i": 622,
  "\u2581peace": 623,
  "\u2581\u0b87\u0ba4\u0bc1": 624,
  "\u2581live": 625,
  "\u2581again": 626,
  "\u2581\u0c28\u0c41\u0c02\u0c21\u0c3f": 627,
  "\u0d24\u0d4d\u0d24\u0d46": 628,
  "\u0cc1\u0ca4\u0ccd\u0ca4\u0ca6\u0cc6": 629,
  "\u2581holy": 630,
  "\u0d1a\u0d4d\u0d1a\u0d2f\u0d3e\u0d2f\u0d41\u0d02": 631,
  "\u2581\u0c2e\u0c3e": 632,
  "\u0c21\u0c3e\u0c28\u0c3f\u0c15\u0c3f": 633,
  "\u2581Some": 634,
  "\u0ca8\u0ccd\u0ca8\u0cc2": 635,
  "\u2581think": 636,
  "\u2581done": 637,
  "\u2581*": 638,
  "\u2581She": 639,
  "\u2581Yes": 640,
  "\u0d24\u0d4d\u0d24\u0d3f\u0d28\u0d4d": 641,
  "\u2581both": 642,
  "\u2581still": 643,
  "\u258113": 644,
  "\u2581left": 645,
  "th": 646,
  "\u2581\u0c17\u0c41\u0c30\u0c3f\u0c02\u0c1a\u0c3f": 647,
  "\u0ba4": 648,
  "\u0d2e\u0d3e\u0d2f\u0d3f": 649,
  "\u2581water": 650,
  "\u0bb2\u0bcd": 651,
  "\u2581Father": 652,
  "\u2581together": 653,
  "\u2581course": 654,
  "\u0d7c": 655,
  "O": 656,
  "\u2581\u0d05": 657,
  "\u2581Jerusalem": 658,
  "\u2581read": 659,
  "\u0cbf\u0ca6\u0ca8\u0cc1": 660,
  "\u258111": 661,
  "\u2581wrote": 662,
  "\u25816": 663,
  "\u2581\u0c28\u0c40\u0c35\u0c41": 664,
  "\u2581don": 665,
  "\u2581Let": 666,
  "\u2581\u0b87\u0ba9\u0bcd\u0ba9\u0bc1\u0bae\u0bcd": 667,
  "\u2581\u0d0e\u0d28\u0d4d\u0d28": 668,
  "\u2581\u0caf\u0cc6\u0cb9\u0ccb\u0cb5\u0ca8\u0cc1": 669,
  "\u0cb2": 670,
  "\u2581\u0c05\u0c2f\u0c3f\u0c24\u0c47": 671,
  "\u0baf\u0bbf\u0ba9\u0bcd": 672,
  "c": 673,
  "\u2581At": 674,
  "\u2581learn": 675,
  "\u2581After": 676,
  "\u0cbf\u0cb8": 677,
  "\u2581\u0c2c\u0c48\u0c2c\u0c3f\u0c32\u0c41": 678,
  "\u2581Could": 679,
  "\u0c2f\u0c41": 680,
  "\u0ba9\u0bcd": 681,
  "\u2581eyes": 682,
  "\u2581\u0c8e\u0c82\u0cac": 683,
  "\u0cac\u0cc7\u0c95\u0cc1": 684,
  "\u2581Peter": 685,
  "\u2581\u0d1e\u0d3e\u0d7b": 686,
  "\u2581By": 687,
  "\u0c21\u0c41": 688,
  "r": 689,
  "\u258116": 690,
  "\u2581hope": 691,
  "\u2581On": 692,
  "\u2581\u0c85\u0ca6\u0cc1": 693,
  "\u2581full": 694,
  "A": 695,
  "\u2581\u0d0e\u0d28\u0d4d\u0d28\u0d41": 696,
  "\u2581able": 697,
  "\u2581faithful": 698,
  "\u0d24\u0d4d\u0d24\u0d3f\u0d32\u0d4d": 699,
  "\u2581\u0caf\u0cbe\u0cb5": 700,
  "\u2581mind": 701,
  "\u2581\u0d05\u0d19\u0d4d\u0d19\u0d28\u0d46": 702,
  "\u2581\u0c28\u0c3e\u0c15\u0c41": 703,
  "\u0ca8\u0ccd": 704,
  "\u2581evil": 705,
  "\u0d2f\u0d41\u0d1f\u0d46": 706,
  "\u0bb8\u0bcd": 707,
  "\u2581\u0d0e\u0d28\u0d4d": 708,
  "\u2581until": 709,
  "\u2581often": 710,
  "\u0d32": 711,
  "\u2581number": 712,
  "\u2581doing": 713,
  "\u2581Now": 714,
  "\u0c35\u0c3f": 715,
  "\u2581serve": 716,
  "\u0d23": 717,
  "\u2581news": 718,
  "\u0cc1\u0cb5\u0c82\u0ca4\u0cc6": 719,
  "\u2581\u0cac\u0cc8\u0cac\u0cb2\u0ccd": 720,
  "\u0cbe\u0ca6": 721,
  "\u2581service": 722,
  "\u0c38": 723,
  "\u2581brother": 724,
  "\u25819": 725,
  "\u2581\u0b85\u0bb2\u0bcd\u0bb2\u0bbe\u0bb9\u0bcd": 726,
  "\u2581\u0c09\u0c28\u0c4d\u0c28": 727,
  "\u0ba8\u0bcd\u0ba4": 728,
  "\u2581Who": 729,
  "\u0ba4\u0bcd\u0ba4\u0bbf\u0ba9\u0bcd": 730,
  "\u0c28\u0c3e": 731,
  "\u2581important": 732,
  "\u2581little": 733,
  "\u0c3e\u0c28\u0c3f\u0c15\u0c3f": 734,
  "\u2581mother": 735,
  "\u0cc1\u0ca4\u0ccd\u0ca4\u0cbe\u0cb0\u0cc6": 736,
  "\u2581sin": 737,
  "\u2581\u0b85\u0ba8\u0bcd\u0ba4": 738,
  "\u0c17": 739,
  "\u0b99\u0bcd\u0b95\u0bb3\u0bcd": 740,
  "\u2581\u0d05\u0d35\u0d30\u0d46": 741,
  "\u2581face": 742,
  "\u0bbe\u0bb0\u0bcd\u0b95\u0bb3\u0bcd": 743,
  "\u0c17\u0c32": 744,
  "\u0d2f\u0d4b": 745,
  "),": 746,
  "\u0c3e\u0c32\u0c41": 747,
  "\u2581blood": 748,
  "\u258119": 749,
  "\u0d3f\u0d30\u0d3f\u0d15\u0d4d\u0d15\u0d41\u0d28\u0d4d\u0d28\u0d41": 750,
  "\u2581forth": 751,
  "\u0bbe\u0bb2\u0bcd": 752,
  "\u0d42": 753,
  "\u0c1a": 754,
  "The": 755,
  "\u0bb5\u0bc8": 756,
  "\u2581ways": 757,
  "\u2581ever": 758,
  "\u2581child": 759,
  "\u2581\u0b89\u0b99\u0bcd\u0b95\u0bb3\u0bcd": 760,
  "\u2581\u0c92\u0cac\u0ccd\u0cac": 761,
  "\u0bc1\u0b95\u0bcd\u0b95\u0bc1": 762,
  "\u2581yet": 763,
  "\u0ca4": 764,
  "\u2581turn": 765,
  "\u0d31": 766,
  "\u0c46\u0c28\u0c41": 767,
  "\u0c32\u0c3e": 768,
  "\u0c21": 769,
  "\u0bc7\u0ba9\u0bcd": 770,
  "\u0d41\u0d28\u0d4d\u0d28\u0d24\u0d4d": 771,
  "\u0baa": 772,
  "\u2581\u0c05\u0c24\u0c28\u0c3f": 773,
  "\u2581\u0b8e\u0ba9\u0bcd\u0bb1": 774,
  "\u0bcb\u0bae\u0bcd": 775,
  "\u2581saw": 776,
  "\u0d35\u0d30\u0d4d": 777,
  "\u0c97\u0cb3\u0cb2\u0ccd\u0cb2\u0cbf": 778,
  "\u2581woman": 779,
  "\u2581during": 780,
  "\u2581\u0cb8\u0cb9": 781,
  "\u2581\u0b85\u0bb5\u0ba9\u0bcd": 782,
  "\u0c41\u0c28\u0c41": 783,
  "\u2581living": 784,
  "\u0d7b": 785,
  "\u0bbe\u0ba9": 786,
  "\u0c97": 787,
  "\u0d38": 788,
  "\u2581New": 789,
  "\u2581view": 790,
  "\u2581\u0c86\u0ca4\u0ca8": 791,
  "\u2581began": 792,
  "\u0d1a\u0d4d\u0d1a": 793,
  "\u2581Organiser": 794,
  "\u2581Your": 795,
  "Other": 796,
  "\u2581something": 797,
  "\u2581\u0c2e\u0c30\u0c3f\u0c2f\u0c41": 798,
  "\u2581better": 799,
  "\u2581hath": 800,
  "\u2581heaven": 801,
  "\u0cbf\u0ca8": 802,
  "\u2581therefore": 803,
  "al": 804,
  "\u2581look": 805,
  "\u2581\u0ca6\u0cc7\u0cb5\u0cb0\u0cc1": 806,
  "\u0c28\u0c4d": 807,
  "\u0baf\u0bbe\u0b95": 808,
  "\u2581toward": 809,
  "\u0cb0\u0ccd": 810,
  "\u2581\u0d28\u0d3f\u0d28\u0d4d\u0d28\u0d4d": 811,
  "\u2581ministry": 812,
  "\u258118": 813,
  "\u2581cause": 814,
  "\u2581\u0d28\u0d2e\u0d4d\u0d2e\u0d41\u0d1f\u0d46": 815,
  "\u2581With": 816,
  "\u2581disciples": 817,
  "\u2581\u0ca8\u0cae\u0c97\u0cc6": 818,
  "\u2581always": 819,
  "\u2581later": 820,
  "\u0bb2\u0bbe\u0bae\u0bcd": 821,
  "\u2581thing": 822,
  "\u2581according": 823,
  "\u2581\u0c86\u0ca4\u0ca8\u0cc1": 824,
  "\u2581\u0caa\u0cc1\u0c9f": 825,
  "\u0baa\u0bcd\u0baa": 826,
  "n": 827,
  "\u258130": 828,
  "\u2581ask": 829,
  "\u2581order": 830,
  "\u0d15\u0d4d": 831,
  "\u2581\u0baf\u0bc6\u0b95\u0bcb\u0bb5\u0bbe": 832,
  "\u0ccd": 833,
  "\u2581asked": 834,
  "\u0d19\u0d4d\u0d19\u0d33\u0d4d": 835,
  "\u2581having": 836,
  "\u0bbe": 837,
  "\u258117": 838,
  "\u2581\u0c05\u0c24\u0c21\u0c41": 839,
  "\u0c30\u0c3e": 840,
  "\u2581women": 841,
  "\u2581going": 842,
  "g": 843,
  "\u0d33": 844,
  "\u2581\u0c85\u0ca6\u0ca8\u0ccd\u0ca8\u0cc1": 845,
  "\u0d32\u0d4d": 846,
  "\u2581\u0ca8\u0ca8\u0c97\u0cc6": 847,
  "\u2581\u0b9a\u0bc6\u0baf\u0bcd\u0baf": 848,
  "\u2581\u0c1a\u0c47\u0c2f": 849,
  "\u2581These": 850,
  "\u2581Him": 851,
  "\u2581heard": 852,
  "\u0d3f\u0d1a\u0d4d\u0d1a\u0d41": 853,
  "\u2581preaching": 854,
  "\u0cb2\u0ccd": 855,
  "ll": 856,
  "\u2581speak": 857,
  "\u2581\u0ca8\u0cc0\u0ca8\u0cc1": 858,
  "\u0c48\u0c28": 859,
  "\u2581\u0b87\u0bb2\u0bcd\u0bb2\u0bc8": 860,
  "\u2581night": 861,
  "\u0d2e\u0d3e\u0d23\u0d4d": 862,
  "\u2581making": 863,
  "\u0cb2\u0cbf": 864,
  "\u2581Yet": 865,
  "\u0d2f\u0d46": 866,
  "_": 867,
  "\u2581\u0b8e\u0ba9": 868,
  "\u0cc1\u0ca4\u0ccd\u0ca4\u0cbe\u0ca8\u0cc6": 869,
  "\u2581\u0d0e\u0d28\u0d4d\u0d28\u0d3e\u0d32\u0d4d": 870,
  "\u2581cannot": 871,
  "\u0bb5\u0bc7": 872,
  "\u2581\u0c07\u0c32\u0c3e": 873,
  "\u2581really": 874,
  "\u2581mankind": 875,
  "\u2581indeed": 876,
  "\u2581Thus": 877,
  "\u2581Psalm": 878,
  "\u2581hearts": 879,
  "\u2581temporary": 880,
  "\u2581neither": 881,
  "\u2581tell": 882,
  "\u0c1f": 883,
  "\u0d1f": 884,
  "\u2581righteous": 885,
  "\u2581\u0c06\u0c2e\u0c46": 886,
  "\u2581however": 887,
  "\u2581law": 888,
  "\u2581nations": 889,
  "\u2581\u0c87\u0ca6\u0cc1": 890,
  "\u0cbf\u0cb0\u0cc1\u0cb5": 891,
  "\u2581\u0d0e\u0d28\u0d4d\u0d28\u0d4d": 892,
  "\u2581\u0b8e\u0ba9\u0bcd": 893,
  "\u258125": 894,
  "\u0cc1\u0ca4\u0ccd\u0ca4\u0cbe": 895,
  "\u2581fact": 896,
  "\u0b95\u0bb3\u0bbf\u0bb2\u0bcd": 897,
  "\u0d24\u0d4d\u0d24\u0d3f\u0d7d": 898,
  "\u0c02\u0c21\u0c3f": 899,
  "\u0d2a\u0d4d\u0d2a": 900,
  "\u2581\u0baa\u0bb1\u0bcd\u0bb1\u0bbf": 901,
  "\u2581\u0baa\u0bc8\u0baa\u0bbf\u0bb3\u0bcd": 902,
  "\u2581dead": 903,
  "\u2581prayer": 904,
  "\u2581S": 905,
  "\u2581high": 906,
  "\u0d41\u0d33\u0d4d\u0d33": 907,
  "\u2581Even": 908,
  "\u0c26\u0c41": 909,
  "\u0cb5\u0cc2": 910,
  "\u2581result": 911,
  "\u2581food": 912,
  "\u2581\u0bb2\u0bcd": 913,
  "\u2581\u0c09\u0c02\u0c26\u0c3f": 914,
  "\u0baf\u0bc7": 915,
  "\u2581best": 916,
  "\u2581century": 917,
  "\u2581heavens": 918,
  "\u0d2f\u0d4d": 919,
  "\u2581reason": 920,
  "\u0cbf\u0ca6\u0cc6": 921,
  "\u2581wicked": 922,
  "\u2581\u0b87\u0baf\u0bc7\u0b9a\u0bc1": 923,
  "\u2581\u0d28\u0d3f\u0d19\u0d4d\u0d19\u0d33\u0d46": 924,
  "an": 925,
  "\u2581Those": 926,
  "\u2581consider": 927,
  "\u0d2a": 928,
  "\u2581loving": 929,
  "\u2581B": 930,
  "\u2581\u0b89\u0bb3\u0bcd\u0bb3": 931,
  ".\u201d": 932,
  "\u0d2f\u0d3e\u0d23\u0d4d": 933,
  "\u2581\u0c0e\u0c32\u0c3e": 934,
  "\u2581\u0baa\u0b95\u0bcd\u0b95\u0bae\u0bcd": 935,
  "\u0bb0": 936,
  "\u2581\u0d1e\u0d19\u0d4d\u0d19\u0d33\u0d4d": 937,
  "\u0cb2\u0ccd\u0cb2": 938,
  "\u2581\u0c26\u0c47\u0c35\u0c41\u0c21\u0c41": 939,
  "\u2581Son": 940,
  "\u2581nothing": 941,
  "\u2581\u0d0e\u0d28\u0d4d\u0d31\u0d46": 942,
  "\u2581\u0c85\u0cb5\u0cb0\u0cbf\u0c97\u0cc6": 943,
  "\u2581last": 944,
  "\u2581\u0cb9\u0cc0\u0c97\u0cc6": 945,
  "\u0ba4\u0bbe\u0ba9\u0bcd": 946,
  "\u2581\u0d28\u0d3f\u0d28\u0d4d\u0d31\u0d46": 947,
  "\u2581wisdom": 948,
  "\u2581known": 949,
  "\u2581around": 950,
  "\u2581light": 951,
  "\u2581\u0bae\u0bc7\u0bb2\u0bc1\u0bae\u0bcd": 952,
  "\u2581\u0cac\u0c97\u0ccd\u0c97\u0cc6": 953,
  "\u2581\u0c85\u0ca6\u0cb0": 954,
  "\u0c32\u0c47\u0c26\u0c41": 955,
  "\u0c32\u0c4b\u0c28\u0c3f": 956,
  "\u0cac\u0cb9\u0cc1\u0ca6\u0cc1": 957,
  "\u258124": 958,
  "\u0bbe\u0ba9\u0bcd": 959,
  "\u2581King": 960,
  "\u2581article": 961,
  "\u2581Matthew": 962,
  "\u0c41\u0c2e\u0c41": 963,
  "\u0d3f\u0d7d": 964,
  "\u2581call": 965,
  "\u0c3f\u0c02\u0c26\u0c3f": 966,
  "\u2581four": 967,
  "\u2581\u0b9a\u0bbf\u0bb2": 968,
  "\u2581\u0ca4\u0cc1\u0c82\u0cac": 969,
  "\u2581far": 970,
  "\u0c17\u0c41": 971,
  "\u2581few": 972,
  "\u0cae": 973,
  "\u2581\u0c35\u0c3f": 974,
  "\u0d1f\u0d4d\u0d1f": 975,
  "\u2581From": 976,
  "\u258121": 977,
  "\u2581Abraham": 978,
  "\u2581free": 979,
  "\u2581file": 980,
  "\u2581\u0d2f\u0d3f": 981,
  "\u2581\u0c24\u0c30\u0c4d\u0c35\u0c3e\u0c24": 982,
  "\u0cbe\u0c97\u0cbf": 983,
  "\u2581hands": 984,
  "\u0c26": 985,
  "\u2581\u0baf\u0bc6\u0b95\u0bcb\u0bb5\u0bbe\u0bb5\u0bbf\u0ba9\u0bcd": 986,
  "\u0caf\u0ca8\u0ccd\u0ca8\u0cc1": 987,
  "\u2581eat": 988,
  "\u2581Many": 989,
  "\u2581\u0c15\u0c3e\u0c2c\u0c1f\u0c4d\u0c1f\u0c3f": 990,
  "\u0bcb": 991,
  "\u2581\u0cb9\u0cc7\u0cb3": 992,
  "\u0cbf\u0ca6": 993,
  "\u2581husband": 994,
  "\u2581\u0cb8": 995,
  "\u258112:": 996,
  "\u0cbf\u0ca4\u0cc1": 997,
  "\u258114": 998,
  "\u2581joy": 999,
  "\u0b95\u0bb3\u0bbf\u0ba9\u0bcd": 1000,
  "2": 1001,
  "?\"": 1002,
  "\u2581\u0c95\u0cb0\u0ccd\u0ca4\u0ca8\u0cc1": 1003,
  "\u0cb3": 1004,
  "\u0bb5\u0bb0\u0bcd\u0b95\u0bb3\u0bcd": 1005,
  "\u0cb5\u0cc7": 1006,
  "\u2581wrong": 1007,
  "\u2581next": 1008,
  "\u2581surely": 1009,
  "\u258122": 1010,
  "\u2581D": 1011,
  "\u2581someone": 1012,
  "\u2581Judah": 1013,
  "\u2581matter": 1014,
  "\u2581understand": 1015,
  "\u0c1f\u0c4d": 1016,
  "\u2581soul": 1017,
  "\u2581\u0d2f\u0d39\u0d4b\u0d35": 1018,
  "\u0bb2": 1019,
  "\u2581Scriptures": 1020,
  "\u0ba4\u0bcd\u0ba4\u0bc1": 1021,
  "\u0ccb": 1022,
  "\u2581marriage": 1023,
  ").": 1024,
  "\u2581follow": 1025,
  "\u2581hear": 1026,
  "%": 1027,
  "\u2581fellow": 1028,
  "or": 1029,
  "\u2581purpose": 1030,
  "\u2581\u0c8e": 1031,
  "\u2581\u0d0e\u0d28\u0d4d\u0d28\u0d46": 1032,
  "o": 1033,
  "p": 1034,
  "\u2581\u0d0e\u0d28\u0d3f\u0d15\u0d4d\u0d15\u0d4d": 1035,
  "\u0b9f\u0bcd": 1036,
  "\u2581system": 1037,
  "\u2581taken": 1038,
  "\u2581money": 1039,
  "\u2581personal": 1040,
  "\u2581\u0cb9\u0cbe\u0c97\u0cc2": 1041,
  "\u0d2f\u0d3f\u0d32\u0d4d": 1042,
  "\u2581\u0d05\u0d24\u0d41": 1043,
  "\u2581\u0ca8\u0cbf\u0cae\u0c97\u0cc6": 1044,
  "\u2581body": 1045,
  "\u2581humans": 1046,
  "\u2581yourself": 1047,
  "\u2581\u0cb9\u0cbe\u0c97\u0cc6": 1048,
  "\u2581\u0d24": 1049,
  "\u0cb9": 1050,
  "\u2581desire": 1051,
  "\u2581seen": 1052,
  "\u2581\u0b9a\u0bc6\u0baf\u0bcd\u0ba4\u0bc1": 1053,
  "\u2581\u0d35": 1054,
  "\u0ca1": 1055,
  "\u2581\u0c2e\u0c47\u0c2e\u0c41": 1056,
  "\u2581return": 1057,
  "\u0caa": 1058,
  "b": 1059,
  "\u2581\u0c35\u0c3e\u0c30\u0c3f\u0c28\u0c3f": 1060,
  "\u0b85": 1061,
  "\u2581counsel": 1062,
  "\u0bb5\u0bb0\u0bcd": 1063,
  "\u2581\u0b87\u0bb0\u0bc1\u0b95\u0bcd\u0b95\u0bbf\u0bb1\u0ba4\u0bc1": 1064,
  "\u0cbf\u0ca6\u0ccd\u0ca6": 1065,
  "\u2581\u0b95\u0b9f\u0bb5\u0bc1\u0bb3\u0bc1\u0b9f\u0bc8\u0baf": 1066,
  "\u2581certain": 1067,
  "\u2581following": 1068,
  "to": 1069,
  "\u2581\u0c32\u0c47\u0c26\u0c3e": 1070,
  "\u0c2e\u0c28\u0c3f": 1071,
  "\u0cb0\u0cc6": 1072,
  "\u2581thus": 1073,
  "\u2581certainly": 1074,
  "\u2581wise": 1075,
  "\u0cb0\u0cb2\u0ccd\u0cb2\u0cbf\u0cb0\u0cc1\u0cb5": 1076,
  "\u2581\u0b89\u0b99\u0bcd\u0b95\u0bb3\u0bc1\u0b95\u0bcd\u0b95\u0bc1": 1077,
  "\u2581fire": 1078,
  "\u2581care": 1079,
  "\u0c2e\u0c3e": 1080,
  "\u2581\u0d24\u0d28\u0d4d": 1081,
  "\u0ba4\u0bc8": 1082,
  "\u2581\u0b8e\u0ba9\u0bcd\u0baa\u0ba4\u0bc8": 1083,
  "\u2581\u0d0e": 1084,
  "\u2581Of": 1085,
  "T": 1086,
  "\u0d23\u0d02": 1087,
  "\u2581whole": 1088,
  "\u2581fine": 1089,
  "\u2581thought": 1090,
  "\u0d15\u0d33\u0d4d": 1091,
  "\u0cbf\u0ca6\u0cb0\u0cc1": 1092,
  "\u2581\u0c8e\u0cb2\u0ccd\u0cb2\u0cbe": 1093,
  "\u2581lives": 1094,
  "\u2581Not": 1095,
  "\u0c2a\u0c48": 1096,
  "eth": 1097,
  "\u0ca6\u0cc1": 1098,
  "\u0bae\u0bc1\u0bae\u0bcd": 1099,
  "\u2581\u0ba9\u0bcd": 1100,
  "\u2581leave": 1101,
  "\u2581since": 1102,
  "\u2581answer": 1103,
  "\u2581sure": 1104,
  "\u2581Synchronis": 1105,
  "\u0d3e\u0d2f": 1106,
  "\u0c28\u0c15\u0c41": 1107,
  "\u2581created": 1108,
  "\u258110:": 1109,
  "\u2581\u0c1a\u0c47\u0c38\u0c3f\u0c28": 1110,
  "\u2581\u0ba8\u0bc0\u0bb0\u0bcd": 1111,
  "\u0bc8\u0baf\u0bc1\u0bae\u0bcd": 1112,
  "\u0c28\u0c41\u0c02\u0c21\u0c3f": 1113,
  "\u2581\u0b90": 1114,
  "\u2581\u0d05\u0d26\u0d4d\u0d26\u0d47\u0d39\u0d02": 1115,
  "\u2581helped": 1116,
  "\u0c95\u0ccd": 1117,
  "\u2581near": 1118,
  "\u0d3e\u0d02": 1119,
  "\u2581\u0c1a\u0c3e\u0c32\u0c3e": 1120,
  "\u0d28\u0d3f": 1121,
  "\u0c23": 1122,
  "\u2581\u0d07\u0d24\u0d4d": 1123,
  "\u0b9a": 1124,
  "D": 1125,
  "\u2581\u0c85\u0ca5\u0cb5\u0cbe": 1126,
  "\u2581Because": 1127,
  "\u2581Indeed": 1128,
  "\u2581works": 1129,
  "\u2581\u0c38\u0c39\u0c3e\u0c2f\u0c02": 1130,
  "\u2581Read": 1131,
  "\u2581Are": 1132,
  "\u2581different": 1133,
  "\u2581questions": 1134,
  "\u2581clear": 1135,
  "\u2581hard": 1136,
  "\u2581bad": 1137,
  "\u2581\u0d26\u0d48\u0d35": 1138,
  "\u2581s": 1139,
  "\u2581\u0b95\u0bca\u0ba3\u0bcd\u0b9f\u0bc1": 1140,
  "\u0cca\u0c82\u0ca6\u0cbf\u0c97\u0cc6": 1141,
  "\u2581Jews": 1142,
  "\u2581future": 1143,
  "\u0bb5\u0bbf\u0b9f": 1144,
  "\u2581received": 1145,
  "\u2581Day": 1146,
  "\u0cb2\u0cbf\u0cb2\u0ccd\u0cb2": 1147,
  "\u0c37": 1148,
  "\u2581elders": 1149,
  "\u2581\u0bae\u0bb1\u0bcd\u0bb1\u0bc1\u0bae\u0bcd": 1150,
  "\u0c82\u0ca4\u0cc6": 1151,
  "\u2581receive": 1152,
  "\u2581\u0d05\u0d35\u0d28\u0d46": 1153,
  "3": 1154,
  "\u2581friends": 1155,
  "\u2581\u0c28\u0c28\u0c4d\u0c28\u0c41": 1156,
  "\u2581experience": 1157,
  "\u2581\u0c28": 1158,
  "\u0d35\u0d30": 1159,
  "\u2581\u0c15\u0c3e\u0c28\u0c40": 1160,
  "\u2581\u0c2e\u0c28\u0c15\u0c41": 1161,
  "\u0c2c\u0c21\u0c3f\u0c28": 1162,
  "\u2581support": 1163,
  "\u0d2f\u0d3f\u0d7d": 1164,
  "\u258111:": 1165,
  "\u0d2f\u0d41\u0d33\u0d4d\u0d33": 1166,
  "\u0c21\u0c4d": 1167,
  "\u2581religious": 1168,
  "\u2581offering": 1169,
  "\u2581\u0d35\u0d3f": 1170,
  "\u2581comes": 1171,
  "\u2581\u0b87": 1172,
  "\u2581war": 1173,
  "\u2581\u0baa\u0bb2": 1174,
  "\u2581problems": 1175,
  "\u2581\u0c9a\u0cbf\u0ca4\u0ccd\u0cb0": 1176,
  "\u2581continue": 1177,
  "\u25817:": 1178,
  "\u2581die": 1179,
  "\u2581present": 1180,
  "\u2581\u0c0e": 1181,
  "\u2581\u0b85\u0bb5\u0bb0\u0bc1\u0b9f\u0bc8\u0baf": 1182,
  "\u2581\u0cae\u0cc2\u0cb2\u0c95": 1183,
  "\u0ca6\u0ccd\u0ca6": 1184,
  "\u2581got": 1185,
  "\u2581possible": 1186,
  "\u2581\u0b9a": 1187,
  "\u258123": 1188,
  "\u0d3e\u0d2f\u0d3f": 1189,
  "\u2581language": 1190,
  "\u0c42": 1191,
  "\u2581information": 1192,
  "\u0c28\u0c40": 1193,
  "\u0d15\u0d7e": 1194,
  "\u2581anointed": 1195,
  "\u2581\u0b85\u0ba4\u0bc8": 1196,
  "\u2581Egypt": 1197,
  "\u2581kind": 1198,
  "\u2581share": 1199,
  "\u0bc1\u0b95\u0bbf\u0bb1\u0ba4\u0bc1": 1200,
  "\u0c2e\u0c40\u0c26": 1201,
  "\u2581knew": 1202,
  "\u2581\u0c05\u0c28\u0c47": 1203,
  "\u2581\u0c26\u0c4d\u0c35\u0c3e\u0c30\u0c3e": 1204,
  "\u2581learned": 1205,
  "\u2581Isaiah": 1206,
  "\u0c35\u0c1a\u0c4d\u0c1a\u0c41": 1207,
  "\u2581meetings": 1208,
  "\u0d2e\u0d41\u0d33\u0d4d\u0d33": 1209,
  "\u2581seven": 1210,
  "\u2581\u0d0e\u0d19\u0d4d\u0d19\u0d28\u0d46": 1211,
  "\u2581Therefore": 1212,
  "M": 1213,
  "\u0d2a\u0d4d\u0d2a\u0d46\u0d1f\u0d4d\u0d1f": 1214,
  "\u0d7d": 1215,
  "\u0bb5\u0bbf": 1216,
  "\u2581\u0b86": 1217,
  "\u25814.": 1218,
  "\u2581\u0c32\u0c47\u0c26\u0c41": 1219,
  "\u2581\u0bae\u0bc0\u0ba4\u0bc1": 1220,
  "\u2581\u0c95\u0cc1\u0cb0\u0cbf\u0ca4\u0cc1": 1221,
  "\u2581needed": 1222,
  "\u2581strong": 1223,
  "P": 1224,
  "es": 1225,
  "\u2581\u0c15\u0c4b\u0c38\u0c02": 1226,
  "\u0b9f\u0bbf": 1227,
  "\u0ba8\u0bcd\u0ba4\u0bc1": 1228,
  "\u2581trust": 1229,
  "\u2581...": 1230,
  "\u2581Solomon": 1231,
  "\u0ba4\u0bbe\u0b95": 1232,
  "\u2581whose": 1233,
  "\u2581\u0b85\u0bb5\u0bb0\u0bcd\u0b95\u0bb3\u0bc1\u0b95\u0bcd\u0b95\u0bc1": 1234,
  "\u2581died": 1235,
  "\u2581\u0c95\u0cb0\u0ccd\u0ca4\u0ca8": 1236,
  "\u2581\u0c2e\u0c40\u0c15\u0c41": 1237,
  "\u0cb0\u0cb2\u0ccd\u0cb2\u0cbf": 1238,
  "ve": 1239,
  "\u2581mean": 1240,
  "\u2581Evolution": 1241,
  "\u2581righteousness": 1242,
  "\u0d17": 1243,
  "\u2581five": 1244,
  "\u2581along": 1245,
  "\u2581\u0c95\u0cca\u0ca1": 1246,
  "\u2581'%": 1247,
  "\u2581happy": 1248,
  "\u2581age": 1249,
  "\u0bb5\u0bbf\u0bb2\u0bcd\u0bb2\u0bc8": 1250,
  "\u2581Organisation": 1251,
  "\u2581\u0d2e\u0d3e": 1252,
  "\u2581\u0d2a": 1253,
  "\u2581stand": 1254,
  "\u2581\u0c85\u0cb5\u0ca8\u0cbf\u0c97\u0cc6": 1255,
  "\u0c02\u0c24": 1256,
  "\u25812.": 1257,
  "\u0c28\u0c4d\u0c28": 1258,
  "\u0d35\u0d3f": 1259,
  "\u2581talk": 1260,
  "\u2581\u0c87\u0cb2\u0ccd\u0cb2": 1261,
  "\u2581head": 1262,
  "1": 1263,
  "\u2581whether": 1264,
  "\u2581believers": 1265,
  "\u0d2f\u0d3e": 1266,
  "\u0c9f\u0ccd": 1267,
  "\u2581relationship": 1268,
  "\u2581prophet": 1269,
  "\u2581side": 1270,
  "\u2581account": 1271,
  "\u0c3e\u0c32\u0c3f": 1272,
  "\u0c2e\u0c47": 1273,
  "\u0cb5\u0cbe\u0c97\u0cbf\u0ca6\u0cc6": 1274,
  "Comment": 1275,
  "\u2581Proverbs": 1276,
  "\u2581felt": 1277,
  "\u0c39": 1278,
  "\u2581\u0d05\u0d35\u0d7c": 1279,
  "\u2581\u0b86\u0b95\u0bb5\u0bc7": 1280,
  "\u2581early": 1281,
  "\u2581Be": 1282,
  "\u2581small": 1283,
  "\u2581self": 1284,
  "\u2581soon": 1285,
  "\u2581case": 1286,
  "\u2581\u0c2a": 1287,
  "\u2581\u0b8f\u0ba9\u0bcd": 1288,
  "\u2581nation": 1289,
  "\u2581already": 1290,
  "\u2581\u0c2a\u0c47\u0c1c\u0c40\u0c32\u0c4b": 1291,
  "\u0d24\u0d3f": 1292,
  "\u2581\u0c9c\u0ca8\u0cb0\u0cc1": 1293,
  "\u0d31\u0d4d\u0d31": 1294,
  "\u2581glory": 1295,
  "\u0b95\u0bb3\u0bc8\u0baf\u0bc1\u0bae\u0bcd": 1296,
  "\u0c35\u0c3e\u0c30\u0c41": 1297,
  "\u0baf\u0bbe": 1298,
  "\u0cbf\u0ca4": 1299,
  "\u0b95\u0bb3\u0bc1\u0bae\u0bcd": 1300,
  "\u0b95\u0bb3\u0bc1\u0b95\u0bcd\u0b95\u0bc1": 1301,
  "\u2581ourselves": 1302,
  "\u2581\u0d1a\u0d46\u0d2f\u0d4d\u0d2f": 1303,
  "\u2581makes": 1304,
  "\u2581\u0d1a\u0d46\u0d2f\u0d4d": 1305,
  "\u2581Job": 1306,
  "\u2581kingdom": 1307,
  "\u0d3e\u0d32\u0d4d": 1308,
  "\u2060": 1309,
  "\u2581religion": 1310,
  "\u2581\u0c1a\u0c46\u0c2a\u0c4d\u0c2a": 1311,
  "\u2581\u0d0e\u0d32\u0d4d\u0d32\u0d3e": 1312,
  "\u2581\u0c35\u0c3e\u0c30\u0c3f\u0c15\u0c3f": 1313,
  "\u2581\u0d28\u0d3f\u0d30\u0d4d": 1314,
  "\u2581mercy": 1315,
  "\u2581benefit": 1316,
  "\u2581\u0d05\u0d35\u0d28\u0d4d\u0d31\u0d46": 1317,
  "\u2581change": 1318,
  "\u0b9f": 1319,
  "\u2581teaching": 1320,
  "\u2581\u0d28\u0d32\u0d4d\u0d32": 1321,
  "\u2581kindness": 1322,
  "on": 1323,
  "\u2581\u0c15\u0c3e\u0c26\u0c41": 1324,
  "\u0baa\u0bcd\u0baa\u0b9f": 1325,
  "\u0c2e\u0c41\u0c28\u0c41": 1326,
  "\u0d39": 1327,
  "\u2581\"%": 1328,
  "\u0d41\u0d1f\u0d46": 1329,
  "\u2581school": 1330,
  "\u2581anything": 1331,
  "\u0bb5\u0bc1": 1332,
  "\u0d1a": 1333,
  "\u0c15\u0c3e": 1334,
  "\u2581lead": 1335,
  "\u2581strength": 1336,
  "\u0baf\u0bbe\u0ba9": 1337,
  "\u2581\u0d15\u0d4d\u0d15\u0d41": 1338,
  "\u0c41\u0c21\u0c3f": 1339,
  "\u2581\u0d28\u0d3f\u0d28\u0d4d": 1340,
  "\u2581\u0c2a\u0c28\u0c3f": 1341,
  "\u0c41\u0c1a\u0c41": 1342,
  "\u2581\u0b8e": 1343,
  "\u2581turned": 1344,
  "\u2581\u0b87\u0bb0\u0bc1\u0b95\u0bcd\u0b95": 1345,
  "\u2581servant": 1346,
  "\u2581point": 1347,
  "\u0bb5\u0ba9\u0bcd": 1348,
  "\u0cae\u0cbe\u0ca1": 1349,
  "\u0cb3\u0cc1": 1350,
  "\u2581seek": 1351,
  "\u0d32\u0d4d\u0d32": 1352,
  "\u0b9f\u0bc1": 1353,
  "\u0c2e\u0c41\u0c17\u0c3e": 1354,
  "\u0ca3": 1355,
  "\u0ca4\u0ccd\u0ca4": 1356,
  "\u2581Israelites": 1357,
  "\u2581\u0b87\u0bb0\u0bc1\u0b95\u0bcd\u0b95\u0bc1\u0bae\u0bcd": 1358,
  "\u2581\u0b9a\u0bc6\u0baf\u0bcd\u0ba4": 1359,
  "\u0c4b": 1360,
  "\u2581kg": 1361,
  "\u2581\u0d1a\u0d46\u0d2f\u0d4d\u0d24\u0d41": 1362,
  "):": 1363,
  "\u2581\u0d05\u0d35\u0d7b": 1364,
  "\u2581value": 1365,
  "\u2581\u201d?": 1366,
  "\u2581World": 1367,
  "You": 1368,
  "\u2581\u0c2e\u0c02\u0c1a\u0c3f": 1369,
  "\u258110.": 1370,
  "\u258131": 1371,
  "\u0baa\u0bcd\u0baa\u0bc1": 1372,
  "R": 1373,
  "\u258115,": 1374,
  "\u2581mail": 1375,
  "\u0d05\u0d2a\u0d4d\u0d2a\u0d4b\u0d33\u0d4d": 1376,
  "\u0d28\u0d4d\u0d28": 1377,
  "\u2581voice": 1378,
  "\u2581sea": 1379,
  "\u2581\u0ba4\u0ba9\u0bcd": 1380,
  "\u2581\u0b8e\u0baa\u0bcd\u0baa\u0b9f\u0bbf": 1381,
  "\u2581\u0cb9\u0ccb\u0c97": 1382,
  "\u2581giving": 1383,
  "\u0cc1\u0cb5\u0cbe\u0c97": 1384,
  "\u2581\u0c2a\u0c4d\u0c30\u0c24\u0c3f": 1385,
  "\u2581initialise": 1386,
  "st": 1387,
  "\u0bc1\u0b99\u0bcd\u0b95\u0bb3\u0bcd": 1388,
  "\u2581\u0d24\u0d19\u0d4d\u0d19\u0d33\u0d41\u0d1f\u0d46": 1389,
  "\u2581\u0c15\u0c3e": 1390,
  "\u0cbf\u0c97\u0cc2": 1391,
  "\u0b99\u0bcd\u0b95\u0bb3\u0bc8": 1392,
  "\u0b99\u0bcd\u0b95": 1393,
  "\u2581coming": 1394,
  "\u0bb1\u0bcd\u0bb1": 1395,
  "\u2581\u0c85\u0ca8\u0cc7\u0c95": 1396,
  "\u2581flesh": 1397,
  "\u2581\u0c15": 1398,
  "\u2581ten": 1399,
  "\u2581pray": 1400,
  "(_": 1401,
  "\u2581\u0b85\u0bb5\u0bb0\u0bcd\u0b95\u0bb3\u0bc1\u0b9f\u0bc8\u0baf": 1402,
  "\u0d21\u0d4d": 1403,
  "\u2581remember": 1404,
  "\u2581Say": 1405,
  "\u2581\u0d2a\u0d31\u0d1e\u0d4d\u0d1e": 1406,
  "\u0caf\u0cc2": 1407,
  "\u2581avoid": 1408,
  "\u2581group": 1409,
  "\u2581country": 1410,
  "\u0c2f\u0c3e": 1411,
  "\u2581enjoy": 1412,
  "\u2581\u0c05\u0c2a\u0c4d\u0c2a\u0c41\u0c21\u0c41": 1413,
  "\u2581\u0d2f\u0d39\u0d4b\u0d35\u0d2f\u0d41\u0d1f\u0d46": 1414,
  "\u2581second": 1415,
  "\u2581field": 1416,
  "\u2581witness": 1417,
  "\u258127": 1418,
  "\u2581moved": 1419,
  "\u2581please": 1420,
  "\u2581\u0d38": 1421,
  "\u2581gives": 1422,
  "\u2581\u0c85\u0cb5\u0cb0\u0ca8\u0ccd\u0ca8\u0cc1": 1423,
  "\u2581above": 1424,
  "\u2581\u0cae\u0cc1\u0c82\u0ca6\u0cc6": 1425,
  "\u2581respect": 1426,
  "\u2581\u0c85\u0c82\u0ca6\u0ca8\u0cc1": 1427,
  "\u0ba9\u0bb0\u0bcd": 1428,
  "\u0d36": 1429,
  "\u2581\u0c09\u0c02\u0c21": 1430,
  "\u2581conduct": 1431,
  "\u0c24\u0c3f": 1432,
  "\u0d05": 1433,
  "\u2581temple": 1434,
  "\u2581Canno": 1435,
  "\u0bbe\u0ba4": 1436,
  "\u2581\u2013": 1437,
  "ic": 1438,
  "\u2581written": 1439,
  "\u2581\u0d2a\u0d4d\u0d30\u0d35\u0d30\u0d4d": 1440,
  "\u0d2e\u0d3e": 1441,
  "\u2581remain": 1442,
  "\u2581\u0d28": 1443,
  "\u2581members": 1444,
  "\u258140": 1445,
  "\u2581knows": 1446,
  "\u2581\u0d1a\u0d3f\u0d32": 1447,
  "\u2581within": 1448,
  "\u2581\u0cb9\u0cc6\u0c9a\u0ccd\u0c9a\u0cc1": 1449,
  "\u0d38\u0d3f": 1450,
  "\u2581heavenly": 1451,
  "\u2581situation": 1452,
  "\u2581Joseph": 1453,
  "\u2581\u0c2a\u0c4d\u0c30": 1454,
  "\u0d35\u0d30\u0d46": 1455,
  "\u0d24\u0d4d\u0d24\u0d41": 1456,
  "\u0cb0\u0cbf": 1457,
  "\u2581baptized": 1458,
  "\u2581pass": 1459,
  "\u2581covenant": 1460,
  "\u0c35\u0c41": 1461,
  "\u0ba4\u0bbf": 1462,
  "\u2581try": 1463,
  "\u258128": 1464,
  "\u2581\u0d28\u0d3f\u0d28\u0d4d\u0d28\u0d46": 1465,
  "\u0ba4\u0bcd\u0ba4\u0bbf\u0bb1\u0bcd\u0b95\u0bc1": 1466,
  "\u0c97\u0cb3\u0cbf\u0c97\u0cc6": 1467,
  "\u2581\u0c95\u0cbe\u0cb0\u0ca3": 1468,
  "\u2581\u0c95": 1469,
  "\u2581real": 1470,
  "\u0ba3": 1471,
  "\u2581needs": 1472,
  "\u0c3e\u0c2f\u0c3f": 1473,
  "\u2581sacrifice": 1474,
  "\u2581Timothy": 1475,
  "\u2581attention": 1476,
  "\u2581\u0c17\u0c28\u0c41\u0c15": 1477,
  "\u2581Saul": 1478,
  "\u2581ancient": 1479,
  "\u2581Most": 1480,
  "\u2581Such": 1481,
  "\u2581\u0d2a\u0d4d\u0d30": 1482,
  "\u0bc1\u0bb3\u0bcd\u0bb3": 1483,
  "\u2581\u0c8f\u0ca8\u0cc1": 1484,
  "\u0c9f": 1485,
  "\u25813.": 1486,
  "\u25813,": 1487,
  "\u25818.": 1488,
  "\u2581\u0baa\u0bc1\u0ba4\u0bbf\u0baf": 1489,
  "\u2581alone": 1490,
  "\u2581An": 1491,
  "\u2581sense": 1492,
  "\u25818,": 1493,
  "\u0cc1\u0cb5\u0cc1\u0ca6\u0cbf\u0cb2\u0ccd\u0cb2": 1494,
  "\u2581\u0ca6": 1495,
  "\u2581happened": 1496,
  "\u2581except": 1497,
  "\u2581\u0c2e": 1498,
  "\u0c4d": 1499,
  "4": 1500,
  "\u258132": 1501,
  "\u2581\u0b87\u0bb0\u0bc1\u0ba8\u0bcd\u0ba4": 1502,
  "\u2581question": 1503,
  "\u2581states": 1504,
  "\u0c30\u0c40": 1505,
  "\u0d3f\u0d2f": 1506,
  "\u2581Although": 1507,
  "\u2581See": 1508,
  "\u2581%1": 1509,
  "\u2581\u0b95": 1510,
  "\u0c3e\u0c28\u0c41": 1511,
  "\u2581priest": 1512,
  "\u0ca8\u0cc2": 1513,
  "\u2581especially": 1514,
  "\u0d4a": 1515,
  "\u2581everything": 1516,
  "\u25818:": 1517,
  "\u2581\u0c88\u0c97": 1518,
  "\u2581health": 1519,
  "\u0c41\u0c1f\u0c15\u0c41": 1520,
  "\u2581shal": 1521,
  "\u2581reading": 1522,
  "\u2581provide": 1523,
  "\u25817.": 1524,
  "\u2581hold": 1525,
  "\u0c2e\u0c4d": 1526,
  "\u2581forever": 1527,
  "\u2581angels": 1528,
  "\u2581hundred": 1529,
  "\u0c2a\u0c4d\u0c2a\u0c41\u0c21\u0c41": 1530,
  "\u2581serving": 1531,
  "\u2581once": 1532,
  "\u2581United": 1533,
  "\u2581promise": 1534,
  "\u2581\u0d0e\u0d28\u0d4d\u0d28\u0d3e\u0d7d": 1535,
  "\u2581act": 1536,
  "\u2581\u0b8e\u0ba9\u0b95\u0bcd\u0b95\u0bc1": 1537,
  "\u2581Consider": 1538,
  "\u2581sheep": 1539,
  "\u0cb5\u0ca8\u0ccd\u0ca8\u0cc2": 1540,
  "\u2581difficult": 1541,
  "\u2581Adam": 1542,
  "\u25815.": 1543,
  "\u2581anyone": 1544,
  "\u0c32\u0c15\u0c41": 1545,
  "\u2581Their": 1546,
  "\u2581\u0ba8\u0bbe\u0b99\u0bcd\u0b95\u0bb3\u0bcd": 1547,
  "\u2581taking": 1548,
  "\u2581Since": 1549,
  "\u2581\u0d15\u0d4d\u0d30\u0d3f\u0d38\u0d4d": 1550,
  "\u2581\u0d05\u0d32\u0d4d\u0d32\u0d3e\u0d39\u0d41\u0d35\u0d3f\u0d28\u0d4d": 1551,
  "\u2581\u0ca8\u0ca8\u0ccd\u0ca8\u0ca8\u0ccd\u0ca8\u0cc1": 1552,
  "5": 1553,
  "\u0bb0\u0bbf": 1554,
  "\u2581\u0d07": 1555,
  "\u2581understanding": 1556,
  "\u0c1f\u0c3f": 1557,
  "\u2581control": 1558,
  "\u0d3f\u0d28\u0d4d": 1559,
  "\u2581\u0c07": 1560,
  "\u2581\u0c2a\u0c4c\u0c32\u0c41": 1561,
  "\u2581taught": 1562,
  "\u0d24\u0d4d\u0d24\u0d4d": 1563,
  "\u2581\u0bb5\u0ba8\u0bcd\u0ba4": 1564,
  "\u2581six": 1565,
  "\u0cb0\u0cc2": 1566,
  "\u2581didn": 1567,
  "\u2581walk": 1568,
  "\u2581rest": 1569,
  "\u2581Or": 1570,
  "\u0caf\u0cbe": 1571,
  "\u2581move": 1572,
  "\u0ccd\u0caf": 1573,
  "\u0c21\u0c3f": 1574,
  "\u258114.": 1575,
  "\u2581\u0c9c\u0ca8\u0cb0": 1576,
  "\u2581\u0d0e\u0d28\u0d4d\u0d24\u0d41": 1577,
  "\u0bae\u0bc8": 1578,
  "\u0d30\u0d41\u0d24\u0d4d": 1579,
  "\u2581spoke": 1580,
  "\u2581save": 1581,
  "\u0bb2\u0bc8": 1582,
  "\u2581feet": 1583,
  "\u2581\u0bb5\u0bb4\u0bbf": 1584,
  "We": 1585,
  "\u2581\u0c2e\u0c3e\u0c1f": 1586,
  "\u2581feelings": 1587,
  "\u0bb0\u0bc8": 1588,
  "\u2581thousand": 1589,
  "\u2581\u0d05\u0d35": 1590,
  "\u2581fathers": 1591,
  "\u2581\u0c0f\u0c2e\u0c3f": 1592,
  "\u0d15\u0d4d\u0d15\u0d41\u0d15": 1593,
  "\u0c95\u0ccd\u0c95\u0cbe\u0c97\u0cbf": 1594,
  "\u2581daughter": 1595,
  "\u2581Corinthians": 1596,
  "\u2581command": 1597,
  "\u2581lost": 1598,
  "\u2581\u0c35\u0c1a\u0c4d\u0c1a\u0c3f": 1599,
  "\u2581\u0d35\u0d47\u0d23\u0d4d\u0d1f\u0d3f": 1600,
  "\u0cbf\u0ca6\u0ccd\u0ca6\u0cbe\u0cb0\u0cc6": 1601,
  "\u2581~": 1602,
  "\u258115:": 1603,
  "\u2581Will": 1604,
  "\u0bb3": 1605,
  "\u2581false": 1606,
  "\u0cc1\u0ca4\u0ccd\u0ca4\u0cb5\u0cc6": 1607,
  "\u2581commanded": 1608,
  "\u2581suffering": 1609,
  "\u0d24\u0d4d\u0d24\u0d3f": 1610,
  "\u0c02\u0c32\u0c4b": 1611,
  "\u2581M": 1612,
  "\u2581kept": 1613,
  "\u2581wanted": 1614,
  "\u2581\u0d28\u0d3f\u0d28\u0d15\u0d4d\u0d15\u0d4d": 1615,
  "\u2581\u0ca8\u0ccb\u0ca1": 1616,
  "\u0ca8\u0cc6": 1617,
  "\u2581text": 1618,
  "\u2581\u0b93\u0bb0\u0bcd": 1619,
  "able": 1620,
  "\u2581\u0d28\u0d3f\u0d19\u0d4d\u0d19\u0d7e": 1621,
  "\u2581\u0ba8\u0bae\u0bcd\u0baa\u0bbf\u0b95\u0bcd\u0b95\u0bc8": 1622,
  "\u0c3e\u0c32": 1623,
  "\u2581teach": 1624,
  "\u2581answered": 1625,
  "\u258111.": 1626,
  "\u2581greater": 1627,
  "\u0cc0": 1628,
  "\u0bbe\u0baf\u0bcd": 1629,
  "\u2581thinking": 1630,
  "x": 1631,
  "\u2581\u0baa": 1632,
  "\u258112.": 1633,
  "\u2581offer": 1634,
  "\u2581behold": 1635,
  "\u2581Law": 1636,
  "\u2581\u0c2f\u0c4a\u0c15\u0c4d\u0c15": 1637,
  "\u2581People": 1638,
  "\u2581\u0bb5\u0bb0": 1639,
  "\u2581allow": 1640,
  "\u2581image": 1641,
  "\u2581\u0cac\u0cb0": 1642,
  "\u2581Have": 1643,
  "\u0baf\u0bcb": 1644,
  "\u2581\u0c07\u0c26\u0c3f": 1645,
  "\u0cca": 1646,
  "ers": 1647,
  "\u2581While": 1648,
  "\u0b9a\u0bbf": 1649,
  "\u2581\u0b89\u0ba4\u0bb5\u0bbf": 1650,
  "\u258133": 1651,
  "\u0d3f\u0d1a\u0d4d\u0d1a": 1652,
  "\u2581\u0d2a\u0d3f\u0d28\u0d4d\u0d28\u0d46": 1653,
  "\u2581\u0caf\u0cbe\u0cb5\u0cc1\u0ca6": 1654,
  "\u0d40": 1655,
  "\u2581Book": 1656,
  "\u2581appointed": 1657,
  "\u2581\u0c35": 1658,
  "\u2581\u0c85\u0cb5\u0ca8\u0ca8\u0ccd\u0ca8\u0cc1": 1659,
  "\u0d2e\u0d4b": 1660,
  "\u2581attitude": 1661,
  "\u0d31\u0d4d\u0d31\u0d4d": 1662,
  "\u0ca8\u0cbe": 1663,
  "u": 1664,
  "\u2581judgment": 1665,
  "\u2581likely": 1666,
  "\u2581\u0c0e\u0c02\u0c26\u0c41\u0c15\u0c41": 1667,
  "\u2581morning": 1668,
  "\u2581\u0b85\u0ba4\u0ba9\u0bcd": 1669,
  "\u0c2c\u0c21": 1670,
  "\u0c38\u0c3f": 1671,
  "\u2581\u0c30\u0c3e": 1672,
  "\u2581Luke": 1673,
  "\u0ca4\u0cc6": 1674,
  "\u2581component": 1675,
  "\u2581sins": 1676,
  "\u2581Jacob": 1677,
  "\u2581married": 1678,
  "\u0ba4\u0bbe": 1679,
  "\u0c9c": 1680,
  "\u0c32\u0c3f": 1681,
  "\u0d1f\u0d3f": 1682,
  "\u2581special": 1683,
  "\u2581\u0b87\u0bb5\u0bcd\u0bb5\u0bbe\u0bb1\u0bc1": 1684,
  "\u2581Creator": 1685,
  "\u2581E": 1686,
  "\u2581\u0d05\u0d35\u0d3f\u0d1f\u0d46": 1687,
  "\u2581\u0b95\u0bca\u0ba3\u0bcd\u0b9f": 1688,
  "\u2581\u0b8e\u0ba8\u0bcd\u0ba4": 1689,
  "\u2581\u0c24\u0c3f\u0c30\u0c3f\u0c17\u0c3f": 1690,
  "\u2581lived": 1691,
  "\u0ca4\u0ccd": 1692,
  "\u2581\u0d15\u0d4a\u0d23\u0d4d\u0d1f\u0d4d": 1693,
  "\u2581places": 1694,
  "\u0d41\u0d23\u0d4d\u0d1f\u0d4d": 1695,
  "\u2581punishment": 1696,
  "\u2581provided": 1697,
  "\u2581\u0d2c\u0d48\u0d2c\u0d3f\u0d7e": 1698,
  "\u2581using": 1699,
  "\u2581perfect": 1700,
  "\u25819.": 1701,
  "\u2581\u0ca4\u0ccb\u0cb0\u0cbf\u0cb8": 1702,
  "l": 1703,
  "\u2581including": 1704,
  "\u2581yourselves": 1705,
  "\u0d30\u0d3f": 1706,
  "\u0bb5\u0bbe": 1707,
  "\u2581poor": 1708,
  "\u0baa\u0bcd\u0baa\u0b9f\u0bc1\u0bae\u0bcd": 1709,
  "\u2581\u0cb9\u0cca\u0cb8": 1710,
  "@": 1711,
  "\u0cae\u0ccd": 1712,
  "\u2581\u0b9a\u0bca\u0bb2\u0bcd\u0bb2": 1713,
  "\u0bbe\u0bae\u0bb2\u0bcd": 1714,
  "\u2581\u0ca8": 1715,
  "\u0d3e\u0d15\u0d41\u0d28\u0d4d\u0d28\u0d41": 1716,
  "\u2581\u0d1a\u0d46\u0d2f\u0d4d\u0d24": 1717,
  "\u2581Greek": 1718,
  "\u2581drink": 1719,
  "\u0bae\u0bc7": 1720,
  "\u2581\u0caf\u0cc7\u0cb8\u0cc1\u0cb5\u0cbf\u0ca8": 1721,
  "\u2581\u0d28\u0d2e\u0d41\u0d15\u0d4d\u0d15\u0d4d": 1722,
  "\u2581cities": 1723,
  "\u2581past": 1724,
  "\u0bc1\u0b9f\u0bc8\u0baf": 1725,
  "\u2581\u0b87\u0bb0\u0bc1\u0ba8\u0bcd\u0ba4\u0ba4\u0bc1": 1726,
  "\u258113.": 1727,
  "\u0c1c": 1728,
  "\u2581\u0c8e\u0cb2\u0ccd\u0cb2": 1729,
  "\u0c3e\u0c32\u0c28\u0c41": 1730,
  "\u0c2e\u0c3f": 1731,
  "B": 1732,
  "\u2581friend": 1733,
  "\u2581\u0cb8\u0c82\u0c97\u0ca1": 1734,
  "\u2581\u0baa\u0baf\u0ba9\u0bcd\u0baa\u0b9f\u0bc1\u0ba4\u0bcd\u0ba4": 1735,
  "\u0c26\u0c3e": 1736,
  "\u2581\u0ca8\u0ccb\u0ca1\u0cbf": 1737,
  "\u0ca8\u0cc7": 1738,
  "\u2581\u0c95\u0ccd\u0cb0\u0cc8\u0cb8\u0ccd\u0ca4": 1739,
  "is": 1740,
  "\u2581\u0b95\u0b9f\u0bb5\u0bc1\u0bb3\u0bcd": 1741,
  "\u258114:": 1742,
  "\u2581deal": 1743,
  "\u2581\u0c87": 1744,
  "\u2581\u0c36": 1745,
  "\u0b95\u0bcd\u0b95\u0bc1\u0bae\u0bcd": 1746,
  "\u2581\u0ba8\u0bae\u0b95\u0bcd\u0b95\u0bc1": 1747,
  "\u2581revealed": 1748,
  "\u2581everlasting": 1749,
  "\u0c41\u0c32\u0c41": 1750,
  "\u2581problem": 1751,
  "\u2581Watchtower": 1752,
  "\u0d24\u0d28\u0d4d\u0d28\u0d46": 1753,
  "\u2581Please": 1754,
  "\u2581truly": 1755,
  "\u0d35\u0d3e": 1756,
  "\u25819:": 1757,
  "\u2581large": 1758,
  "\u2581tree": 1759,
  "w": 1760,
  "\u2581\u0c05\u0c32\u0c3e": 1761,
  "\u0d24\u0d4d\u0d30": 1762,
  "\u2581\u0d35\u0d30": 1763,
  "\u2581\u0cae\u0cbe\u0ca1\u0cc1\u0cb5": 1764,
  "\u2581accept": 1765,
  "\u258116.": 1766,
  "\u2581apostles": 1767,
  "\u2581matters": 1768,
  "\u2581\u0cb5\u0cbf": 1769,
  "\u2581\u0cac\u0c82\u0ca6": 1770,
  "\u2581reward": 1771,
  "\u2581\u0d36\u0d3f\u0d15\u0d4d\u0d37": 1772,
  "\u2581Acts": 1773,
  "\u2581\u0c2a\u0c4a\u0c02\u0c26": 1774,
  "\u2581praise": 1775,
  "\u2581\u0c05\u0c28\u0c41": 1776,
  "\u2581mouth": 1777,
  "\u2581\u0d2f\u0d47\u0d36\u0d41": 1778,
  "\u2581cut": 1779,
  "\u0cb5\u0cb0\u0cc1": 1780,
  "\u2581\u0ba8\u0bb2\u0bcd\u0bb2": 1781,
  "\u2581principles": 1782,
  "\u0c36": 1783,
  "\u0c24\u0c41": 1784,
  "\u0d3e\u0d2f\u0d3f\u0d30\u0d41\u0d28\u0d4d\u0d28\u0d41": 1785,
  "\u2581\u0b8e\u0ba9\u0bcd\u0baa\u0ba4\u0bc1": 1786,
  "it": 1787,
  "\u0d35\u0d28\u0d4d": 1788,
  "\u2581\u0c05\u0c32\u0c3e\u0c02\u0c1f\u0c3f": 1789,
  "\u0bc1\u0b9f\u0ba9\u0bcd": 1790,
  "\u2581signs": 1791,
  "\u2581guidance": 1792,
  "\u2581sister": 1793,
  "\u0cb6": 1794,
  "\u2581priests": 1795,
  "\u2581\u0ba8\u0bc0": 1796,
  "\u2581\u0bb5\u0bc7\u0bb2\u0bc8": 1797,
  "\u2581sight": 1798,
  "\u258115.": 1799,
  "\u0bcb\u0b9f\u0bc1": 1800,
  "\u0cb5\u0cbe\u0c97": 1801,
  "\u2581bear": 1802,
  "\u0c26\u0c47": 1803,
  "f": 1804,
  "\u2581listen": 1805,
  "\u0baa\u0bcb\u0ba4\u0bc1": 1806,
  "\u2581Revelation": 1807,
  "\u0c9a": 1808,
  "\u258117.": 1809,
  "\u2581Does": 1810,
  "\u2581\u0c15\u0c40\u0c30\u0c4d\u0c24\u0c28": 1811,
  "\u0bc1\u0bae\u0bcd\u0baa\u0b9f\u0bbf": 1812,
  "\u0ba4\u0bb1\u0bcd\u0b95\u0bc1": 1813,
  "en": 1814,
  "\u2581rather": 1815,
  "\u2581\u0d1a\u0d46\u0d2f\u0d4d\u0d2f\u0d41\u0d02": 1816,
  "\u0cad": 1817,
  "\u2581authority": 1818,
  "\u0ba9\u0bc8": 1819,
  "\u2581deeds": 1820,
  "\u2581form": 1821,
  "\u2581resurrection": 1822,
  "\u2581\u0c2a\u0c47\u0c30\u0c41": 1823,
  "\u2581gold": 1824,
  "\u2581\u0ba8\u0bae\u0bcd": 1825,
  "\u0ca8\u0ccd\u0ca8": 1826,
  "\u2581\u0c26\u0c3e\u0c35\u0c40\u0c26\u0c41": 1827,
  "\u0d28\u0d4d\u0d28\u0d41": 1828,
  "\u2581\u0c95\u0cc6\u0cb2\u0cb5\u0cc1": 1829,
  "\u2581\u0c2a\u0c4d\u0c30\u0c47\u0c2e": 1830,
  "\u2581\u0d2a\u0d31\u0d2f\u0d41\u0d15": 1831,
  "\u25816.": 1832,
  "\u0baa\u0bcd\u0baa\u0b9f\u0bcd\u0b9f\u0ba4\u0bc1": 1833,
  "\u2581\u0d07\u0d35\u0d3f\u0d1f\u0d46": 1834,
  "\u2581\u0c15\u0c4a\u0c28\u0c4d\u0c28\u0c3f": 1835,
  "\u2581months": 1836,
  "\u0c41\u0c21\u0c41": 1837,
  "\u2581happiness": 1838,
  "\u2581\u0d35\u0d34\u0d3f": 1839,
  "\u0bb2\u0bbe": 1840,
  "\u0caf\u0cc1": 1841,
  "\u2581loved": 1842,
  "\u2581\u0b8e\u0ba9\u0bb5\u0bc7": 1843,
  "\u2581draw": 1844,
  "\u0c35\u0c3e": 1845,
  "\u2581\u0b8e\u0bb2\u0bcd\u0bb2\u0bbe": 1846,
  "\u0cb5\u0cbf": 1847,
  "\u2581\u0cb8\u0cb9\u0cbe\u0caf": 1848,
  "\u0c48": 1849,
  "\u0cb5\u0cc6": 1850,
  "\u2581\u0c38\u0c3e": 1851,
  "\u0bb1\u0bc1": 1852,
  "\u2581\u0d24\u0d28\u0d4d\u0d31\u0d46": 1853,
  "\u2581behind": 1854,
  "\u2581\u0d1f\u0d46": 1855,
  "\u2581\u0b85\u0bb5\u0bb0\u0bcd\u0b95\u0bb3\u0bc8": 1856,
  "\u2581Footnote": 1857,
  "\u2581followers": 1858,
  "\u2581\u0d05\u0d24\u0d3f\u0d28\u0d3e\u0d32\u0d4d": 1859,
  "\u2581Show": 1860,
  "\u2581doubt": 1861,
  "\u25819,": 1862,
  "\u0bae\u0bbe": 1863,
  "\u2581born": 1864,
  "\u25816,": 1865,
  "\u2581\u0b85\u0ba4\u0bbf\u0b95": 1866,
  "\u2581send": 1867,
  "\u258117:": 1868,
  "\u2581\u0b95\u0bbe\u0b9f\u0bcd\u0b9f": 1869,
  "ness": 1870,
  "\u2581enough": 1871,
  "\u2581Today": 1872,
  "\u2581none": 1873,
  "\u0cb7": 1874,
  "\u2581meet": 1875,
  "\u2581\u0d2e": 1876,
  "\u2581\u0ba4\u0bbe\u0ba9\u0bcd": 1877,
  "\u2581started": 1878,
  "us": 1879,
  "\u0d24\u0d3e": 1880,
  "\u0d34": 1881,
  "\u2581Romans": 1882,
  "\u2581local": 1883,
  "\u2581involved": 1884,
  "\u2581\u0c28\u0c40\u0c15\u0c41": 1885,
  "\u2581X": 1886,
  "\u2581sign": 1887,
  "\u0b9f\u0bcd\u0b9f": 1888,
  "\u2581action": 1889,
  "\u2581\u0d1e\u0d19\u0d4d\u0d19\u0d33\u0d41\u0d1f\u0d46": 1890,
  "\u2581\u0c2f\u0c46\u0c39\u0c4b\u0c35\u0c3e\u0c15\u0c41": 1891,
  "\u2581shows": 1892,
  "\u2581Pictures": 1893,
  "\u2581K": 1894,
  "\u2581whatever": 1895,
  "\u2581According": 1896,
  "\u0ba8\u0baa\u0bbf\u0baf\u0bc7": 1897,
  "\u2581divine": 1898,
  "\u25815,": 1899,
  "\u2581further": 1900,
  "\u2581\u0d07\u0d19\u0d4d\u0d19\u0d28\u0d46": 1901,
  "\u0caf\u0cc7": 1902,
  "!)": 1903,
  "\u2581fall": 1904,
  "\u0d3f\u0d15\u0d4d\u0d15": 1905,
  "\u2581\u0c1a\u0c3f\u0c24\u0c4d\u0c30": 1906,
  "\u2581similar": 1907,
  "\u2581write": 1908,
  "\u2581interest": 1909,
  "\u2581T": 1910,
  "\u2581\u0d1a\u0d46\u0d2f\u0d4d\u0d2f\u0d41\u0d15": 1911,
  "\u2581concerning": 1912,
  "\u2581\u0bb5\u0bbf": 1913,
  "\u2581P": 1914,
  "\u0bbf\u0bb2\u0bc1\u0bae\u0bcd": 1915,
  "\u0cb2\u0ccd\u0caa\u0c9f\u0ccd\u0c9f": 1916,
  "\u2581Noah": 1917,
  "\u258126": 1918,
  "\u2581returned": 1919,
  "\u2581\u0d35\u0d33\u0d30\u0d46": 1920,
  "\u0d41\u0d15\u0d2f\u0d3f\u0d32\u0d4d\u0d32": 1921,
  "\u2581fully": 1922,
  "\u2581\u0d35\u0d3e": 1923,
  "\u2581based": 1924,
  "\u2581\u0d05\u0d24\u0d3f\u0d28\u0d4d": 1925,
  "\u2581start": 1926,
  "\u2581individuals": 1927,
  "\u2581material": 1928,
  "\u2581James": 1929,
  "\u2581\u0ca6\u0cca\u0ca1\u0ccd\u0ca1": 1930,
  "\u2581\u0b87\u0ba4\u0bc8": 1931,
  "\u0d3f\u0d28\u0d4d\u0d31\u0d46": 1932,
  "\u0cc1\u0ca4\u0ccd\u0ca4\u0cc7\u0cb5\u0cc6": 1933,
  "\u0ba4\u0bc7": 1934,
  "\u2581\u0c35\u0c3e\u0c1f\u0c3f\u0c28\u0c3f": 1935,
  "\u2581\u0c95\u0cc7\u0cb3": 1936,
  "\u2581Move": 1937,
  "\u2581States": 1938,
  "\u0cbf\u0ca6\u0ccd\u0ca6\u0cbe\u0ca8\u0cc6": 1939,
  "\u0bbf\u0b9f\u0bae\u0bcd": 1940,
  "\u2581\u0cae": 1941,
  "\u2581\u0ba4\u0b99\u0bcd\u0b95\u0bb3\u0bcd": 1942,
  "\u0d23\u0d4d\u0d1f": 1943,
  "\u2581\u0cae\u0cbe\u0ca1\u0cbf\u0ca6": 1944,
  "\u0c3f\u0c30\u0c3f": 1945,
  "\u2581\u0d07\u0d32\u0d4d\u0d32": 1946,
  "\u2581\u0c2e\u0c40\u0c26": 1947,
  "\u2581evidence": 1948,
  "\u25812,": 1949,
  "\u2581\u0ca8\u0cae\u0ccd\u0cae\u0ca8\u0ccd\u0ca8\u0cc1": 1950,
  "\u258129": 1951,
  "\u2581\u0baa\u0bc6\u0bb1": 1952,
  "\u2581month": 1953,
  "\u2581spiritually": 1954,
  "\u2581anger": 1955,
  "\u2581slave": 1956,
  "\u2581sisters": 1957,
  "\u0cbf\u0caf": 1958,
  "\u2581NW": 1959,
  "\u0bc0\u0bb0\u0bcd\u0b95\u0bb3\u0bcd": 1960,
  "\u2581Did": 1961,
  "\u2581Daniel": 1962,
  "\u2581\u0d15\u0d3e\u0d23": 1963,
  "\u2581gift": 1964,
  "\u0bc1\u0b95\u0bbf\u0bb1": 1965,
  "\u0d3e\u0d28\u0d41\u0d02": 1966,
  "\u258150": 1967,
  "\u0d3f\u0d1f\u0d4d\u0d1f\u0d41\u0d23\u0d4d\u0d1f\u0d4d": 1968,
  "\u2581\u0d28\u0d3f": 1969,
  "\u2581\u0cb8\u0ca4\u0ccd\u0caf": 1970,
  "\u2581\u0b89": 1971,
  "\u2581\u0c0e\u0c02\u0c24\u0c4b": 1972,
  "\u0d24\u0d4d\u0d24\u0d3f\u0d28\u0d4d\u0d31\u0d46": 1973,
  "\u0c47\u0c02\u0c26\u0c41\u0c15\u0c41": 1974,
  "\u0bc1\u0bb5\u0ba4\u0bc1": 1975,
  "\u0c1a\u0c47\u0c24": 1976,
  "\u2581\u0d2a\u0d31\u0d2f\u0d41\u0d28\u0d4d\u0d28\u0d41": 1977,
  "\u2581showed": 1978,
  "\u2581\u0c87\u0cb0\u0cc1\u0cb5": 1979,
  "\u2581enemies": 1980,
  "\u25814,": 1981,
  "\u2581\u0c95\u0cc0\u0cb0\u0ccd\u0ca4\u0ca8\u0cc6": 1982,
  "est": 1983,
  "\u2581changed": 1984,
  "\u2581U": 1985,
  "\u2581raised": 1986,
  "\u2581gain": 1987,
  "\u2581simply": 1988,
  "\u2581\u0bae\u0bc1": 1989,
  "\u2581enter": 1990,
  "\u0cb5\u0cb0": 1991,
  "\u2581mentioned": 1992,
  "\u2581Like": 1993,
  "\u2581Rather": 1994,
  "\u2581sun": 1995,
  "\u2581Where": 1996,
  "\u0d19\u0d4d\u0d19\u0d33\u0d41\u0d02": 1997,
  "\u2581\u0cac\u0cc7\u0cb0\u0cc6": 1998,
  "\u2581wonderful": 1999,
  "F": 2000,
  "\u0bb2\u0bbf": 2001,
  "\u2581available": 2002,
  "\u2581longer": 2003,
  "k": 2004,
  "\u2581\u0c09": 2005,
  "\u2581\u0c26": 2006,
  "\u2581clean": 2007,
  "\u2581THE": 2008,
  "\u2581\u0baa\u0bbf\u0bb1\u0b95\u0bc1": 2009,
  "\u2581\u0d28\u0d3f\u0d19\u0d4d\u0d19\u0d33": 2010,
  "\u2581\u0c30\u0c46\u0c02\u0c21\u0c41": 2011,
  "\u2581blessings": 2012,
  "\u0cac": 2013,
  "\u2581\u0c28\u0c3f\u0c28\u0c4d\u0c28\u0c41": 2014,
  "\u0c3f\u0c28\u0c2a\u0c4d\u0c2a\u0c41\u0c21\u0c41": 2015,
  "\u2581\u0c24\u0c3e\u0c28\u0c41": 2016,
  "\u2581qualities": 2017,
  "\u2581\u0d30\u0d3f": 2018,
  "\u0d1c": 2019,
  "\u2581\u0ba8\u0bae\u0bcd\u0bae\u0bc1\u0b9f\u0bc8\u0baf": 2020,
  "\u2581\u0baa\u0bc7\u0b9a": 2021,
  "as": 2022,
  "\u2581blessing": 2023,
  "\u0d3e\u0d24\u0d46": 2024,
  "\u2581\u0bae\u0bc1\u0ba4\u0bb2\u0bcd": 2025,
  "\u2581Pharaoh": 2026,
  "le": 2027,
  "\u0bb5\u0bb0": 2028,
  "\u0c35\u0c32\u0c46\u0c28\u0c41": 2029,
  "\u2581effect": 2030,
  "\u0c2d": 2031,
  "\u2581door": 2032,
  "\u2581percent": 2033,
  "\u2581cast": 2034,
  "\u2581Devil": 2035,
  "\u2581deep": 2036,
  "\u2581comfort": 2037,
  "\u2581Dur": 2038,
  "\u2581\u0bae\u0bbf\u0b95\u0bb5\u0bc1\u0bae\u0bcd": 2039,
  "\u2581myself": 2040,
  "\u0c3e\u0c32\u0c28\u0c3f": 2041,
  "\u0d28\u0d3f\u0d28\u0d4d\u0d28\u0d4d": 2042,
  "\u0c97\u0cb3\u0cbf\u0c82\u0ca6": 2043,
  "\u2581ago": 2044,
  "\u0d31\u0d3f\u0d2f": 2045,
  "\u0cc1\u0cb5\u0ca6\u0c95\u0ccd\u0c95\u0cc6": 2046,
  "6": 2047,
  "\u2581Would": 2048,
  "\u2581stay": 2049,
  "\u2581saith": 2050,
  "\u0b95\u0bc1": 2051,
  "\u0d3f\u0d28\u0d46": 2052,
  "\u2581Just": 2053,
  "\u2581Don": 2054,
  "\u2581Name": 2055,
  "\u2581\u0c17\u0c4a\u0c2a\u0c4d\u0c2a": 2056,
  "\u2581led": 2057,
  "\u2581Well": 2058,
  "\u2581public": 2059,
  "\u2581\u25a1": 2060,
  "\u2581history": 2061,
  "\u0c35\u0c3e\u0c21\u0c41": 2062,
  "\u2581speaking": 2063,
  "\u2581Babylon": 2064,
  "\u0d32\u0d3f": 2065,
  "\u0c97\u0cb3\u0ca8\u0ccd\u0ca8\u0cc2": 2066,
  "\u0c1a\u0c4d\u0c1a": 2067,
  "\u0bbe\u0bb3\u0bcd": 2068,
  "L": 2069,
  "\u0c35\u0c47": 2070,
  "\u2581build": 2071,
  "\u0c24\u0c4d": 2072,
  "\u2581rule": 2073,
  "\u2581serious": 2074,
  "\u2581\u0b89\u0ba3\u0bcd\u0bae\u0bc8": 2075,
  "\u2581\u0c05\u0c35\u0c3f": 2076,
  "\u2581\u0ca8\u0c82\u0ca4\u0cb0": 2077,
  "\u2581promised": 2078,
  "\u2581\u0d0e\u0d24\u0d4d\u0d30": 2079,
  "\u0c41\u0c32": 2080,
  "\u2581perhaps": 2081,
  "\u0bb1": 2082,
  "\u0b95\u0bb3": 2083,
  "\u2581else": 2084,
  "\u2581obey": 2085,
  "\u0baa\u0bcd\u0baa\u0b9f\u0bc1\u0ba4\u0bcd\u0ba4": 2086,
  "7": 2087,
  "\u2581prayers": 2088,
  "\u2581display": 2089,
  "\u0c1c\u0c4d": 2090,
  "\u0d24\u0d3e\u0d23\u0d4d": 2091,
  "\u2581F": 2092,
  "\u2581\u0c8f\u0c95\u0cc6": 2093,
  "\u2581takes": 2094,
  "\u0c82\u0ca4": 2095,
  "\u0ca6\u0ccd\u0ca6\u0cc1": 2096,
  "\u0b87": 2097,
  "\u2581\u0b89\u0b99\u0bcd\u0b95\u0bb3\u0bc8": 2098,
  "\u2581meeting": 2099,
  "\u2581\u0c95\u0cc8": 2100,
  "\u0c95\u0cb0": 2101,
  "\u2581\u0d28\u0d4d\u0d28\u0d41": 2102,
  "\u2581kings": 2103,
  "\u2581\u0ca8\u0cbf\u0ca8\u0c97\u0cc6": 2104,
  "\u0d37\u0d4d": 2105,
  "\u2581million": 2106,
  "\u2581\u0c30\u0c3e\u0c1c\u0c41": 2107,
  "\u2581\u0c05\u0c15\u0c4d\u0c15\u0c21": 2108,
  "\u0d1a\u0d4d\u0d1a\u0d41": 2109,
  "\u0bc8\u0baa\u0bcd": 2110,
  "\u0c32\u0c47": 2111,
  "\u2581inspired": 2112,
  "\u2581\u0bae\u0bc1\u0b9f\u0bbf\u0baf\u0bb5\u0bbf\u0bb2\u0bcd\u0bb2\u0bc8": 2113,
  "\u2581\u0b95\u0bc1": 2114,
  "\u0c27": 2115,
  "\u2581bread": 2116,
  "\u2581\u0d07\u0d1f": 2117,
  "!\"": 2118,
  "\u0cbf\u0ca8\u0cb2\u0ccd\u0cb2\u0cbf": 2119,
  "\u2581\u0caa\u0ccd\u0cb0": 2120,
  "\u2581\u0cac": 2121,
  "\u2581less": 2122,
  "\u2581blessed": 2123,
  "\u0c3e\u0c02": 2124,
  "\u0d19\u0d4d\u0d19\u0d33": 2125,
  "\u2581--": 2126,
  "\u2581\u0c32\u0c4b": 2127,
  "\u2581destroyed": 2128,
  "U": 2129,
  "\u2581\u0d15\u0d48": 2130,
  "\u0d3f\u0d30\u0d3f\u0d15\u0d4d\u0d15\u0d41\u0d28\u0d4d\u0d28": 2131,
  "\u2581everyone": 2132,
  "\u2581\u0c26\u0c3e\u0c28\u0c3f\u0c28\u0c3f": 2133,
  "ther": 2134,
  "If": 2135,
  "\u0c35\u0c32\u0c46": 2136,
  "\u2581fruit": 2137,
  "\u2581\u0cae\u0cbe\u0ca1\u0cbf": 2138,
  "\u2581\u0c0e\u0c02\u0c24": 2139,
  "\u2581line": 2140,
  "\u2581effort": 2141,
  "\u2581least": 2142,
  "\u0d15\u0d33": 2143,
  "\u2581\u0d09": 2144,
  "\u2581\u0bae\u0bb1\u0bcd\u0bb1": 2145,
  "\u2581\u0c35\u0c4d\u0c2f\u0c15\u0c4d\u0c24\u0c3f": 2146,
  "h": 2147,
  "\u2581common": 2148,
  "\u2581error": 2149,
  "\u2581families": 2150,
  "N": 2151,
  "\u2581\u0d05\u0d35\u0d30": 2152,
  "\u2581circumstances": 2153,
  "\u0c46": 2154,
  "\u0cc1\u0ca4\u0ccd\u0ca4\u0cbf\u0ca6\u0ccd\u0ca6": 2155,
  "\u0ca1\u0ccd": 2156,
  "\u2581\u0d26\u0d48\u0d35\u0d02": 2157,
  "\u2581physical": 2158,
  "\u2581Go": 2159,
  "\u2581sword": 2160,
  "\u0c37\u0c4d": 2161,
  "\u0bbf\u0bb0\u0bc1\u0b95\u0bcd\u0b95\u0bc1\u0bae\u0bcd": 2162,
  "of": 2163,
  "\u2581served": 2164,
  "\u2581itself": 2165,
  "\u0d2f\u0d3e\u0d2f\u0d3f": 2166,
  "\u2581\u0c05\u0c02\u0c24": 2167,
  "\u2581named": 2168,
  "\u0bbf\u0bb0\u0bc1\u0ba8\u0bcd\u0ba4": 2169,
  "\u2581caused": 2170,
  "\u2581easy": 2171,
  "\u2581\u0c8e\u0c82\u0cac\u0cc1\u0ca6\u0ca8\u0ccd\u0ca8\u0cc1": 2172,
  "\u2581held": 2173,
  "\u2581window": 2174,
  "\u2581\u0d38\u0d24\u0d4d\u0d2f": 2175,
  "\u2581half": 2176,
  "\u0c2e\u0c4b": 2177,
  "\u0ca8\u0ccb": 2178,
  "\u2581\u0ba8": 2179,
  "\u2581\u0c2e\u0c27\u0c4d\u0c2f": 2180,
  "\u2581Jeremiah": 2181,
  "\u2581area": 2182,
  "\u0c41\u0c1f": 2183,
  "\u2581Come": 2184,
  "\u0c38\u0c41": 2185,
  "\u2581\u0c05\u0c02\u0c1f\u0c47": 2186,
  "\u2581Behold": 2187,
  "\u2581\u0bb5\u0bbf\u0b9f": 2188,
  "\u2581believed": 2189,
  "\u2581\u0c35\u0c3e\u0c1f\u0c3f": 2190,
  "\u2581creation": 2191,
  "\u2581position": 2192,
  "\u2581\u0d2a\u0d4b": 2193,
  "\u2581type": 2194,
  "\u2581Hebrews": 2195,
  "\u2581report": 2196,
  "\u2581countries": 2197,
  "\u0c35\u0c32\u0c28": 2198,
  "\u2581gone": 2199,
  "\u2581\u0c85\u0cb2\u0ccd\u0cb2\u0cbf": 2200,
  "\u0c28\u0c28\u0c3f": 2201,
  "\u2581\u0cb9": 2202,
  "\u2581\u0c93\u0ca6\u0cbf": 2203,
  "\u2581\u0d1a\u0d46\u0d2f\u0d4d\u0d2f\u0d41\u0d28\u0d4d\u0d28": 2204,
  "\u0d31\u0d3f": 2205,
  "\u2581carry": 2206,
  "\u2581\u0c17\u0c3e\u0c28\u0c3f": 2207,
  "\u0cc1\u0cb5\u0ca8\u0cc1": 2208,
  "\u258118.": 2209,
  "\u2581spoken": 2210,
  "\u0cb0\u0ccb": 2211,
  "\u2581Credit": 2212,
  "\u0c30\u0c4b": 2213,
  "\u2581fight": 2214,
  "\u2581\u0cae\u0c82\u0ca6\u0cbf": 2215,
  "\u0bbf\u0b9f": 2216,
  "\u0bc1\u0bb5\u0ba4\u0bb1\u0bcd\u0b95\u0bc1": 2217,
  "\u2581\u0b87\u0bb0\u0ba3\u0bcd\u0b9f\u0bc1": 2218,
  "God": 2219,
  "\u2581honor": 2220,
  "\u2581killed": 2221,
  "\u2581\u0c85\u0ca7\u0ccd\u0caf\u0caf\u0ca8": 2222,
  "\u2581Hebrew": 2223,
  "\u2581files": 2224,
  "\u2581thereof": 2225,
  "\u2581efforts": 2226,
  "\u2581\u0d0e\u0d32\u0d4d\u0d32\u0d3e\u0d02": 2227,
  "\u2581gods": 2228,
  "\u2581powerful": 2229,
  "\u2581hast": 2230,
  "\u2581\u0c30": 2231,
  "\u0cae\u0cbe": 2232,
  "\u2581reach": 2233,
  "\u2581Line": 2234,
  "\u2581offered": 2235,
  "\u2581\u0baa\u0b9f\u0bae": 2236,
  "\u0c3f\u0c02\u0c2a": 2237,
  "\u0cbf\u0cb2\u0ccd\u0cb2": 2238,
  "\u2581\u0bae\u0bc1\u0b9f\u0bbf\u0baf\u0bc1\u0bae\u0bcd": 2239,
  "\u2581\u0cb8\u0cae\u0caf": 2240,
  "\u2581source": 2241,
  "\u0caf\u0cb2\u0ccd\u0cb2\u0cbf": 2242,
  "\u2581ground": 2243,
  "\u0d2e\u0d3e\u0d30\u0d4d": 2244,
  "\u2581\u0caa\u0ccc\u0cb2\u0ca8\u0cc1": 2245,
  "\u2581disc": 2246,
  "\u0d3f\u0d30\u0d41\u0d28\u0d4d\u0d28\u0d41": 2247,
  "\u2581\u0c86\u0ca6\u0cb0\u0cc2": 2248,
  "\u2581m": 2249,
  "\u2581\u0baa\u0bcb\u0ba9\u0bcd\u0bb1": 2250,
  "\u2581\u0c24\u0c02\u0c21\u0c4d\u0c30\u0c3f": 2251,
  "\u2581\u0caa\u0ccd\u0cb0\u0ca4\u0cbf": 2252,
  "\u0bc1\u0ba4\u0bb2\u0bcd": 2253,
  "\u2581un": 2254,
  "\u2581considered": 2255,
  "\u0cac\u0cb3\u0cbf\u0c97\u0cc6": 2256,
  "8": 2257,
  "\u2581\u0c38\u0c47\u0c35": 2258,
  "\u2581\u0c15\u0c4d\u0c30\u0c48\u0c38\u0c4d\u0c24\u0c35": 2259,
  "\u0cc1\u0cb5\u0ca6\u0cc1": 2260,
  "\u0bbf\u0ba9": 2261,
  "\u2581examples": 2262,
  "\u2581\u0c07\u0c2a\u0c4d\u0c2a\u0c41\u0c21\u0c41": 2263,
  "\u0c1a\u0c47\u0c2f": 2264,
  "\u2581kill": 2265,
  "\u2581\u0d0f\u0d31\u0d4d\u0d31\u0d35\u0d41\u0d02": 2266,
  "\u2581L": 2267,
  "\u2581\u0c15\u0c41": 2268,
  "\u2581confidence": 2269,
  "\u258118:": 2270,
  "\u2581G": 2271,
  "\u0c3e\u0c32\u0c4d\u0c32\u0c4b": 2272,
  "\u0bb0\u0bbe": 2273,
  "\u0ca8\u0cc6\u0caf": 2274,
  "\u2581passed": 2275,
  "\u2581\u0cb6": 2276,
  "\u2581\u0c38\u0c02": 2277,
  "\u2581failed": 2278,
  "H": 2279,
  "\u2581\u0c06\u0c2f\u0c28\u0c28\u0c41": 2280,
  "\u0d2a\u0d4d\u0d2a\u0d4b\u0d33\u0d4d": 2281,
  "\u2581choose": 2282,
  "\u0c32\u0c4d\u0c32\u0c4b": 2283,
  "\u2581\u0baa\u0bc6\u0bb0\u0bbf\u0baf": 2284,
  "\u0d3f\u0d32\u0d46": 2285,
  "\u2581path": 2286,
  "\u2581\u0ca6\u0cbf\u0ca8": 2287,
  "\u2581Surely": 2288,
  "\u2581Samuel": 2289,
  "\u2581wives": 2290,
  "\u0d37": 2291,
  "\u0cb5\u0cbe": 2292,
  "\u0d4a\u0d30\u0d41": 2293,
  "\u2581\u0c95\u0ccd\u0cb0\u0cbf\u0cb8\u0ccd\u0ca4\u0ca8": 2294,
  "\u0d4b\u0d1f\u0d4d": 2295,
  "\u2581accepted": 2296,
  "\u2581pay": 2297,
  "\u2581\u0b95\u0bcb\u0baa\u0bcd\u0baa\u0bc1": 2298,
  "\u2581seem": 2299,
  "\u2581\u0c87\u0ca6\u0ca8\u0ccd\u0ca8\u0cc1": 2300,
  "\u2581congregations": 2301,
  "\u0bbf\u0bb2\u0bbf\u0bb0\u0bc1\u0ba8\u0bcd\u0ba4\u0bc1": 2302,
  "\u2581\u0c2e\u0c4a\u0c26\u0c1f\u0c3f": 2303,
  "\u2581\u0c24\u0c30\u0c41\u0c35\u0c3e\u0c24": 2304,
  "\u258160": 2305,
  "\u2581\u0ca4\u0cbf\u0cb3\u0cbf\u0cb8": 2306,
  "\u0b95\u0bc2\u0b9f": 2307,
  "\u0c40": 2308,
  "\u2581older": 2309,
  "\u0d24\u0d4d\u0d24\u0d3f\u0d28\u0d41": 2310,
  "\u2581\u0c2f\u0c46\u0c39\u0c4b\u0c35\u0c3e\u0c28\u0c41": 2311,
  "\u2581issue": 2312,
  "\u2581\u0d1a\u0d46\u0d2f\u0d4d\u0d2f\u0d41\u0d28\u0d4d\u0d28\u0d41": 2313,
  "\u0c35\u0c3e\u0c30\u0c3f": 2314,
  "\u0c15\u0c40": 2315,
  "\u0c2e\u0c41\u0c32\u0c41": 2316,
  "\u2581prophecy": 2317,
  "\u2581key": 2318,
  "\u2581lie": 2319,
  "\u2581Genesis": 2320,
  "\u2581\u0c85\u0c82\u0ca6\u0cb0\u0cc6": 2321,
  "\u2581changes": 2322,
  "\u2581followed": 2323,
  "\u0d28\u0d41\u0d02": 2324,
  "\u2581\u0b92\u0ba9\u0bcd\u0bb1\u0bc1": 2325,
  "\u2581\u0c35\u0c3f\u0c37\u0c2f\u0c02\u0c32\u0c4b": 2326,
  "\u2581\u0ba8\u0bae\u0bcd\u0baa": 2327,
  "\u0c2e\u0c40": 2328,
  "\u2581\u0c97": 2329,
  "\u258134": 2330,
  "\u2581seed": 2331,
  "\u0bb0\u0bbf\u0baf": 2332,
  "\u0bc1\u0bae\u0bcd\u0baa\u0bcb\u0ba4\u0bc1": 2333,
  "\u2581\u0cb5\u0cbf\u0cb7\u0caf\u0ca6\u0cb2\u0ccd\u0cb2\u0cbf": 2334,
  "\u2581rich": 2335,
  "\u0cc1\u0cb5\u0ca6\u0cbf\u0cb2\u0ccd\u0cb2": 2336,
  "\u2581visit": 2337,
  "\u2581\u0ca8\u0cc0\u0ca1": 2338,
  "\u2581decision": 2339,
  "\u2581letter": 2340,
  "\u2581throughout": 2341,
  "\u2581\u0caf": 2342,
  "\u2581\u0d30": 2343,
  "\u2581regarding": 2344,
  "\u2581\u0caa\u0ccd\u0cb0\u0c95\u0cbe\u0cb0": 2345,
  "\u0d3e\u0d7d": 2346,
  "\u2581May": 2347,
  "\u2581\u0cae\u0c95\u0ccd\u0c95\u0cb3": 2348,
  "\u0cc1\u0ca4\u0ccd\u0ca4\u0cc7\u0ca8\u0cc6": 2349,
  "\u2581\u0c87\u0ca8\u0ccd\u0ca8\u0cc2": 2350,
  "\u2581built": 2351,
  "\u0d19\u0d4d\u0d19\u0d33\u0d46": 2352,
  "\u2581Mary": 2353,
  "\u2581\u0cb9\u0cc7\u0cb3\u0cbf\u0ca6\u0ca8\u0cc1": 2354,
  "\u2581therein": 2355,
  "\u2581maintain": 2356,
  "\u2581pioneer": 2357,
  "\u0ca8\u0cbf": 2358,
  "\u258114,": 2359,
  "\u2581organization": 2360,
  "\u0d3e\u0d24\u0d4d\u0d24": 2361,
  "\u2581\u0bae\u0bbe": 2362,
  "\u0bae\u0bc1\u0bb3\u0bcd\u0bb3": 2363,
  "\u2581mighty": 2364,
  "\u0c24\u0c4d\u0c24": 2365,
  "\u2581Scriptural": 2366,
  "\u2581meaning": 2367,
  "\u2581\u0c8f\u0c95\u0cc6\u0c82\u0ca6\u0cb0\u0cc6": 2368,
  "\u2581\u0b95\u0bbf\u0bb1\u0bbf\u0bb8\u0bcd\u0ba4\u0bb5": 2369,
  "\u0c3e\u0c30\u0c3e": 2370,
  "\u0c41\u0c15\u0c4a\u0c28\u0c3f": 2371,
  "\u2581Moreover": 2372,
  "\u2581\u0cb0": 2373,
  "\u2581create": 2374,
  "\u0c02\u0c26\u0c3f": 2375,
  "\u2581\u0c87\u0cb0": 2376,
  "\u2581\u0b95\u0bbe\u0bb2": 2377,
  "\u2581\u0b92\u0bb5\u0bcd\u0bb5\u0bca\u0bb0\u0bc1": 2378,
  "\u2581\u0bb5\u0bc7\u0ba3\u0bcd\u0b9f\u0bbf\u0baf": 2379,
  "\u0d25": 2380,
  "\u2581\u0c2a\u0c4b": 2381,
  "\u2581wait": 2382,
  "\u2581salvation": 2383,
  "\u0b9a\u0bcd\u0b9a": 2384,
  "\u2581angel": 2385,
  "\u2581\u0d0f": 2386,
  "\u2581continued": 2387,
  "\u0bb5\u0bb0\u0bc8": 2388,
  "\u0ba4\u0bcd\u0ba4\u0bc8\u0baf\u0bc1\u0bae\u0bcd": 2389,
  "\u2581standards": 2390,
  "\u2581grow": 2391,
  "\u2581\u0cae\u0cbe\u0ca1\u0cb2\u0cc1": 2392,
  "\u2581single": 2393,
  "\u2581\u0c1a\u0c3f\u0c28\u0c4d\u0c28": 2394,
  "\u2581sound": 2395,
  "\u2581stop": 2396,
  "\u2581Us": 2397,
  "\u2581\u0ba8\u0bbf\u0bb2\u0bc8": 2398,
  "\u2581promises": 2399,
  "\u2581\u0c2e\u0c3e\u0c24\u0c4d\u0c30\u0c2e\u0c47": 2400,
  "ation": 2401,
  "\u0d19\u0d4d\u0d19": 2402,
  "\u2581complete": 2403,
  "\u2581\u0b85\u0ba4\u0bb1\u0bcd\u0b95\u0bc1": 2404,
  "\u0d24\u0d41\u0d02": 2405,
  "\u0c15\u0c41\u0c02\u0c21\u0c3e": 2406,
  "\u2581\u0d28\u0d3e": 2407,
  "\u2581pain": 2408,
  "\u0baa\u0bbf": 2409,
  "\u0d30\u0d41": 2410,
  "\u2581\u0d39": 2411,
  "\u0d1f\u0d4d\u0d1f\u0d3f": 2412,
  "\u258110,": 2413,
  "ar": 2414,
  "\u2581apply": 2415,
  "\u2581\u0d15\u0d3e\u0d30\u0d4d\u0d2f\u0d02": 2416,
  "\u2581\u0d28\u0d4d": 2417,
  "\u2581ready": 2418,
  "\u0d28\u0d02": 2419,
  "\u0c9f\u0ccd\u0c9f": 2420,
  "\u2581\u0c38": 2421,
  "\u2581various": 2422,
  "\u2581Still": 2423,
  "\u2581\u0c35\u0c46\u0c33\u0c4d\u0c32": 2424,
  "\u0d27": 2425,
  "\u0c2a\u0c4d": 2426,
  "\u2581third": 2427,
  "\u2581\u0bae\u0bbe\u0bb1\u0bcd\u0bb1": 2428,
  "\u2581\u0cac\u0c82\u0ca6\u0cc1": 2429,
  "\u2581destroy": 2430,
  "\u2581\u0cb8\u0cae\u0caf\u0ca6\u0cb2\u0ccd\u0cb2\u0cbf": 2431,
  "\u0d1f\u0d4d\u0d1f\u0d46": 2432,
  "color": 2433,
  "\u2581Whe": 2434,
  "\u0c82\u0cac": 2435,
  "It": 2436,
  "\u0c95\u0ccd\u0c95\u0cc2": 2437,
  "\u2581several": 2438,
  "\u0d47\u0d23\u0d4d\u0d1f": 2439,
  "\u2581\u0c0e\u0c15\u0c4d\u0c15\u0c41\u0c35": 2440,
  "\u2581Aaron": 2441,
  "\u2581\u0c95\u0cc6\u0cb2\u0cb8": 2442,
  "\u2581\u0c06\u0c2f\u0c28\u0c15\u0c41": 2443,
  "\u2581\u0c2a\u0c46\u0c26\u0c4d\u0c26": 2444,
  "\u2581\u0bae\u0bc1\u0b9f\u0bbf\u0baf\u0bbe\u0ba4\u0bc1": 2445,
  "\u2581\u0baa\u0bcb\u0ba4\u0bc1": 2446,
  "\u0bbf\u0bb0\u0bc1\u0b95\u0bcd\u0b95\u0bbf\u0bb1\u0ba4\u0bc1": 2447,
  "\u2581\u0d2a\u0d4b\u0d32\u0d46": 2448,
  "\u2581thoughts": 2449,
  "\u0ca1\u0cbf": 2450,
  "\u0cc0\u0caf": 2451,
  "\u2581working": 2452,
  "\u2581\u0ca8\u0cbf\u0c9c": 2453,
  "\u2581church": 2454,
  "\u2581\u0c95\u0cca\u0c9f\u0ccd\u0c9f": 2455,
  "\u0d41\u0d35\u0d3e\u0d28\u0d4d": 2456,
  "\u0bae\u0bbe\u0baf\u0bcd": 2457,
  "\u2581preach": 2458,
  "\u2581shown": 2459,
  "\u0ba8": 2460,
  "\u2581\u0b85\u0bb2\u0bcd\u0bb2\u0bbe\u0bb9\u0bcd\u0bb5\u0bbf\u0ba9\u0bcd": 2461,
  "\u2581dwell": 2462,
  "\u2581prove": 2463,
  "\u2581\u0b85\u0bb5\u0bc8": 2464,
  "\u2581Joshua": 2465,
  "\u2581\u0c85\u0ca8\u0ccd\u0ca8\u0cc1": 2466,
  "\u2581Life": 2467,
  "\u2581mine": 2468,
  "\u2581helps": 2469,
  "\u0bb5\u0bb0\u0bcd\u0b95\u0bb3\u0bbe\u0b95": 2470,
  "\u0bbf\u0ba9\u0bbe\u0bb0\u0bcd": 2471,
  "\u0cc8": 2472,
  "\u2581period": 2473,
  "This": 2474,
  "\u2581list": 2475,
  "\u2581instance": 2476,
  "\u2581willing": 2477,
  "\u0ba4\u0bcd\u0ba4\u0bc1\u0b95\u0bcd\u0b95\u0bc1": 2478,
  "\u2581branch": 2479,
  "\u0d4d\u0d2f": 2480,
  "\u2581justice": 2481,
  "\u0d3e\u0d28\u0d41\u0d33\u0d4d\u0d33": 2482,
  "\u2581\u0cae\u0cbe\u0ca4\u0ccd\u0cb0": 2483,
  "\u2581\u0c32\u0c47\u0c15": 2484,
  "\u0cc1\u0cb5\u0cc6\u0ca8\u0cc1": 2485,
  "\u2581met": 2486,
  "\u0c2c\u0c21\u0c3f": 2487,
  "\u2581midst": 2488,
  "\u2581\u0bb5\u0bc7\u0bb1\u0bc1": 2489,
  "\u2581opportunity": 2490,
  "\u0ba4\u0ba9\u0bcd": 2491,
  "\u0ba9\u0bbf": 2492,
  "\u2581\u0c05\u0c28\u0c4d\u0c28\u0c3f": 2493,
  "\u2581altar": 2494,
  "\u0d48": 2495,
  "\u2581\u0d05\u0d24\u0d46": 2496,
  "\u2581\u0bb5\u0bbf\u0b9f\u0bcd\u0b9f\u0bc1": 2497,
  "\u2581judge": 2498,
  "v": 2499,
  "\u0d3f\u0d1f\u0d4d\u0d1f\u0d3f\u0d32\u0d4d\u0d32": 2500,
  "\u2581\u0d30\u0d41": 2501,
  "\u2581\u0c09\u0c02\u0c1f\u0c41\u0c02\u0c26\u0c3f": 2502,
  "\u0d15\u0d33\u0d41\u0d02": 2503,
  "\u2581prepared": 2504,
  "\u2581\u0c09\u0c02\u0c1a": 2505,
  "\u2581events": 2506,
  "\u0d3f\u0d30\u0d41\u0d28\u0d4d\u0d28": 2507,
  "\u0c4d\u0c32\u0c4b": 2508,
  "\u0d46\u0d19\u0d4d\u0d15\u0d3f\u0d32\u0d4d": 2509,
  "\u2581tried": 2510,
  "\u2581\u0cac\u0cbf": 2511,
  "\u0bbe\u0bb2\u0bc1\u0bae\u0bcd": 2512,
  "\u2581\u0baa\u0bc6\u0baf\u0bb0\u0bcd": 2513,
  "\u2581looking": 2514,
  "\u2581\u0c2f": 2515,
  "\u2581explained": 2516,
  "\u0cb2\u0cbf\u0c95\u0ccd\u0c95\u0cbe\u0c97\u0cbf": 2517,
  "\u0c05": 2518,
  "\u0d3f\u0d32": 2519,
  "\u2581Hence": 2520,
  "\u2581speech": 2521,
  "\u2581daughters": 2522,
  "\u0bb5\u0bbf\u0ba9\u0bcd": 2523,
  "\u2581\u0bae\u0bc1\u0ba9\u0bcd": 2524,
  "\u0c41\u0c26\u0c41\u0c30\u0c41": 2525,
  "\u0c2a\u0c1f\u0c4d\u0c32": 2526,
  "\u2581True": 2527,
  "\u2581affect": 2528,
  "\u2581direction": 2529,
  "\u0d28\u0d3f\u0d28\u0d4d\u0d28\u0d41": 2530,
  "\u2581imitate": 2531,
  "\u2581filled": 2532,
  "\u2581delivered": 2533,
  "\u25817,": 2534,
  "\u2581\u0cae\u0c95\u0ccd\u0c95\u0cb3\u0cc1": 2535,
  "\u0c15\u0c47": 2536,
  "\u0cc6\u0c82\u0ca6\u0cc1": 2537,
  "\u0d3f\u0d2a\u0d4d\u0d2a\u0d3f\u0d15\u0d4d\u0d15": 2538,
  "\u2581\u0d0e\u0d28\u0d3f\u0d15\u0d4d\u0d15\u0d41": 2539,
  "\u0c2c\u0c21\u0c3f\u0c02\u0c26\u0c3f": 2540,
  "\u2581pages": 2541,
  "\u2581lot": 2542,
  "\u2581Instead": 2543,
  "\u2581\u0ba4": 2544,
  "\u258111,": 2545,
  "\u2581\u0bae\u0bc2\u0bb2\u0bae\u0bcd": 2546,
  "\u2581ability": 2547,
  "\u0bbf\u0bb1\u0ba4\u0bc1": 2548,
  "\u0d35\u0d28": 2549,
  "\u2581stated": 2550,
  "\u2581\u0b89\u0bb2\u0b95": 2551,
  "\u2581\u0d2a\u0d41\u0d24\u0d3f\u0d2f": 2552,
  "\u2581Bethel": 2553,
  "\u0d2e\u0d3f": 2554,
  "\u2581\u0ba4\u0bae\u0bcd": 2555,
  "\u0bb0\u0bc1": 2556,
  "\u0d26": 2557,
  "\u2581\u0b85\u0bb5\u0bb0\u0bc1\u0b95\u0bcd\u0b95\u0bc1": 2558,
  "\u2581violence": 2559,
  "\u2581loyal": 2560,
  "\u2581\u0c2a\u0c46\u0c1f\u0c4d\u0c1f": 2561,
  "\u0d2e\u0d4d\u0d2a": 2562,
  "\u2581determined": 2563,
  "\u2581office": 2564,
  "\u2581project": 2565,
  "\u2581godly": 2566,
  "\u2581vital": 2567,
  "\u2581decisions": 2568,
  "\u0c35\u0c30\u0c15\u0c41": 2569,
  "\u2581KDE": 2570,
  "\u0bb3\u0bcd\u0bb3": 2571,
  "\u2581\u0d15\u0d3e": 2572,
  "\u2581suffer": 2573,
  "\u2581Witness": 2574,
  "\u2581\u0d05\u0d32\u0d4d\u0d32\u0d3e\u0d39\u0d41\u0d35\u0d3f\u0d28\u0d4d\u0d31\u0d46": 2575,
  "\u2581Me": 2576,
  "\u2581advice": 2577,
  "\u2581\u0b95\u0bc8": 2578,
  "\u2581\u0cb0\u0cc0\u0ca4\u0cbf\u0caf": 2579,
  "\u2581\u0d36": 2580,
  "\u2581\u0c8e\u0cb0\u0ca1\u0cc1": 2581,
  "\u0d15\u0d4d\u0d15\u0d41\u0d28\u0d4d\u0d28": 2582,
  "\u0c30\u0c47": 2583,
  "\u2581\u0c2e\u0c46": 2584,
  "\u0c43": 2585,
  "\u0c26\u0c4d": 2586,
  "\u2581thousands": 2587,
  "\u2581\u0cb8\u0cbe": 2588,
  "\u2581silver": 2589,
  "\u0cb8\u0ccd\u0ca4": 2590,
  "\u2581\u0d15\u0d41": 2591,
  "\u2581wants": 2592,
  "\u2581\u0d05\u0d32\u0d4d\u0d32": 2593,
  "\u0c2f\u0c47": 2594,
  "\u2581\u0c17": 2595,
  "\u2581\u0bae\u0ba4": 2596,
  "\u0bc8\u0b95\u0bcd": 2597,
  "\u2581\u0c38\u0c4d": 2598,
  "\u0c95\u0ccd\u0c95": 2599,
  "\u2581First": 2600,
  "\u0d2a\u0d4d\u0d2a\u0d46\u0d1f": 2601,
  "\u2581\u0c07\u0c36\u0c4d\u0c30\u0c3e\u0c2f\u0c47\u0c32\u0c41": 2602,
  "\u2581Holy": 2603,
  "\u2581\u0ba4\u0bc7\u0bb5\u0bc8": 2604,
  "\u2581\u0cae\u0c97\u0ca8\u0cbe\u0ca6": 2605,
  "\u2581wine": 2606,
  "\u2581\u0b9a\u0bca\u0ba9\u0bcd\u0ba9\u0bbe\u0bb0\u0bcd": 2607,
  "\u2581\u0cb9\u0ccb\u0c97\u0cbf": 2608,
  "\u2581afraid": 2609,
  "\u2581fell": 2610,
  "\u2581\u0c2c": 2611,
  "\u0cbf\u0cb8\u0cbf": 2612,
  "\u0d2e\u0d47": 2613,
  "\u2581happen": 2614,
  "\u2581\u0cb9\u0cbe\u0c95": 2615,
  "\u2581desires": 2616,
  "\u2581\u0c15\u0c4d\u0c30\u0c40\u0c38\u0c4d\u0c24\u0c41": 2617,
  "\u2581CD": 2618,
  "\u2581\u0d15\u0d32\u0d4d": 2619,
  "\u0cb5\u0ca8\u0cc1": 2620,
  "\u2581\u0c89\u0ca4\u0ccd\u0ca4\u0cb0": 2621,
  "\u2581privilege": 2622,
  "\u2581program": 2623,
  "\u2581\u0c1a\u0c47\u0c38\u0c47": 2624,
  "\u2581\u0c2a\u0c4d\u0c30\u0c1c\u0c32\u0c41": 2625,
  "\u2581\u0b87\u0bb0\u0bc1\u0baa\u0bcd\u0baa": 2626,
  "\u2581beyond": 2627,
  "\u2581deliver": 2628,
  "\u2581\u0c1a\u0c42\u0c1a\u0c3f": 2629,
  "\u0d15\u0d4d\u0d15\u0d3f": 2630,
  "\u0caa\u0ca1\u0cbf\u0cb8": 2631,
  "\u0cb2\u0cbe": 2632,
  "\u0c2f\u0c3f": 2633,
  "\u0d2e\u0d4d\u0d2e": 2634,
  "\u2581\u0baa\u0bca": 2635,
  "\u2581\u0bae\u0ba9": 2636,
  "\u2581integrity": 2637,
  "\u2581destruction": 2638,
  "\u2581mountains": 2639,
  "\u0d28\u0d40": 2640,
  "\u2581\u0d05\u0d24\u0d3f\u0d32\u0d4d": 2641,
  "\u2581precious": 2642,
  "\u2581\u0ba4\u0bb0": 2643,
  "\u2581rejoice": 2644,
  "\u2581\u0c35\u0c3e\u0c21\u0c41": 2645,
  "\u2581\u0ca8\u0cbf\u0ca8\u0ccd\u0ca8\u0ca8\u0ccd\u0ca8\u0cc1": 2646,
  "\u0c2c": 2647,
  "\u2581\u0c26\u0c3e\u0c28\u0c3f\u0c15\u0c3f": 2648,
  "and": 2649,
  "\u0c97\u0cbe\u0c97\u0cbf": 2650,
  "\u2581either": 2651,
  "\u2581opened": 2652,
  "\u25aa": 2653,
  "\u0c24\u0c4d\u0c30": 2654,
  "\u2581Un": 2655,
  "\u2581couple": 2656,
  "\u0ba4\u0bbf\u0bb2\u0bcd": 2657,
  "\u2581proved": 2658,
  "\u0cac\u0cc7\u0c95\u0cc6\u0c82\u0ca6\u0cc1": 2659,
  "\u0c97\u0cca\u0cb3\u0cbf\u0cb8": 2660,
  "\u2581\u0c05\u0c35\u0c41\u0c28\u0c41": 2661,
  "\u2581conscience": 2662,
  "\u2581\u0d07\u0d28\u0d3f": 2663,
  "\u2581actually": 2664,
  "\u2581modern": 2665,
  "\u2581birth": 2666,
  "\u2581\u0c06\u0c27\u0c4d\u0c2f\u0c3e\u0c24\u0c4d\u0c2e\u0c3f\u0c15": 2667,
  "\u2581\u0d2e\u0d3e\u0d30\u0d4d": 2668,
  "\u2581\u0cac\u0cb2": 2669,
  "\u2581\u0d2a\u0d31\u0d2f\u0d41\u0d02": 2670,
  "\u0bc2": 2671,
  "\u2581minister": 2672,
  "\u2581job": 2673,
  "\u2581government": 2674,
  "\u2581\u0c87\u0c82\u0ca6\u0cc1": 2675,
  "G": 2676,
  "at": 2677,
  "\u2581\u0d2a\u0d47\u0d1c\u0d3f\u0d32\u0d46": 2678,
  "\u0d2a\u0d4d": 2679,
  "\u2581gathered": 2680,
  "\u2581alive": 2681,
  "\u2581\u0d35\u0d32\u0d3f\u0d2f": 2682,
  "\u258119.": 2683,
  "\u0d41\u0d2e\u0d4d\u0d2a\u0d4b\u0d33\u0d4d": 2684,
  "\u2581Mark": 2685,
  "\u0d15\u0d4d\u0d15\u0d41\u0d33\u0d4d\u0d33": 2686,
  "\u2581\u0c24": 2687,
  "\u2581stood": 2688,
  "\u2581\u0b85\u0ba8\u0bc7\u0b95": 2689,
  "\u2581class": 2690,
  "\u2581\u0c2a\u0c21": 2691,
  "\u2581\u0ba8\u0ba9\u0bcd\u0bb1\u0bbf": 2692,
  "\u2581\u0c87\u0ca6\u0cb2\u0ccd\u0cb2\u0ca6\u0cc6": 2693,
  "\u2581Jewish": 2694,
  "\u2581presence": 2695,
  "\u0b9f\u0bcd\u0b9f\u0bc1": 2696,
  "\u2581\u0c05\u0c28\u0c47\u0c15": 2697,
  "\u2581address": 2698,
  "\u2581clearly": 2699,
  "\u2581\u0c85\u0ca6\u0c95\u0ccd\u0c95\u0cc6": 2700,
  "\u0d30\u0d3e": 2701,
  "He": 2702,
  "\u2581\u0b87\u0b9f": 2703,
  "\u2581\u0b87\u0bb0\u0bc1": 2704,
  "\u2581\u0bae\u0bbf\u0b95": 2705,
  "\u0c2a\u0c21": 2706,
  "\u0c28\u0c42": 2707,
  ":%": 2708,
  "\u0b9f\u0bcd\u0b9f\u0bbf": 2709,
  "\u2581\u0cb9\u0cc6\u0c9a\u0ccd\u0c9a\u0cbf\u0ca8": 2710,
  "\u2581regard": 2711,
  "\u2581\u0c95\u0c9f\u0ccd\u0c9f": 2712,
  "\u2581Good": 2713,
  "\u2581selected": 2714,
  "\u2581\u0c09\u0c28\u0c4d\u0c28\u0c3e\u0c2f\u0c3f": 2715,
  "\u2581Roman": 2716,
  "\u2581\u0cae\u0cb9\u0cbe": 2717,
  "\u2581onto": 2718,
  "\u2581\u25aa": 2719,
  "\u2581\u0bae\u0bc1\u0bb4\u0bc1": 2720,
  "\u2581\u0d2a\u0d15\u0d4d\u0d37\u0d46": 2721,
  "\u2581students": 2722,
  "\u2581\u0b9a\u0bbf": 2723,
  "\u258113:": 2724,
  "\u2581\u0d2f\u0d41": 2725,
  "\u2581short": 2726,
  "\u2581\u0baa\u0bbf\u0ba9\u0bcd\u0ba9\u0bb0\u0bcd": 2727,
  "\u2581activities": 2728,
  "\u0cbf\u0ca4\u0ccd\u0ca4\u0cc1": 2729,
  "\u0d28\u0d3e\u0d2f": 2730,
  "\u2581\u0d12": 2731,
  "\u0cb2\u0ccd\u0caa\u0ca1": 2732,
  "\u2581prison": 2733,
  "\u2581waters": 2734,
  "\u2581parts": 2735,
  "\u2581Take": 2736,
  "\u2581\u0c15\u0c4a\u0c24\u0c4d\u0c24": 2737,
  "\u2581regular": 2738,
  "\u258120.": 2739,
  "\u0c82\u0ca5": 2740,
  "\u2581\u0b89\u0bb3\u0bcd\u0bb3\u0ba4\u0bc1": 2741,
  "\u2581\u0c35\u0c3e\u0c28\u0c3f": 2742,
  "\u0c2a\u0c4b": 2743,
  "\u2581daily": 2744,
  "\u2581state": 2745,
  "\u0bb5\u0bcb": 2746,
  "\u0cac\u0cbe\u0cb0\u0ca6\u0cc1": 2747,
  "\u2581magazine": 2748,
  "\u2581\u0c87\u0ca6\u0ccd\u0ca6": 2749,
  "\u0ba3\u0bcd\u0b9f": 2750,
  "\u0c1f\u0c4d\u0c32\u0c41": 2751,
  "\u2581baptism": 2752,
  "\u2581\u0b8e\u0ba9\u0bcd\u0ba9\u0bc8": 2753,
  "\u0c2e\u0c48": 2754,
  "\u2581sexual": 2755,
  "\u2581\u0d2a\u0d32": 2756,
  "\u2581natural": 2757,
  "\u2581\u0d36\u0d30\u0d3f": 2758,
  "\u2581Box": 2759,
  "\u2581prophets": 2760,
  "\u2581explains": 2761,
  "\u2581R": 2762,
  "\u2581animals": 2763,
  "\u2581appreciate": 2764,
  "\u2581saved": 2765,
  "\u0c85": 2766,
  "\u0c4d\u0c2f": 2767,
  "\u2581\u0b9a\u0bb0\u0bbf": 2768,
  "\u0c2f\u0c02\u0c26\u0c41": 2769,
  "\u0d3e\u0d28": 2770,
  "\u2581\u0cb8\u0ccd\u0cb5\u0cb2\u0ccd\u0caa": 2771,
  "\u0c25": 2772,
  "Do": 2773,
  "\u0b99\u0bcd\u0b95\u0bb3\u0bbf\u0bb2\u0bcd": 2774,
  "\u0bae\u0bbf": 2775,
  "\u2581\u0d2f": 2776,
  "\u0baa\u0b9f\u0bbf": 2777,
  "\u2581\u0d28\u0d47\u0d30\u0d4d": 2778,
  "\u2581art": 2779,
  "\u2581\u0b87\u0ba8\u0bcd\u0ba4\u0baa\u0bcd": 2780,
  "\u2581hours": 2781,
  "\u258112,": 2782,
  "\u258122,": 2783,
  "\u2581H": 2784,
  "\u2581appropriate": 2785,
  "\u2581\u0d2e\u0d41": 2786,
  "\u0c2c\u0c4d": 2787,
  "\u258137": 2788,
  "\u0c95\u0cc6": 2789,
  "\u0d2a\u0d4d\u0d2a\u0d46\u0d1f\u0d41\u0d24\u0d4d\u0d24": 2790,
  "\u2581\u0b95\u0bc1\u0bb1\u0bbf\u0ba4\u0bcd\u0ba4\u0bc1": 2791,
  "\u0c95\u0cca\u0cb3\u0ccd\u0cb3": 2792,
  "\u2581\u0cb9\u0ccc\u0ca6\u0cc1": 2793,
  "\u0d19\u0d4d\u0d19\u0d33\u0d41\u0d1f\u0d46": 2794,
  "\u2581beginning": 2795,
  "\u2581\u0d09\u0d33\u0d4d\u0d33": 2796,
  "\u0bb4\u0bbf": 2797,
  "\u2581\u0ca4\u0cb0": 2798,
  "\u0d3e\u0d2f\u0d3f\u0d30\u0d3f\u0d15\u0d4d\u0d15\u0d41\u0d02": 2799,
  "\u2581\u0b95\u0bc2\u0bb1\u0bbf\u0ba9\u0bbe\u0bb0\u0bcd": 2800,
  "Jehovah": 2801,
  "\u0cc1\u0cb5\u0cb0\u0cc1": 2802,
  "\u2581activity": 2803,
  "\u2581thine": 2804,
  "\u0d35\u0d7c": 2805,
  "\u2581\u0d28\u0d4d\u0d28": 2806,
  "\u258116,": 2807,
  "\u2581chosen": 2808,
  "\u2581moral": 2809,
  "\u2581\u0c87\u0cb2\u0ccd\u0cb2\u0cb5\u0cc6": 2810,
  "\u2581\u0b95\u0bca\u0b9f\u0bc1\u0ba4\u0bcd\u0ba4": 2811,
  "\u2581\u0c2f\u0c42\u0c26\u0c3e": 2812,
  "\u0c15\u0c4b": 2813,
  "\u2581getting": 2814,
  "\u2581hour": 2815,
  "\u0b95\u0bbe": 2816,
  "\u2581Keep": 2817,
  "\u2581Messenger": 2818,
  "\u2581ransom": 2819,
  "\u2581\u0c28\u0c47\u0c21\u0c41": 2820,
  "\u0c41\u0c28\u0c1f\u0c4d\u0c32\u0c41": 2821,
  "\u2581\u0d15\u0d3e\u0d30\u0d23\u0d02": 2822,
  "\u2581\u0c9c\u0cc0\u0cb5": 2823,
  "\u2581freedom": 2824,
  "\u2581\u0caf\u0cbe\u0c95\u0c82\u0ca6\u0cb0\u0cc6": 2825,
  "\u2581lands": 2826,
  "\u2581influence": 2827,
  "\u2581\u0cac\u0cbe": 2828,
  "\u2581role": 2829,
  "\u0d28\u0d4b": 2830,
  "\u2581\u0c85\u0cb5\u0cb3\u0cc1": 2831,
  "\u2581subject": 2832,
  "\u0d24\u0d3f\u0d28\u0d4d": 2833,
  "\u2581\u0d2b\u0d2f\u0d32": 2834,
  "\u2581former": 2835,
  "\u0c82": 2836,
  "\u2581appreciation": 2837,
  "\u2581disease": 2838,
  "\u2581forgive": 2839,
  "\u2581!": 2840,
  "\u2581break": 2841,
  "\u2581guide": 2842,
  "\u2581\u0baf\u0bbe\u0bb0\u0bcd": 2843,
  "\u2581\u0c2f\u0c46": 2844,
  "\u2581condition": 2845,
  "\u0d41\u0d2e\u0d4d\u0d2a\u0d4b\u0d7e": 2846,
  "\u2581\u0d30\u0d23\u0d4d\u0d1f\u0d41": 2847,
  "\u0c32\u0c40": 2848,
  "\u0ba4\u0bcb": 2849,
  "\u2581\u0b8e\u0bb5\u0bcd\u0bb5\u0bbe\u0bb1\u0bc1": 2850,
  "\u0d41\u0d15\u0d33\u0d4d": 2851,
  "\u0d07": 2852,
  "\u2581psalmist": 2853,
  "\u0c3f\u0c02\u0c1a\u0c41": 2854,
  "\u2581\u0c85\u0ca6\u0cc7": 2855,
  "\u0d2f\u0d3f\u0d32\u0d46": 2856,
  "\u0cbf\u0ca6\u0ccd\u0ca6\u0cc7\u0ca8\u0cc6": 2857,
  "\u2581\u0baa\u0bb1\u0bcd\u0bb1\u0bbf\u0baf": 2858,
  "\u2581\u0d15\u0d23\u0d4d\u0d1f": 2859,
  "\u0d15\u0d33\u0d46": 2860,
  "\u2581laws": 2861,
  "\u2581lay": 2862,
  "\u2581concern": 2863,
  "\u2581\u0b9a\u0bc6\u0bb2\u0bc1\u0ba4\u0bcd\u0ba4": 2864,
  "\u2581\u0c1a": 2865,
  "\u0bbf\u0bb0\u0bc1\u0baa\u0bcd\u0baa": 2866,
  "\u0c28\u0c4b": 2867,
  "\u2581eye": 2868,
  "\u0c3f\u0c02\u0c1a\u0c3f": 2869,
  "\u2581\u0bae\u0bc1\u0bb1\u0bc8": 2870,
  "\u2581beautiful": 2871,
  "\u0cb8\u0cbf": 2872,
  "\u2581\u0d28\u0d3f\u0d28\u0d4d\u0d28\u0d41\u0d02": 2873,
  "\u2581\u0ca6\u0cc7\u0cb5\u0cb0\u0cbe\u0ca6": 2874,
  "\u2581names": 2875,
  "\u0c02\u0c21": 2876,
  "\u0cbf\u0c97\u0cbe\u0c97\u0cbf": 2877,
  "\u2581\u0d38\u0d24\u0d4d\u0d2f\u0d02": 2878,
  "\u2581increase": 2879,
  "\u2581play": 2880,
  "\u2581\u0b85\u0bb5\u0bb0\u0bc8": 2881,
  "\u0d3e\u0d23\u0d4b": 2882,
  "\u0d3f\u0d32\u0d47\u0d15\u0d4d\u0d15\u0d4d": 2883,
  "\u2581spread": 2884,
  "\u2581\u0c8e\u0cb7\u0ccd\u0c9f\u0cc1": 2885,
  "\u0c95\u0ccd\u0cb7": 2886,
  "\u2581acts": 2887,
  "\u2581wilderness": 2888,
  "What": 2889,
  "\u2581\u0ca8\u0ccd\u0caf\u0cbe\u0caf": 2890,
  "\u0b95\u0bb3\u0bbe\u0b95": 2891,
  "\u0cbe\u0c97\u0cbf\u0cb0\u0cc1\u0cb5": 2892,
  "\u0c2e\u0c02\u0c26\u0c41": 2893,
  "un": 2894,
  "\u0c17\u0c4d": 2895,
  "\u2581brings": 2896,
  "\u2581\u0d0f\u0d31\u0d46": 2897,
  "\u0c32\u0c4b\u0c28\u0c41\u0c02\u0c21\u0c3f": 2898,
  "\u2581results": 2899,
  "\u0d35\u0d47": 2900,
  "\u2581\u0c06\u0c24\u0c4d\u0c2e": 2901,
  "\u2581\u0ca8\u0cbf\u0cae\u0ccd\u0cae\u0ca8\u0ccd\u0ca8\u0cc1": 2902,
  "\u0cb2\u0cbe\u0c97\u0cbf\u0ca6\u0cc6": 2903,
  "\u2581\u0baa\u0bb5\u0bc1\u0bb2\u0bcd": 2904,
  "el": 2905,
  "\u2581building": 2906,
  "\u2581\u0b8f": 2907,
  "\u2581\u0caa\u0cbe\u0caa": 2908,
  "\u2581empty": 2909,
  "\u2581Thou": 2910,
  "\u2581\u0d38\u0d15\u0d32": 2911,
  "\u2581\u0c95\u0cc2\u0ca1": 2912,
  "\u2581\u0cad\u0cc2\u0cae\u0cbf\u0caf": 2913,
  "\u2581published": 2914,
  "\u2581\u0c2e\u0c02\u0c26\u0c3f": 2915,
  "\u0cb5\u0cbe\u0c97\u0cbf\u0ca4\u0ccd\u0ca4\u0cc1": 2916,
  "\u2581earlier": 2917,
  "\u2581\u0cb8\u0cc1": 2918,
  "\u2581almost": 2919,
  "\u2581term": 2920,
  "\u2581force": 2921,
  "\u0c15\u0c41\u0c02\u0c21": 2922,
  "\u258121.": 2923,
  "\u2581described": 2924,
  "\u2581\u0c85\u0cb2\u0ccd\u0cb2": 2925,
  "\u2581current": 2926,
  "\u2581books": 2927,
  "\u2581favor": 2928,
  "\u2581miles": 2929,
  "\u2581actions": 2930,
  "\u0d19\u0d4d\u0d19\u0d33\u0d3f\u0d7d": 2931,
  "\u2581Another": 2932,
  "\u2581experienced": 2933,
  "\u2581worldwide": 2934,
  "\u0c32\u0c47\u0c28\u0c3f": 2935,
  "\u0c32\u0c32\u0c4b": 2936,
  "\u0d1e\u0d4d\u0d1e": 2937,
  "\u2581seeking": 2938,
  "\u2581\u0caf\u0cc6\u0cb9\u0ccb\u0cb5\u0ca8\u0cbf\u0c97\u0cc6": 2939,
  "\u2581\u0b92\u0bb0\u0bc1\u0bb5\u0bb0\u0bcd": 2940,
  "\u2581\u0b86\u0bae\u0bcd": 2941,
  "\u258113,": 2942,
  "\u2581\u0c35\u0c1a\u0c4d\u0c1a\u0c3f\u0c28": 2943,
  "\u2581\u0c1a\u0c47\u0c38\u0c3f": 2944,
  "\u258170": 2945,
  "\u2581\u0b87\u0baa\u0bcd\u0baa\u0bcb\u0ba4\u0bc1": 2946,
  "\u2581recorded": 2947,
  "\u2581eight": 2948,
  "\u2581\u0d05\u0d24": 2949,
  "\u2581\u0bb5\u0bb0\u0bc8": 2950,
  "\u2581\u0b87\u0ba9\u0bcd\u0bb1\u0bc1": 2951,
  "\u2581entire": 2952,
  "\u2581\u0c87\u0ca6\u0cc6": 2953,
  "\u2581\u0b8e\u0bb4\u0bc1\u0ba4": 2954,
  "\u0c82\u0ca1": 2955,
  "\u2581\u0d15\u0d3e\u0d30\u0d4d\u0d2f": 2956,
  "\u2581\u0c05\u0c35\u0c38\u0c30\u0c02": 2957,
  "\u0cb2\u0cc7": 2958,
  "\u0d3f\u0d15\u0d4d\u0d15\u0d41\u0d28\u0d4d\u0d28": 2959,
  "ch": 2960,
  "\u0d28\u0d46": 2961,
  "\u2581provides": 2962,
  "\u2581reports": 2963,
  "\u2581week": 2964,
  "\u0bbf\u0ba9\u0bbe\u0bb2\u0bcd": 2965,
  "\u0cbf\u0ca6\u0ccd\u0ca6\u0cc1": 2966,
  "\u2581test": 2967,
  "\u2581\u0baa\u0bc6\u0bb1\u0bcd\u0bb1": 2968,
  "\u2581Here": 2969,
  "\u2581\u0d1a\u0d3f\u0d24\u0d4d\u0d30": 2970,
  "\u2581Africa": 2971,
  "\u2581added": 2972,
  "\u2581\u0b95\u0bca\u0bb3\u0bcd\u0bb3": 2973,
  "\u2581firm": 2974,
  "\u2581millions": 2975,
  "\u2581\u0d15\u0d47\u0d33\u0d4d": 2976,
  "\u2581responsibility": 2977,
  "\u2581fulfilled": 2978,
  "\u0d47\u0d15\u0d4d\u0d15\u0d3e\u0d02": 2979,
  "\u0bc6": 2980,
  "\u0d2f\u0d3f": 2981,
  "\u2581Select": 2982,
  "\u2581\u0ca6\u0cc7\u0cb5\u0cb0\u0cbf\u0c97\u0cc6": 2983,
  "\u2581Awake": 2984,
  "\u2581\u0ca4\u0c82\u0ca6\u0cc6\u0caf": 2985,
  "\u2581\u0c2e\u0c4b\u0c37\u0c47": 2986,
  "\u2581develop": 2987,
  "\u0baf\u0bc8\u0baf\u0bc1\u0bae\u0bcd": 2988,
  "\u2581spend": 2989,
  "\u2581\u0d17": 2990,
  "\u0d15\u0d3e\u0d30": 2991,
  "\u2581battle": 2992,
  "\u2581\u0d2a\u0d15\u0d4d\u0d37\u0d47": 2993,
  "\u2581established": 2994,
  "\u2581\u0d28\u0d3e\u0d2e": 2995,
  "\u2581warning": 2996,
  "\u0d38\u0d3e": 2997,
  "\u2581mountain": 2998,
  "\u2581oil": 2999,
  "\u2581\u0c85\u0ca4\u0cbf": 3000,
  "\u2581\u0c05\u0c24\u0c28\u0c3f\u0c15\u0c3f": 3001,
  "\u2581\u0bae\u0bc1\u0baf\u0bb1\u0bcd\u0b9a\u0bbf": 3002,
  "\u0c2a\u0c4d\u0c30": 3003,
  "\u2581100": 3004,
  "\u2581J": 3005,
  "\u2581\u0ba4\u0bbf": 3006,
  "\u2581decided": 3007,
  "\u2581protect": 3008,
  "\u2581\u0c95\u0ca1\u0cc6\u0c97\u0cc6": 3009,
  "\u0cbf\u0ca6\u0cbe\u0c97": 3010,
  "\u2581army": 3011,
  "\u2581darkness": 3012,
  "\u2581proper": 3013,
  "\u2581wealth": 3014,
  "\u0bbe\u0b95\u0bbf\u0baf": 3015,
  "\u0d2a\u0d4d\u0d30": 3016,
  "\u2581Only": 3017,
  "\u2581instead": 3018,
  "\u0ccb\u0ca3": 3019,
  "\u2581\u0c86\u0ca6\u0cc1\u0ca6\u0cb0\u0cbf\u0c82\u0ca6": 3020,
  "\u2581\u0cb0\u0cbe\u0c9c\u0ccd\u0caf": 3021,
  "et": 3022,
  "\u2581x": 3023,
  "\u2581\u0c95\u0cbe\u0cb2": 3024,
  "\u0c2f\u0c4b": 3025,
  "\u2581run": 3026,
  "\u2581\u0cb9\u0cca\u0c82\u0ca6": 3027,
  "\u2581prayed": 3028,
  "\u2581\u0ca8\u0c82\u0cac": 3029,
  "\u2581Remember": 3030,
  "\u2581lies": 3031,
  "\u2581\u0b95\u0bca\u0ba3\u0bcd\u0b9f\u0bbf\u0bb0\u0bc1\u0ba8\u0bcd\u0ba4": 3032,
  "\u2581\u0d26\u0d3f\u0d35\u0d38\u0d02": 3033,
  "\u2581allowed": 3034,
  "\u2581express": 3035,
  "\u258135": 3036,
  "\u2581\u0cb0\u0cc0\u0ca4\u0cbf\u0caf\u0cb2\u0ccd\u0cb2\u0cbf": 3037,
  "\u2581chief": 3038,
  "\u2581laid": 3039,
  "\u2581attend": 3040,
  "\u2581learning": 3041,
  "\u2581\u0c15\u0c47\u0c35\u0c32\u0c02": 3042,
  "\u2581\u0cae\u0cbe\u0ca4\u0cbe\u0ca1": 3043,
  "\u0b95\u0bb3\u0bc8\u0baa\u0bcd": 3044,
  "\u0cca\u0cb3\u0c97\u0cc6": 3045,
  "\u0d41\u0d28\u0d4d\u0d28\u0d24\u0d3e\u0d23\u0d4d": 3046,
  "\u2581boy": 3047,
  "\u2581tongue": 3048,
  "\u2581\u0ba4\u0bca\u0b9f\u0bb0\u0bcd\u0ba8\u0bcd\u0ba4\u0bc1": 3049,
  "\u2581expression": 3050,
  "\u2581\u0c9c\u0ccd\u0c9e\u0cbe\u0ca8\u0ccb\u0c95\u0ccd\u0ca4\u0cbf": 3051,
  "\u0d41\u0d15\u0d7e": 3052,
  "\u2581\u0caf\u0cbe\u0cb0": 3053,
  "\u0b99\u0bcd": 3054,
  "\u2581\u0d0e\u0d28\u0d4d\u0d28\u0d3f\u0d1f\u0d4d\u0d1f\u0d4d": 3055,
  "\u2581record": 3056,
  "\u2581\u0baa\u0bbe\u0bb0\u0bcd\u0b95\u0bcd\u0b95": 3057,
  "\u0c1a\u0c3f": 3058,
  "\u2581\u0baa\u0bbf\u0ba9\u0bcd": 3059,
  "\u2581endure": 3060,
  "\u2581reasons": 3061,
  "\u2581\u0c38\u0c3e\u0c2e\u0c46\u0c24\u0c32\u0c41": 3062,
  "\u2581\u0bb5\u0bbe\u0bb0\u0bcd\u0ba4\u0bcd\u0ba4\u0bc8": 3063,
  "\u2581forgiveness": 3064,
  "\u0bbf\u0bb0\u0bc1\u0b95\u0bcd\u0b95": 3065,
  "\u2581OF": 3066,
  "\u2581\u0d05\u0d1f\u0d41\u0d24\u0d4d\u0d24": 3067,
  "\u2581carried": 3068,
  "\u2581teachings": 3069,
  "\u2581\u0d07\u0d24\u0d41": 3070,
  "\u0bb5\u0ba9": 3071,
  "\u0bcb\u0bb0\u0bcd": 3072,
  "\u2581\u0ca4": 3073,
  "\u2581Before": 3074,
  "\u2581c": 3075,
  "\u0cc1\u0cb5\u0c82\u0ca5": 3076,
  "\u2581trees": 3077,
  "\u2581\u0c9c": 3078,
  "\u2581\u0cb5\u0cb0\u0cc6\u0c97\u0cc6": 3079,
  "\u0bbf\u0b95\u0bcd": 3080,
  "\u2581girl": 3081,
  "\u2581respond": 3082,
  "\u2581\u0d38\u0d3f": 3083,
  "\u2581\u0d24\u0d4d\u0d24\u0d3f": 3084,
  "\u2581answers": 3085,
  "\u2581helping": 3086,
  "\u2581\u0b9a\u0bc6": 3087,
  "\u2581\u0cb8\u0cbe\u0c95\u0ccd\u0cb7\u0cbf\u0c97\u0cb3": 3088,
  "all": 3089,
  "\u2581Spirit": 3090,
  "\u2581\u0d35\u0d28\u0d4d\u0d28": 3091,
  "\u2581Great": 3092,
  "\u2581earthly": 3093,
  "\u0c95\u0cbe\u0cb0": 3094,
  "\u2581\u0c1a\u0c46\u0c2a\u0c4d\u0c2a\u0c46\u0c28\u0c41": 3095,
  "\u2581seems": 3096,
  "\u0c4a": 3097,
  "\u2581\u0b95\u0bc2\u0bb1": 3098,
  "\u2581god": 3099,
  "\u0ca8\u0cbe\u0ca6": 3100,
  "\u2581\u0ba4\u0bb5\u0bbf\u0bb0": 3101,
  "\u0d2f\u0d3f\u0d32\u0d4d\u0d32": 3102,
  "\u2581enemy": 3103,
  "\u0d3e\u0d32\u0d41\u0d02": 3104,
  "\u0bbf\u0baf\u0ba4\u0bc1": 3105,
  "\u2581regularly": 3106,
  "\u2581\u0d05\u0d24\u0d3f\u0d28\u0d46": 3107,
  "\u0ba4\u0bcd\u0ba4\u0bbf\u0bb2\u0bbf\u0bb0\u0bc1\u0ba8\u0bcd\u0ba4\u0bc1": 3108,
  "\u2581\u0c09\u0c2a\u0c2f\u0c4b\u0c17\u0c3f\u0c02\u0c1a": 3109,
  "\u2581inhabitants": 3110,
  "\u0ca8\u0cb2\u0ccd\u0cb2\u0cbf": 3111,
  "\u2581training": 3112,
  "\u0cb5\u0cc6\u0c82\u0ca6\u0cc1": 3113,
  "\u2581accurate": 3114,
  "\u2581\u0c1c": 3115,
  "\u2581room": 3116,
  "\u2581burnt": 3117,
  "\u2581sick": 3118,
  "\u2581\u0c87\u0c82\u0ca5": 3119,
  "\u2581English": 3120,
  "\u2581chapter": 3121,
  "z": 3122,
  "\u0d35\u0d4d": 3123,
  "\u2581evening": 3124,
  "\u2581harmony": 3125,
  "\u0bc0\u0bb0\u0bcd\u0b95\u0bb3\u0bbe": 3126,
  "\u2581quickly": 3127,
  "\u2581\u0c1a\u0c46\u0c2a\u0c4d\u0c2a\u0c3e\u0c21\u0c41": 3128,
  "\u2581Though": 3129,
  "\u2581trying": 3130,
  "\u2581outside": 3131,
  "\u2581discipline": 3132,
  "\u2581occasion": 3133,
  "\u2581worked": 3134,
  "\u0ca6\u0c82\u0ca4\u0cc6": 3135,
  "\u2581Paradise": 3136,
  "\u2581\u0c85\u0cb5\u0cb3": 3137,
  "\u2581\u0b85\u0ba4\u0bbf\u0bb2\u0bcd": 3138,
  "\u2581strengthen": 3139,
  "\u2581positive": 3140,
  "\u2581\u0d35\u0d28\u0d4d\u0d28\u0d41": 3141,
  "\u2581\u0b95\u0bbe\u0ba3": 3142,
  "\u0ca6\u0cb2\u0ccd\u0cb2\u0cbf\u0cb0\u0cc1\u0cb5": 3143,
  "\u2581\u0ba8\u0ba9\u0bcd\u0bae\u0bc8": 3144,
  "\u2581\u0d28\u0d2e\u0d4d\u0d2e\u0d46": 3145,
  "\u2581cry": 3146,
  "\u2581\u0d05\u0d31\u0d3f\u0d2f": 3147,
  "\u0d16": 3148,
  "\u0bbf\u0bb1": 3149,
  "\u2581\u0b8e\u0ba9\u0bcd\u0bb1\u0bc1\u0bae\u0bcd": 3150,
  "\u0ca7": 3151,
  "\u0b8e": 3152,
  "\u0cbf\u0ca6\u0ccd\u0ca6\u0cb0\u0cc1": 3153,
  "\u0d7e": 3154,
  "\u0c2c\u0c3e": 3155,
  "\u0ba4\u0bbe\u0bb2\u0bcd": 3156,
  "ion": 3157,
  "\u0bc1\u0bb5": 3158,
  "\u2581Nevertheless": 3159,
  "\u2581guard": 3160,
  "\u0d31\u0d4d\u0d31\u0d3f": 3161,
  "\u2581Eve": 3162,
  "\u2581Hall": 3163,
  "My": 3164,
  "\u0cb2\u0cc6": 3165,
  "\u2581\u0c2e\u0c3e\u0c1f\u0c32\u0c41": 3166,
  "\u0bc1\u0b95\u0bcd\u0b95\u0bc1\u0bae\u0bcd": 3167,
  "\u2581aware": 3168,
  "\u0cb0\u0cbe": 3169,
  "\u2581\u0cac\u0cb3\u0cb8": 3170,
  "\u2581search": 3171,
  "\u2581\u0c9a": 3172,
  "\u2581\u0d1e\u0d3e\u0d28": 3173,
  "\u2581looked": 3174,
  "\u2581\u0c30\u0c3e\u0c1c\u0c4d\u0c2f": 3175,
  "\u0c41\u0c1a\u0c41\u0c28\u0c4d\u0c28": 3176,
  "\u2581\u0c38\u0c3f": 3177,
  "\u2581forget": 3178,
  "\u0d41\u0d28\u0d4d\u0d28\u0d24\u0d3f\u0d28\u0d4d": 3179,
  "\u2581addition": 3180,
  "\u2581\u0b85\u0bb2\u0bcd\u0bb2": 3181,
  "\u2581\u0c85\u0cb0\u0cb8\u0ca8": 3182,
  "\u2581manifest": 3183,
  "\u2581\u0bb5\u0bbe": 3184,
  "\u0b95\u0bb3\u0bc8\u0b95\u0bcd": 3185,
  "\u2581manner": 3186,
  "\u2581\u0b9a\u0bbf\u0bb2\u0bb0\u0bcd": 3187,
  "\u0d15\u0d3f": 3188,
  "\u0c2f\u0c4a\u0c15\u0c4d\u0c15": 3189,
  "\u2581\u0c2e\u0c41": 3190,
  "\u0d41\u0d2e\u0d3e\u0d2f\u0d3f": 3191,
  "\u2581exercise": 3192,
  "\u2581humble": 3193,
  "\u0c2e\u0c46": 3194,
  "\u2581white": 3195,
  "V": 3196,
  "\u0cc1\u0ca4\u0ccd\u0ca4": 3197,
  "\u0d21": 3198,
  "\u0caf\u0cbf\u0c82\u0ca6": 3199,
  "\u2581g": 3200,
  "\u2581standing": 3201,
  "\u0bb2\u0bcd\u0bb2": 3202,
  "\u2581\u0c15\u0c41\u0c2e\u0c3e\u0c30\u0c41\u0c21\u0c48\u0c28": 3203,
  "\u2581File": 3204,
  "\u0bbf\u0bb2\u0bc1\u0bb3\u0bcd\u0bb3": 3205,
  "\u2581sleep": 3206,
  "\u2581watch": 3207,
  "\u2581\u0b9a\u0bc6\u0baf\u0bcd\u0baf\u0bc1\u0bae\u0bcd": 3208,
  "\u0d2e\u0d41\u0d23\u0d4d\u0d1f\u0d4d": 3209,
  "\u2581W": 3210,
  "\u258123.": 3211,
  "\u2581car": 3212,
  "\u2581knowing": 3213,
  "\u2581\u0d36\u0d47\u0d37\u0d02": 3214,
  "\u2581\u0c24\u0c46\u0c32\u0c41\u0c38\u0c41": 3215,
  "\u2581encouraged": 3216,
  "\u0bca": 3217,
  "\u2581\u0b8e\u0ba3\u0bcd\u0ba3": 3218,
  "\u2581\u0c13": 3219,
  "\u2581\u0b87\u0bb0\u0bc1\u0ba8\u0bcd\u0ba4\u0bc1": 3220,
  "\u0d2a\u0d4d\u0d2a\u0d4b\u0d7e": 3221,
  "\u2581pure": 3222,
  "\u0caa\u0ccd": 3223,
  "\u2581practice": 3224,
  "\u2581include": 3225,
  "\u2581convention": 3226,
  "\u2581languages": 3227,
  "\u2581\u0c07\u0c24\u0c30": 3228,
  "\u2581\u0c35\u0c3e": 3229,
  "\u2581\u0b95\u0ba3\u0bcd\u0b9f": 3230,
  "\u2581\u0c89\u0caa\u0caf\u0ccb\u0c97\u0cbf\u0cb8": 3231,
  "\u2581inheritance": 3232,
  "\u2581\u0c15\u0c32\u0c3f\u0c17\u0c3f": 3233,
  "\u0bbe\u0ba4\u0bc1": 3234,
  "\u2581\u0c86\u0ca7\u0ccd\u0caf\u0cbe\u0ca4\u0ccd\u0cae\u0cbf\u0c95": 3235,
  "\u0d3f\u0d32\u0d41\u0d02": 3236,
  "\u2581\u0d06\u0d23\u0d4d": 3237,
  "\u0d32\u0d4d\u0d32\u0d4b": 3238,
  "\u2581walking": 3239,
  "\u2581\u0c26\u0c47\u0c35\u0c41\u0c28\u0c3f\u0c15\u0c3f": 3240,
  "\u2581\u0b87\u0ba8\u0bcd\u0ba4\u0b95\u0bcd": 3241,
  "\u2581\u0cb9\u0cbf\u0c82\u0ca6\u0cc6": 3242,
  "\u2581\u0d2a\u0d3f\u0d28\u0d4d\u0d28\u0d40\u0d1f\u0d4d": 3243,
  "\u2581assignment": 3244,
  "\u2581\u0c35\u0c46": 3245,
  "\u0baa\u0bcd\u0baa\u0b9f\u0bc1\u0b95\u0bbf\u0bb1\u0ba4\u0bc1": 3246,
  "\u0c2c\u0c41": 3247,
  "\u2581\u0caa\u0cc2\u0cb0\u0ccd\u0ca3": 3248,
  "\u2581\u0d13": 3249,
  "ri": 3250,
  "\u0c1f\u0c41": 3251,
  "\u2581greatest": 3252,
  "\u2581\u0c2f\u0c4b\u0c39\u0c3e\u0c28\u0c41": 3253,
  "\u0d15\u0d30": 3254,
  "\u2581\u0bae": 3255,
  "\u0cbf\u0cb8\u0cc1\u0cb5": 3256,
  "\u0cc1\u0ca4\u0ccd\u0ca4\u0cbf\u0cb0\u0cc1\u0cb5": 3257,
  "\u2581\u0d13\u0d30\u0d4b": 3258,
  "\u2581\u0c2e\u0c3f": 3259,
  "\u2581\u0d2f\u0d41\u0d02": 3260,
  "\u2581Use": 3261,
  "\u258136": 3262,
  "\u2581lack": 3263,
  "\u2581forward": 3264,
  "9": 3265,
  "\u0c3f\u0c15": 3266,
  "\u2581\u0c95\u0cb7\u0ccd\u0c9f": 3267,
  "\u2581\u0ca8\u0cbf": 3268,
  "\u2581\u0ca8\u0ca1\u0cc6\u0cb8": 3269,
  "\u0c3f\u0c38\u0c4d\u0c24\u0c41\u0c28\u0c4d\u0c28": 3270,
  "\u0d24\u0d4d\u0d24\u0d3f\u0d32\u0d46": 3271,
  "\u0d46\u0d2f\u0d41\u0d02": 3272,
  "\u2581\u0c2e\u0c41\u0c02\u0c26\u0c41": 3273,
  "\u2581\u0baa\u0bbf\u0ba9\u0bcd\u0baa\u0bb1\u0bcd\u0bb1": 3274,
  "\u2581\u0d2d\u0d42\u0d2e\u0d3f\u0d2f\u0d3f\u0d32": 3275,
  "\u2581\u0c2a\u0c4d\u0c30\u0c1c\u0c32": 3276,
  "\u2581invited": 3277,
  "\u2581reflect": 3278,
  "\u0ca6\u0cc7": 3279,
  "\u2581\u0caa\u0cb0\u0cbf\u0cb6\u0cc1\u0ca6\u0ccd\u0ca7": 3280,
  "ro": 3281,
  "\u0d2c": 3282,
  "\u2581\u0b85\u0bb3\u0bb5\u0bc1": 3283,
  "\u0cbf\u0c95": 3284,
  "\u2581\u0cb5\u0cb0\u0ccd\u0cb7": 3285,
  "\u0d17\u0d4d": 3286,
  "\u0d21\u0d3f": 3287,
  "\u0c2f\u0c4a\u0c26\u0c4d\u0c26\u0c15\u0c41": 3288,
  "\u0baa\u0bc1": 3289,
  "\u2581trials": 3290,
  "\u0c28\u0c41\u0c28\u0c4d\u0c28": 3291,
  "\u2581\u0c87\u0cb8\u0ccd\u0cb0\u0cbe\u0caf\u0cc7\u0cb2\u0cbf\u0ca8": 3292,
  "\u2581Look": 3293,
  "\u2581\u0c87\u0c97\u0ccb": 3294,
  "\u0c35\u0c32\u0c46\u0c28\u0c28\u0c3f": 3295,
  "\u0ca8\u0ccd\u0ca8\u0cc7": 3296,
  "\u2581courage": 3297,
  "\u2581\u0bae\u0b95\u0bcd\u0b95\u0bb3\u0bcd": 3298,
  "\u2581\u0d2a\u0d41": 3299,
  "\u2581practical": 3300,
  "\u2581wish": 3301,
  "\u0c97\u0cb3\u0cc2": 3302,
  "\u2581verily": 3303,
  "\u2581Brother": 3304,
  "\u2581\u0b95\u0bbe": 3305,
  "\u2581\u0bb5\u0bb0\u0bc1\u0bae\u0bcd": 3306,
  "\u2581\u0d15\u0d42\u0d1f\u0d46": 3307,
  "\u2581More": 3308,
  "\u2581measure": 3309,
  "\u2581\u0baa\u0bbf\u0bb0": 3310,
  "\u2581\u0c92\u0cb3\u0ccd\u0cb3\u0cc7": 3311,
  "\u2581necessary": 3312,
  "\u2581required": 3313,
  "\u2581Others": 3314,
  "\u2581elder": 3315,
  "\u0d31\u0d41": 3316,
  "\u2581\u0cac\u0cc6": 3317,
  "\u2581spent": 3318,
  "\u2581\u0d28\u0d3f\u0d28\u0d15\u0d4d\u0d15\u0d41": 3319,
  "\u2581challenge": 3320,
  "\u2581\u0ca8\u0ca1\u0cc6\u0caf": 3321,
  "\u2581Later": 3322,
  "\u2581paradise": 3323,
  "\u2581showing": 3324,
  "\u2581goes": 3325,
  "\u2581\u0c2a\u0c4d\u0c30\u0c3e\u0c30\u0c4d\u0c25\u0c28": 3326,
  "\u2581\u0cad\u0cbe\u0c97": 3327,
  "\u2581\u0d2a\u0d3f": 3328,
  "\u2581realize": 3329,
  "\u2581rain": 3330,
  "\u0c33": 3331,
  "\u2581wonder": 3332,
  "\u2581\u0c26\u0c47\u0c35\u0c41\u0c21\u0c48\u0c28": 3333,
  "\u2581individual": 3334,
  "\u2581sometimes": 3335,
  "\u0bc1\u0b95\u0bbf\u0bb1\u0bbe\u0bb0\u0bcd\u0b95\u0bb3\u0bcd": 3336,
  "\u2581\u0d0e\u0d28\u0d4d\u0d24\u0d4d": 3337,
  "\u2581\u0d35\u0d47\u0d23\u0d4d\u0d1f": 3338,
  "\u0c15\u0c42\u0c21\u0c26\u0c41": 3339,
  "\u0cb0\u0cbf\u0caf": 3340,
  "\u0d19\u0d4d\u0d15": 3341,
  "\u2581town": 3342,
  "\u2581\u0c93": 3343,
  "\u2581education": 3344,
  "\u2581usually": 3345,
  "\u2581\u0cb9\u0cc6\u0cb8\u0cb0\u0cc1": 3346,
  "\u2581Re": 3347,
  "\u2581\u0cb8\u0ccd\u0ca5\u0cb3": 3348,
  "\u2581\u0d32\u0d46": 3349,
  "for": 3350,
  "\u2581\u0d15\u0d34\u0d3f\u0d1e\u0d4d\u0d1e": 3351,
  "\u0d20": 3352,
  "\u0cc6\u0caf": 3353,
  "\u2581\u0c15\u0c3e\u0c2a\u0c3e\u0c21": 3354,
  "\u0c26\u0c4d\u0c26": 3355,
  "\u2581\u0c2c\u0c3e": 3356,
  "\u0bb5\u0bbf\u0bb2\u0bcd": 3357,
  "\u2581;": 3358,
  "li": 3359,
  "\u0caa\u0ccd\u0cb0": 3360,
  "\u2581mate": 3361,
  "\u2581benefits": 3362,
  "\u2581interested": 3363,
  "\u0c82\u0ca6\u0cc1": 3364,
  "\u2581becoming": 3365,
  "\u2581\u0b87\u0bb1\u0bc8\u0bb5\u0ba9\u0bcd": 3366,
  "\u2581seeing": 3367,
  "\u2581\u0caa\u0ccd\u0cb0\u0cc0\u0ca4\u0cbf": 3368,
  "\u2581won": 3369,
  "\u2581foretold": 3370,
  "\u2581\u0b86\u0b95": 3371,
  "\u2581vision": 3372,
  "\u2581pressure": 3373,
  "\u2581Europe": 3374,
  "\u2581\u0d2a\u0d3e": 3375,
  "\u0b95\u0bc8": 3376,
  "\u258117,": 3377,
  "\u2581\u0c15\u0c32\u0c3f\u0c38\u0c3f": 3378,
  "\u2581\u0d2a\u0d30\u0d3f": 3379,
  "\u2581\u0c1a\u0c42\u0c21": 3380,
  "\u0c41\u0c24\u0c41\u0c28\u0c4d\u0c28": 3381,
  "\u2581\u0caa\u0ccd\u0cb0\u0caf\u0ccb\u0c9c\u0ca8": 3382,
  "\u2581\u0d7d": 3383,
  "\u0d32\u0d3e": 3384,
  "\u0cb2\u0ccd\u0cb2\u0cbf\u0caf\u0cc2": 3385,
  "\u2581\u0d35\u0d30\u0d4d": 3386,
  "\u2581\u0b89\u0b99\u0bcd\u0b95\u0bb3\u0bc1\u0b9f\u0bc8\u0baf": 3387,
  "\u2581\u0c05\u0c24\u0c28\u0c41": 3388,
  "\u2581\u0c05\u0c30\u0c4d\u0c25\u0c02": 3389,
  "\u0b9f\u0bc8": 3390,
  "\u0caf\u0ccb": 3391,
  "\u2581\u0c26\u0c3e\u0c26\u0c3e\u0c2a\u0c41": 3392,
  "\u0d2e\u0d3f\u0d32\u0d4d\u0d32": 3393,
  "\u2581\u0d24\u0d28\u0d4d\u0d28\u0d46\u0d2f\u0d3e\u0d23\u0d4d": 3394,
  "\u2581\u0bb5\u0bc6\u0bb1\u0bcd\u0bb1\u0bbf": 3395,
  "\u0bc8\u0baf\u0bbf\u0bb2\u0bcd": 3396,
  "\u0c32\u0c4d\u0c32": 3397,
  "\u2581Love": 3398,
  "\u2581\u0d1c\u0d28": 3399,
  "\u2581\u0b92\u0bb0\u0bc7": 3400,
  "\u2581\u0baa\u0bbf\u0bb4\u0bc8": 3401,
  "\u2581\u0c95\u0cc1": 3402,
  "\u2581York": 3403,
  "\u2581quality": 3404,
  "\u0cc1\u0cb5\u0cc1\u0ca6\u0ca8\u0ccd\u0ca8\u0cc1": 3405,
  "\u2581expect": 3406,
  "\u2581Gilead": 3407,
  "\u0d28\u0d41": 3408,
  "\u2581\u0cb8\u0c82\u0ca6\u0cc7\u0cb6": 3409,
  "\u2581\u0b87\u0bb0\u0bc1\u0b95\u0bcd\u0b95\u0bbf\u0ba9\u0bcd\u0bb1\u0ba9": 3410,
  "\u0c35\u0c47\u0c2f": 3411,
  "\u2581\u0c2e\u0c30\u0c3f": 3412,
  "\u2581\u0c9c\u0ca8\u0cb0\u0cbf\u0c97\u0cc6": 3413,
  "\u2581success": 3414,
  "\u2581\u0d0e\u0d28\u0d4d\u0d24\u0d3e\u0d23\u0d4d": 3415,
  "\u2581\u0c95\u0cbe\u0cb0\u0ccd\u0caf": 3416,
  "\u0c2f\u0c48\u0c28": 3417,
  "\u2581court": 3418,
  "\u2581\u0c1a\u0c42\u0c21\u0c02\u0c21\u0c3f": 3419,
  "\u0cb2\u0cc2": 3420,
  "\u0d33\u0d4d": 3421,
  "\u2581\u0cac\u0cb0\u0cc1\u0cb5": 3422,
  "\u2581Ask": 3423,
  "\u2581patient": 3424,
  "\u2581simple": 3425,
  "\u2581\u0baa\u0bbf": 3426,
  "\u0bb4": 3427,
  "\u2581choice": 3428,
  "\u2581crowd": 3429,
  "\u0c82\u0ca6": 3430,
  "\u0c2e\u0c42": 3431,
  "\u2581stone": 3432,
  "\u258119,": 3433,
  "\u2581houses": 3434,
  "\u2581\u0baa\u0bca\u0baf\u0bcd": 3435,
  "\u2581\u0d2e\u0d3f": 3436,
  "\u0cb6\u0ccd": 3437,
  "\u2581centuries": 3438,
  "\u2581About": 3439,
  "\u2581youths": 3440,
  "\u2581\u0d15\u0d33\u0d3f": 3441,
  "\u2581\u0ba4\u0bc7\u0bb0\u0bcd\u0bb5\u0bc1": 3442,
  "\u2581\u0ba8\u0bae\u0bcd\u0bae\u0bc8": 3443,
  "\u0d41\u0d2e\u0d4b": 3444,
  "\u2581\u0d2e\u0d46": 3445,
  "\u2581harm": 3446,
  "\u0c30\u0c46": 3447,
  "\u0d15\u0d4d\u0d15\u0d4b": 3448,
  "\u2581sacrifices": 3449,
  "\u2581flock": 3450,
  "\u2581observe": 3451,
  "\u2581Children": 3452,
  "\u2581game": 3453,
  "\u2581\u0c85\u0cb5\u0cc1": 3454,
  "\u2581km": 3455,
  "\u0bb5\u0bbf\u0b9f\u0bcd\u0b9f\u0bc1": 3456,
  "\u0ba4\u0bcd\u0ba4\u0bc8\u0b95\u0bcd": 3457,
  "\u0d24\u0d3e\u0d2f\u0d3f": 3458,
  "\u2581\u0c1a\u0c47\u0c2f\u0c21\u0c3e\u0c28\u0c3f\u0c15\u0c3f": 3459,
  "\u2581\u0d24\u0d30": 3460,
  "\u2581\u0bb5": 3461,
  "\u0d2d": 3462,
  "\u2581steps": 3463,
  "\u0d2f\u0d3e\u0d2f": 3464,
  "\u2581\u0cae\u0cc2\u0cb2": 3465,
  "\u0d28\u0d4d\u0d28\u0d4d": 3466,
  "\u2581fulfillment": 3467,
  "\u0cb8\u0cc1": 3468,
  "\u2581\u0b9a\u0bbf\u0bb1\u0bc1": 3469,
  "\u0ca8\u0cc6\u0c82\u0ca6\u0cc1": 3470,
  "\u2581ahead": 3471,
  "\u2581contact": 3472,
  "\u2581\u0ba4\u0bbf\u0bb0\u0bc1\u0bae\u0bcd\u0baa": 3473,
  "\u258122.": 3474,
  "il": 3475,
  "\u2581\u0d05\u0d35\u0d33\u0d4d": 3476,
  "\u2581Verily": 3477,
  "ol": 3478,
  "\u2581\u0d2a\u0d31\u0d2f": 3479,
  "\u2581sky": 3480,
  "\u2581\u0cb9\u0cc7\u0cb3\u0cbf\u0ca6\u0ccd\u0ca6\u0cc1": 3481,
  "\u0cc1\u0ca4\u0ccd\u0ca4\u0cbf\u0ca6\u0ccd\u0ca6\u0cb0\u0cc1": 3482,
  "\u2581tribe": 3483,
  "\u2581youth": 3484,
  "\u2581\u0c39": 3485,
  "\u2581\u0c35\u0c3e\u0c30\u0c3f\u0c24\u0c4b": 3486,
  "\u2581\u0c89\u0ca6\u0ccd\u0ca6\u0cc7\u0cb6": 3487,
  "\u2581\u0c9c\u0cca\u0ca4\u0cc6": 3488,
  "no": 3489,
  "\u2581homes": 3490,
  "\u0cb2\u0cbe\u0caf\u0cbf\u0ca4\u0cc1": 3491,
  "\u2581\u0d2a\u0d4b\u0d2f\u0d3f": 3492,
  "\u0d24\u0d4d\u0d24\u0d3f\u0d32": 3493,
  "\u2581\u0c35\u0c3f\u0c28": 3494,
  "\u2581\u0d1c\u0d4b\u0d32\u0d3f": 3495,
  "\u2581\u0d2a\u0d4d\u0d30\u0d3e\u0d30\u0d4d": 3496,
  "\u0cbf\u0cb5\u0cc6": 3497,
  "\u0d2a\u0d4b\u0d32\u0d46": 3498,
  "\u0c26\u0c4b": 3499,
  "\u2581\u0c89": 3500,
  "\u2581\u0d2a\u0d4b\u0d15": 3501,
  "\u0baf\u0bc1\u0bb3\u0bcd\u0bb3": 3502,
  "\u0c26\u0c28\u0c3f": 3503,
  "\u2581Get": 3504,
  "\u2581\u0b89\u0bb0\u0bc1\u0bb5\u0bbe\u0b95\u0bcd\u0b95": 3505,
  "\u0c24\u0c3e": 3506,
  "\u2581\u0b88\u0bae\u0bbe\u0ba9\u0bcd": 3507,
  "\u0bbe\u0ba4\u0bc0\u0bb0\u0bcd\u0b95\u0bb3\u0bcd": 3508,
  "\u2581\u0d0e\u0d28\u0d4d\u0d24\u0d3e": 3509,
  "\u2581basis": 3510,
  "\u2581\u0c2d\u0c3e\u0c30\u0c4d\u0c2f": 3511,
  "\u0bae\u0bc1": 3512,
  "\u2581\u0d24\u0d32": 3513,
  "\u2581blind": 3514,
  "\u2581\u0b85\u0bb5\u0bb3\u0bcd": 3515,
  "\u0c38\u0c3e": 3516,
  "\u2581appear": 3517,
  "\u2581commandments": 3518,
  "\u2581missionary": 3519,
  "\u2581wind": 3520,
  "\u2581\u0c1a\u0c47\u0c2f\u0c41": 3521,
  "\u0d1e\u0d4d\u0d1a": 3522,
  "\u0cb2\u0ccd\u0cb2\u0cbf\u0cb0\u0cc1\u0cb5": 3523,
  "\u0c02\u0c1f\u0c3f": 3524,
  "In": 3525,
  "\u2581\u0c87\u0cb7\u0ccd\u0c9f": 3526,
  "\u0bae\u0bc0\u0ba4\u0bc1": 3527,
  "\u0cb8\u0cbe\u0ca7\u0ccd\u0caf\u0cb5\u0cbf\u0ca6\u0cc6": 3528,
  "\u2581interests": 3529,
  "\u0c32\u0c47\u0c15": 3530,
  "\u2581\u0d15\u0d3e\u0d32": 3531,
  "\u2581\u0c8f\u0ca8": 3532,
  "\u0c2a\u0c3e": 3533,
  "\u2581master": 3534,
  "\u0baf\u0bc1": 3535,
  "\u2581\u0d35\u0d30\u0d46": 3536,
  "\u2581\u0c35\u0c3f\u0c27\u0c02\u0c17\u0c3e": 3537,
  "\u2581\u0c07\u0c36\u0c4d\u0c30\u0c3e\u0c2f\u0c47\u0c32\u0c40\u0c2f\u0c41\u0c32": 3538,
  "\u0c15\u0c4a": 3539,
  "\u2581Make": 3540,
  "\u2581\u0c2e\u0c3e\u0c1f\u0c4d\u0c32\u0c3e\u0c21": 3541,
  "\u0cb0\u0cbf\u0c97\u0cc6": 3542,
  "\u2581\u0cb8\u0c82": 3543,
  "\u2581doesn": 3544,
  "\u2581\u0b9a\u0bc6\u0baf\u0bcd\u0ba4\u0bbf": 3545,
  "\u2581\u0cae\u0ca8\u0cc6": 3546,
  "\u2581\u0d2e\u0d31\u0d4d\u0d31\u0d41": 3547,
  "\u2581\u0d1e\u0d19\u0d4d\u0d19\u0d7e": 3548,
  "\u0d3f\u0d30\u0d3f\u0d15\u0d4d\u0d15\u0d41\u0d28\u0d4d\u0d28\u0d24\u0d4d": 3549,
  "\u2581\u0c26\u0c17\u0c4d\u0c17\u0c30": 3550,
  "\u2581\u0c2f\u0c3e\u0c15\u0c4b\u0c2c\u0c41": 3551,
  "\u2581approach": 3552,
  "\u2581due": 3553,
  "\u0c2a\u0c4d\u0c2a": 3554,
  "\u2581N": 3555,
  "\u2581\u0c1a\u0c47\u0c2f\u0c21\u0c02": 3556,
  "\u0baf\u0bbf\u0bb2\u0bbf\u0bb0\u0bc1\u0ba8\u0bcd\u0ba4\u0bc1": 3557,
  "\u2581Also": 3558,
  "\u2581America": 3559,
  "\u2581\u0d35\u0d32\u0d4d\u0d32": 3560,
  "\u0ccc": 3561,
  "\u2581leaders": 3562,
  "\u0d38\u0d4d\u0d31\u0d4d\u0d31": 3563,
  "\u2581security": 3564,
  "\u2581\u0c2c\u0c3f": 3565,
  "\u2581\u0c24\u0c3e\u0c2e\u0c41": 3566,
  "\u2581\u0cac\u0cb9\u0cb3": 3567,
  "\u2581\u0cb8\u0c82\u0ca4\u0ccb\u0cb7": 3568,
  "\u2581assigned": 3569,
  "\u2581Perhaps": 3570,
  "\u2581inside": 3571,
  "\u2581areas": 3572,
  "\u2581camp": 3573,
  "\u0bbe\u0b95\u0bb5\u0bc1\u0bae\u0bcd": 3574,
  "\u2581\u0b87\u0bb5\u0bb0\u0bcd\u0b95\u0bb3\u0bcd": 3575,
  "\u2581\u0d2e\u0d47\u0d32\u0d4d": 3576,
  "\u2581completely": 3577,
  "\u2581entered": 3578,
  "\u2581copy": 3579,
  "\u2581\u0c95\u0cbe": 3580,
  "\u0c38\u0c46": 3581,
  "\u2581\u0b8e\u0ba9\u0bbf\u0ba9\u0bc1\u0bae\u0bcd": 3582,
  "\u0cbf\u0c95\u0cc6": 3583,
  "\u2581\u0d15\u0d4a": 3584,
  "\u2581\u0d38\u0d30\u0d4d": 3585,
  "\u2581wrath": 3586,
  "\u2581\u0c0e\u0c32\u0c3e\u0c02\u0c1f\u0c3f": 3587,
  "\u2581\u0c2f\u0c46\u0c37\u0c2f\u0c3e": 3588,
  "\u2581\u0d06\u0d30\u0d4d": 3589,
  "\u0d15\u0d41": 3590,
  "\u2581immediately": 3591,
  "\u2581Catholic": 3592,
  "\u2581\u0c1a\u0c3e\u0c32\u0c3e\u0c2e\u0c02\u0c26\u0c3f": 3593,
  "\u2581\u0d05\u0d35\u0d30\u0d3f\u0d32\u0d4d": 3594,
  "\u2581Remove": 3595,
  "\u2581\u0c2a\u0c47\u0c24\u0c41\u0c30\u0c41": 3596,
  "\u0ba4\u0bb1\u0bcd\u0b95\u0bbe\u0b95": 3597,
  "\u2581\u0c15\u0c4a\u0c02\u0c26\u0c30\u0c41": 3598,
  "\u0d23\u0d4d": 3599,
  "\u2581\u0bb5\u0bc7\u0ba4\u0ba9\u0bc8": 3600,
  "\u2581\u0c38\u0c3e\u0c24\u0c3e\u0c28\u0c41": 3601,
  "\u0ca4\u0cc6\u0caf": 3602,
  "\u2581War": 3603,
  "\u2581\u0cb9\u0cbe\u0c97\u0cc6\u0caf\u0cc7": 3604,
  "\u2581\u0ba8\u0bbf": 3605,
  "\u2581\u0cae\u0cbe\u0cb0\u0ccd\u0c97": 3606,
  "\u2581progress": 3607,
  "\u2581\u0d28\u0d3f\u0d32": 3608,
  "\u2581\u0d24\u0d3f": 3609,
  "\u2581\u0d32": 3610,
  "\u0d23\u0d3f": 3611,
  "\u0baa\u0bcd\u0baa\u0b9f\u0bcd\u0b9f\u0bc1": 3612,
  "\u0d15\u0d4d\u0d15\u0d41\u0d28\u0d4d\u0d28\u0d41": 3613,
  "\u0ba4\u0bbf\u0bb2\u0bcd\u0bb2\u0bc8": 3614,
  "\u2581conditions": 3615,
  "\u2581\u0c85\u0cb0\u0ccd\u0ca5": 3616,
  "\u2581\u0d26": 3617,
  "\u2581active": 3618,
  "Let": 3619,
  "\u2581\u0b85\u0ba9\u0bcd\u0bb1\u0bbf\u0baf\u0bc1\u0bae\u0bcd": 3620,
  "\u2581Oh": 3621,
  "\u2581sacred": 3622,
  "\u2581goal": 3623,
  "\u0ba9\u0bbe": 3624,
  "\u2581Add": 3625,
  "\u2581secret": 3626,
  "\u2581offerings": 3627,
  "\u0bbf\u0bb1\u0bcd\u0b95\u0bc1": 3628,
  "\u25811)": 3629,
  "\u2581\u0c24\u0c40\u0c38\u0c3f\u0c15\u0c4a\u0c28\u0c3f": 3630,
  "\u2581\u0c2e\u0c30\u0c3f\u0c02\u0c24": 3631,
  "\u0c4c": 3632,
  "\u0c41\u0c15\u0c4b": 3633,
  "\u2581\u0d05\u0d32\u0d4d\u0d32\u0d3e\u0d39\u0d41\u0d35\u0d46": 3634,
  "\u2581re": 3635,
  "man": 3636,
  "\u2581produce": 3637,
  "\u2581\u0c0e\u0c02\u0c26\u0c41\u0c15\u0c02\u0c1f\u0c47": 3638,
  "\u25811914": 3639,
  "\u2581\u0d2f\u0d3e\u0d24\u0d4a\u0d30\u0d41": 3640,
  "\u0d19\u0d4d\u0d19\u0d33\u0d3f\u0d32\u0d4d": 3641,
  "\u2581tells": 3642,
  "\u2581enjoyed": 3643,
  "\u0c2e\u0c41\u0c32\u0c28\u0c41": 3644,
  "\u25810": 3645,
  "\u2581related": 3646,
  "\u0cae\u0cc6": 3647,
  "\u2581\u0c09\u0c26\u0c3e\u0c39\u0c30\u0c23\u0c15\u0c41": 3648,
  "\u2581\u0c38\u0c02\u0c16\u0c4d\u0c2f": 3649,
  "\u2581deny": 3650,
  "\u2581Lo": 3651,
  "\u0d41\u0d2e\u0d3e\u0d2f\u0d3f\u0d30\u0d41\u0d28\u0d4d\u0d28\u0d41": 3652,
  "\u2581literature": 3653,
  "\u0ca4\u0ca8": 3654,
  "\u0cb5\u0cbe\u0c97\u0cbf\u0cb0\u0cc1\u0cb5": 3655,
  "\u2581feeling": 3656,
  "\u2581\u0bae\u0ba4\u0bcd\u0ba4\u0bc7\u0baf\u0bc1": 3657,
  "\u2581\u0cb5\u0cbf\u0cb7\u0caf": 3658,
  "\u0c2a\u0c30\u0c1a": 3659,
  "\u2581\u0c95\u0cc6\u0cb2\u0cb5\u0cb0\u0cc1": 3660,
  "\u2581nature": 3661,
  "\u2581Yeah": 3662,
  "\u2581neighbor": 3663,
  "\u2581\u0d2e\u0d3e\u0d24\u0d4d\u0d30\u0d02": 3664,
  "\u2581\u0cb9\u0cca\u0cb0": 3665,
  "\u2581Isaac": 3666,
  "he": 3667,
  "\u0c02\u0c1f": 3668,
  "\u0c38\u0c4d\u0c24": 3669,
  "\u0c95\u0ccb": 3670,
  "\u2581fail": 3671,
  "\u2581\u0b95\u0bca\u0b9f\u0bc1\u0b95\u0bcd\u0b95": 3672,
  "\u2581size": 3673,
  "\u258124.": 3674,
  "\u2581\u0bb5\u0b95\u0bc8": 3675,
  "\u2581Ephesians": 3676,
  "\u0c39\u0c3e": 3677,
  "\u2581begin": 3678,
  "\u2581\u0b95\u0bbf": 3679,
  "\u2581\u0caa\u0ccd\u0cb0\u0cc0\u0ca4\u0cbf\u0cb8": 3680,
  "\u2581\u0b8e\u0ba9\u0bcd\u0ba9\u0bc1\u0b9f\u0bc8\u0baf": 3681,
  "\u2581\u0ca4\u0cbe\u0ca8\u0cc1": 3682,
  "\u25812)": 3683,
  "\u2581\u0c87\u0cb8\u0ccd\u0cb0\u0cbe\u0caf\u0cc7\u0cb2\u0ccd": 3684,
  "\u2581keeping": 3685,
  "\u2581throne": 3686,
  "\u2581idea": 3687,
  "\u2581\u0c35\u0c47\u0c2f": 3688,
  "\u2581ark": 3689,
  "\u2581\u0c28\u0c3f\u0c1c\u0c02\u0c17\u0c3e": 3690,
  "\u0cb0\u0cbe\u0c97\u0cbf": 3691,
  "\u2581business": 3692,
  "\u2581persecution": 3693,
  "\u2581Watch": 3694,
  "\u2581final": 3695,
  "\u0d24\u0d30": 3696,
  "\u258124:": 3697,
  "\u0c32\u0c4b\u0c28\u0c41": 3698,
  "\u2581remained": 3699,
  "\u0d47\u0d23\u0d02": 3700,
  "\u0d1f\u0d4d\u0d1f\u0d4d": 3701,
  "\u2581p": 3702,
  "\u2581\u0c2c\u0c39\u0c41": 3703,
  "\u2581\u0c95\u0cc7\u0cb5\u0cb2": 3704,
  "\u0c15\u0c41\u0c28\u0c41": 3705,
  "\u0bb1\u0bbf": 3706,
  "\u0c32\u0c24\u0c4b": 3707,
  "\u2581calls": 3708,
  "\u2581(%": 3709,
  "\u0d15\u0d4a\u0d23\u0d4d\u0d1f\u0d41": 3710,
  "\u2581\u0cb8\u0cbe\u0cb0": 3711,
  "\u0c3f\u0c24": 3712,
  "\u0c2e\u0c41\u0c32": 3713,
  "\u0baa\u0bbe": 3714,
  "\u0c46\u0c26\u0c28\u0c41": 3715,
  "\u2581\u0bb5\u0bbe\u0bb4\u0bcd\u0b95\u0bcd\u0b95\u0bc8": 3716,
  "\u2581\u0cae\u0ca8\u0cc6\u0caf": 3717,
  "\u0baf\u0bc8\u0b95\u0bcd": 3718,
  "\u2581teacher": 3719,
  "\u0d2f\u0d3f\u0d32": 3720,
  "\u2581guided": 3721,
  "\u2581\u0b9a\u0bc6\u0bb2\u0bcd\u0bb2": 3722,
  "\u2581\u0cae\u0ca4\u0ccd\u0ca4\u0cbe\u0caf": 3723,
  "\u2581\u0cb8\u0cc1\u0cae\u0cbe\u0cb0\u0cc1": 3724,
  "\u0c24\u0c4b\u0c28\u0c41": 3725,
  "\u0cbf\u0ca6\u0ccd\u0ca6\u0ca8\u0cc1": 3726,
  "\u2581\u0d12\u0d28\u0d4d\u0d28": 3727,
  "\u2581\u0d15\u0d42\u0d1f\u0d4d\u0d1f": 3728,
  "\u2581Should": 3729,
  "\u2581\u0c1a\u0c02\u0c2a": 3730,
  "ting": 3731,
  "\u2581broken": 3732,
  "\u2581\u0d0e\u0d28\u0d3f\u0d15\u0d4d\u0d15": 3733,
  "\u2581\u0d2e\u0d41\u0d2e\u0d4d\u0d2a\u0d4d": 3734,
  "\u2581pleasure": 3735,
  "\u2581whoever": 3736,
  "\u2581\u0c07\u0c02\u0c15\u0c3e": 3737,
  "\u0d4b\u0d1f\u0d41": 3738,
  "\u2581fill": 3739,
  "\u2581explain": 3740,
  "\u2581\u0ca4\u0caa\u0ccd\u0caa": 3741,
  "\u0c35\u0c3e\u0c30\u0c3f\u0c28\u0c3f": 3742,
  "\u2581household": 3743,
  "\u2581\u0c05\u0c32\u0c3e\u0c17\u0c47": 3744,
  "\u2581Give": 3745,
  "\u2581arrived": 3746,
  "\u2581\u0d2f\u0d4b": 3747,
  "\u2581delight": 3748,
  "\u0d27\u0d3f": 3749,
  "\u2581\u0c89\u0ca6\u0cbe\u0cb9\u0cb0\u0ca3\u0cc6\u0c97\u0cc6": 3750,
  "\u2581\u0d05\u0d26\u0d4d\u0d26\u0d47\u0d39\u0d24\u0d4d\u0d24\u0d3f\u0d28\u0d4d": 3751,
  "\u2581medical": 3752,
  "\u2581studying": 3753,
  "\u2581\u0c05\u0c26\u0c47": 3754,
  "\u2581\u0c05\u0c28\u0c4d\u0c28\u0c3e\u0c21\u0c41": 3755,
  "\u0cbf\u0ca8\u0cbf\u0c82\u0ca6": 3756,
  "\u2581personality": 3757,
  "\u2581\u0d26\u0d48\u0d35\u0d24\u0d4d\u0d24\u0d3f\u0d28\u0d4d": 3758,
  "\u0bc1\u0b95\u0bcd\u0b95\u0bbe\u0b95": 3759,
  "\u2581\u0d2a\u0d3f\u0d28\u0d4d": 3760,
  "\u0d46\u0d1f\u0d41\u0d15\u0d4d\u0d15": 3761,
  "\u2581\u0d05\u0d28\u0d41": 3762,
  "\u0c41\u0c1a\u0c41\u0c28\u0c4d\u0c28\u0c3e\u0c28\u0c41": 3763,
  "\u2581imperfect": 3764,
  "\u2581devotion": 3765,
  "\u2581\u0c85\u0caa\u0cca\u0cb8\u0ccd\u0ca4\u0cb2": 3766,
  "ate": 3767,
  "\u2581\u0cac\u0cbf\u0ca1": 3768,
  "\u2581air": 3769,
  "\u2581\u0baa\u0bcb\u0bb0\u0bcd": 3770,
  "\u2581\u0b9a\u0bc6\u0ba9\u0bcd\u0bb1": 3771,
  "\u2581Mount": 3772,
  "\u0d15\u0d4a\u0d23\u0d4d\u0d1f\u0d4d": 3773,
  "\u2581protection": 3774,
  "\u2581top": 3775,
  "\u2581\u0d1e\u0d19\u0d4d\u0d19\u0d33\u0d46": 3776,
  "\u2581\u0d28\u0d46": 3777,
  "\u0c15\u0c4a\u0c30\u0c15\u0c41": 3778,
  "\u0cb9\u0ccb\u0c97": 3779,
  "\u2581\u0c15\u0c28\u0c2c\u0c21": 3780,
  "\u0cbf\u0c97": 3781,
  "\u2581loss": 3782,
  "\u2581\u0caf\u0cbe\u0cb0\u0cc1": 3783,
  "\u0c82\u0c97": 3784,
  "\u2581\u0cb9\u0cc1\u0ca1\u0cc1\u0c95": 3785,
  "\u2581\u0baa\u0bcb\u0bb2": 3786,
  "\u2581big": 3787,
  "\u2581\u0b85\u0baa\u0bcd\u0baa\u0bcb\u0ba4\u0bc1": 3788,
  "\u0ca4\u0ccd\u0ca4\u0cc1": 3789,
  "\u258145": 3790,
  "\u2581front": 3791,
  "\u0c2a\u0c3f": 3792,
  "\u0c2e\u0c41\u0c28\u0c15\u0c41": 3793,
  "\u2581encouragement": 3794,
  "\u2581negative": 3795,
  "\u2581\u0d15\u0d4b": 3796,
  "\u2581\u0c86\u0ca4\u0ca8\u0ca8\u0ccd\u0ca8\u0cc1": 3797,
  "\u2581\u0cb8\u0cad\u0cc6\u0caf": 3798,
  "\u2581option": 3799,
  "W": 3800,
  "\u2581\u0c2e\u0c3e\u0c15\u0c41": 3801,
  "\u2581\u0c87\u0ca8\u0ccd\u0ca8\u0cca\u0c82\u0ca6\u0cc1": 3802,
  "\u2581sit": 3803,
  "\u2581groups": 3804,
  "\u2581\u0caf\u0cbe\u0cb5\u0cbe\u0c97\u0cb2\u0cc2": 3805,
  "\u2581deeply": 3806,
  "\u2581\u0cae\u0cc2\u0cb0\u0cc1": 3807,
  "\u0c15\u0c30\u0c2e\u0c48\u0c28": 3808,
  "\u2581lose": 3809,
  "\u2581\u0b85\u0bb5\u0ba9\u0bc1\u0b9f\u0bc8\u0baf": 3810,
  "\u2581encourage": 3811,
  "\u0d2a\u0d3f": 3812,
  "\u2581gate": 3813,
  "\u2581\u0c86\u0ca6\u0ca6\u0cb0\u0cbf\u0c82\u0ca6": 3814,
  "\u2581\u0c2e\u0c42\u0c21\u0c41": 3815,
  "\u2581\u0c06\u0c1c\u0c4d\u0c1e": 3816,
  "\u2581\u0cb9\u0cc7\u0cb3\u0cc1\u0cb5\u0cc1\u0ca6\u0cc1": 3817,
  "\u0d35\u0d30\u0d41\u0d1f\u0d46": 3818,
  "\u2581Soon": 3819,
  "\u2581\u0d2e\u0d4b": 3820,
  "\u0cbe\u0ca6\u0cb0\u0cc2": 3821,
  "\u0c41\u0c15\u0c4b\u0c35\u0c21\u0c02": 3822,
  "\u2581Y": 3823,
  "\u0b95\u0bcd\u0b95\u0bc2\u0b9f\u0bbf\u0baf": 3824,
  "\u2581articles": 3825,
  "\u0c41\u0c24\u0c41\u0c02\u0c26\u0c3f": 3826,
  "\u2581\u0b8e\u0b99\u0bcd\u0b95\u0bb3\u0bcd": 3827,
  "\u2581\u0bb5\u0bc6\u0bb3\u0bbf": 3828,
  "\u2581\u0c2e\u0c3f\u0c2e\u0c4d\u0c2e\u0c41\u0c28\u0c41": 3829,
  "\u2581\u0c2f\u0c3e": 3830,
  "\u2581IN": 3831,
  "\u2581behalf": 3832,
  "\u0ba4\u0bcd\u0ba4\u0bbf\u0bb2\u0bc1\u0bae\u0bcd": 3833,
  "\u0d41\u0d2e\u0d46\u0d28\u0d4d\u0d28\u0d4d": 3834,
  "\u2581torment": 3835,
  "\u0bbf\u0b95\u0bcd\u0b95": 3836,
  "\u2581\u0d24\u0d28\u0d4d\u0d28\u0d47": 3837,
  "\u2581\u0d15\u0d42\u0d1f\u0d3f": 3838,
  "\u0bc1\u0b95\u0bbf\u0ba9\u0bcd\u0bb1\u0ba9": 3839,
  "\u0d46\u0d28\u0d4d\u0d28\u0d4d": 3840,
  "\u2581\u0d2f\u0d3e": 3841,
  "\u2581causes": 3842,
  "\u2581\u0d28\u0d3f\u0d2f\u0d2e": 3843,
  "\u2581add": 3844,
  "\u2581\u0c2e\u0c47": 3845,
  "\u2581\u0c2a\u0c46": 3846,
  "\u2581\u0c1a\u0c46\u0c2c\u0c41\u0c24\u0c4b\u0c02\u0c26\u0c3f": 3847,
  "\u2581\u0baa\u0b95\u0bc1\u0ba4\u0bbf": 3848,
  "\u2581\u0c86\u0ca4\u0ccd\u0cae": 3849,
  "\u2581\u0c26\u0c3e\u0c28\u0c4d\u0c28\u0c3f": 3850,
  "\u0ca8\u0ccd\u0ca8\u0cc6\u0cb2\u0ccd\u0cb2\u0cbe": 3851,
  "\u2581dedicated": 3852,
  "\u0d35\u0d30\u0d41\u0d02": 3853,
  "\u0d05\u0d32\u0d4d\u0d32\u0d46\u0d19\u0d4d\u0d15\u0d3f\u0d32\u0d4d": 3854,
  "\u2581\u0bae\u0bc7\u0bb2\u0bcd": 3855,
  "\u0ba4\u0bcd\u0ba4\u0bc8\u0baa\u0bcd": 3856,
  "\u0cac\u0ccd": 3857,
  "\u2581\u0c2d\u0c42\u0c2e\u0c3f": 3858,
  "\u0caa\u0ccd\u0caa": 3859,
  "\u258118,": 3860,
  "\u2581\u0b95\u0bc1\u0b9f\u0bc1\u0bae\u0bcd\u0baa": 3861,
  "\u2581\u0d05\u0d35\u0d28": 3862,
  "\u0d26\u0d4d\u0d27": 3863,
  "\u2581fast": 3864,
  "\u0cc1\u0cb5\u0cc1\u0ca6\u0cb0\u0cb2\u0ccd\u0cb2\u0cbf": 3865,
  "\u0c41\u0c1f\u0c15\u0c48": 3866,
  "\u2581equal": 3867,
  "\u0d31\u0d46\u0d2f\u0d41\u0d02": 3868,
  "\u2581hurt": 3869,
  "\u2581\u0b9a\u0b99\u0bcd\u0b95\u0bc0\u0ba4\u0bae\u0bcd": 3870,
  "\u2581\u0d2a\u0d42\u0d30\u0d4d": 3871,
  "ur": 3872,
  "\u2581\u0c92": 3873,
  "\u0d41\u0d28\u0d4d\u0d28\u0d3f\u0d32\u0d4d\u0d32": 3874,
  "\u2581political": 3875,
  "\u2581\u0ba4\u0bae\u0bcd\u0bae\u0bc1\u0b9f\u0bc8\u0baf": 3876,
  "\u0bb5\u0bb1\u0bcd\u0bb1\u0bc8": 3877,
  "\u0d2e\u0d32\u0d4d\u0d32": 3878,
  "\u2581recent": 3879,
  "\u2581\u0baa\u0ba3\u0bbf": 3880,
  "\u0c02\u0c26": 3881,
  "\u2581remove": 3882,
  "\u2581\u0b95\u0bc2\u0b9f\u0bcd\u0b9f": 3883,
  "\u2581member": 3884,
  "\u0cb2\u0cbe\u0ca6": 3885,
  "\u2581TO": 3886,
  "\u2581cover": 3887,
  "\u2581\u0d2c": 3888,
  "\u2581de": 3889,
  "\u2581astray": 3890,
  "\u2581date": 3891,
  "\u2581\u0d28\u0d2e\u0d41\u0d15\u0d4d\u0d15\u0d41": 3892,
  "\u0caa\u0ca1": 3893,
  "\u258120,": 3894,
  "\u2581\u0bb5\u0bbf\u0bb3\u0b95\u0bcd\u0b95": 3895,
  "\u2581Time": 3896,
  "\u2581\u0d2c\u0d3e": 3897,
  "\u2581lesson": 3898,
  "\u2581belongs": 3899,
  "\u2581eventually": 3900,
  "\u2581\u0d28\u0d3f\u0d28\u0d4d\u0d28\u0d41\u0d33\u0d4d\u0d33": 3901,
  "\u2581ears": 3902,
  "\u2581\u0cb8\u0cc7\u0cb5\u0cc6": 3903,
  "\u2581\u0d38\u0d4d\u0d35\u0d30\u0d4d": 3904,
  "ra": 3905,
  "\u0bc1\u0b95\u0bbf\u0bb1\u0bbe\u0bb0\u0bcd": 3906,
  "\u2581Dr": 3907,
  "\u2581Help": 3908,
  "\u2581Set": 3909,
  "\u2581\u0c9a\u0cbf\u0c95\u0ccd\u0c95": 3910,
  "\u2581\u0d05\u0d1f\u0d41\u0d24\u0d4d\u0d24\u0d4d": 3911,
  "\u2581wall": 3912,
  "\u2581original": 3913,
  "\u2581\u0caa": 3914,
  "format": 3915,
  "\u0c2a\u0c46\u0c1f\u0c4d\u0c1f": 3916,
  "\u0d7a": 3917,
  "\u2581\u0c85\u0cb5\u0cc1\u0c97\u0cb3": 3918,
  "\u2581Through": 3919,
  "\u2581hearing": 3920,
  "\u0c35\u0c41\u0c28\u0c4d\u0c28": 3921,
  "\u2581\u0b9a\u0bc1": 3922,
  "\u2581\u0d13\u0d30\u0d4d": 3923,
  "\u2581contrast": 3924,
  "\u2581riches": 3925,
  "\u2581aside": 3926,
  "\u2581step": 3927,
  "\u2581Fire": 3928,
  "\u0cbf\u0ca1": 3929,
  "\u2581\u0baa\u0b9f": 3930,
  "\u0bb8": 3931,
  "\u2581\u0c9c\u0ca8\u0cb0\u0ca8\u0ccd\u0ca8\u0cc1": 3932,
  "\u0bb5\u0bb0\u0bcd\u0b95\u0bb3\u0bc8": 3933,
  "\u2581patience": 3934,
  "\u2581process": 3935,
  "\u2581Levites": 3936,
  "\u2581recognize": 3937,
  "\u2581declared": 3938,
  "\u0baf\u0bbf\u0bb2\u0bc1\u0bae\u0bcd": 3939,
  "\u2581\u0c1a\u0c46\u0c2a\u0c4d\u0c2a\u0c3f\u0c28": 3940,
  "K": 3941,
  "\u2581\u0d35\u0d3f\u0d32": 3942,
  "\u2581Over": 3943,
  "\u2581reached": 3944,
  "\u2581\u0b95\u0bc7": 3945,
  "\u2581male": 3946,
  "\u2581\u0cae\u0cc1\u0c96\u0ccd\u0caf": 3947,
  "\u2581company": 3948,
  "\u2581\u0bae\u0ba9\u0bbf\u0ba4": 3949,
  "\u0ca8\u0cbf\u0c97\u0cc6": 3950,
  "\u2581\u0c85\u0c82\u0ca5": 3951,
  "\u2581traveling": 3952,
  "\u2581\u0ba4\u0bbe": 3953,
  "\u2581\u0d2c\u0d3f": 3954,
  "\u2581\u0bb5\u0ba8\u0bcd\u0ba4\u0bc1": 3955,
  "\u2581noted": 3956,
  "\u2581\u0c2a\u0c3f\u0c32\u0c4d\u0c32\u0c32\u0c41": 3957,
  "\u2581\u0cb9\u0cc7\u0cb3\u0cbf\u0ca6": 3958,
  "\u2581\u0c85\u0c82\u0ca4": 3959,
  "\u2581\u0d2e\u0d31\u0d4d\u0d31\u0d4a\u0d30\u0d41": 3960,
  "\u2581\u0c85\u0c97\u0ca4\u0ccd\u0caf": 3961,
  "\u0c15\u0c30": 3962,
  "\u0cb7\u0ccd": 3963,
  "\u0d24\u0d3f\u0d28\u0d46": 3964,
  "\u2581struck": 3965,
  "\u2581\u0c35\u0c3e\u0c33\u0c4d\u0c32\u0c41": 3966,
  "\u2581check": 3967,
  "\u2581\u0bae\u0bc1\u0ba9\u0bcd\u0ba9": 3968,
  "\u0bb5\u0bb0\u0bcd\u0b95\u0bb3\u0bc1\u0b95\u0bcd\u0b95\u0bc1": 3969,
  "\u2581\u0bae\u0b9f\u0bcd\u0b9f\u0bc1\u0bae\u0bc7": 3970,
  "\u2581\u0cac\u0caf\u0cb8": 3971,
  "\u2581\u0b8e\u0ba9\u0bcd\u0baa\u0ba4\u0bbe\u0b95": 3972,
  "\u2581suffered": 3973,
  "\u2581\u0b9a\u0bc7\u0bb0\u0bcd\u0ba8\u0bcd\u0ba4": 3974,
  "\u2581\u0cb5": 3975,
  "\u0cb8\u0cbe": 3976,
  "\u2581greatly": 3977,
  "\u2581social": 3978,
  "\u2581although": 3979,
  "\u2581rise": 3980,
  "\u2581cases": 3981,
  "\u2581\u0c35\u0c46\u0c33\u0c4d\u0c33": 3982,
  "\u2581\u0ca6\u0cc2\u0cb0": 3983,
  "\u2581\u0d38\u0d02\u0d38\u0d3e\u0d30\u0d3f\u0d15\u0d4d\u0d15": 3984,
  "\u0bb3\u0bcd": 3985,
  "\u2581\u0ca6\u0cbe\u0cb5\u0cc0\u0ca6\u0ca8\u0cc1": 3986,
  "espite": 3987,
  "\u0c35\u0c32\u0c38\u0c3f\u0c28": 3988,
  "\u0cb5\u0ca8": 3989,
  "\u0d3f\u0d1f": 3990,
  "\u2581\u0d15\u0d42\u0d1f\u0d4d\u0d1f\u0d24\u0d4d\u0d24\u0d3f\u0d32": 3991,
  "\u2581treat": 3992,
  "\u2581refuge": 3993,
  "\u2581\u0c9c\u0cc0\u0cb5\u0ca8": 3994,
  "\u0d06": 3995,
  "\u2581Messiah": 3996,
  "\u2581sort": 3997,
  "\u2581\u0b9a\u0bc6\u0baf\u0bcd\u0baf\u0baa\u0bcd\u0baa\u0b9f\u0bcd\u0b9f": 3998,
  "\u2581rejected": 3999,
  "\u0d2b\u0d4d": 4000,
  "\u0d17\u0d24\u0d4d\u0d24\u0d3f\u0d32": 4001,
  "\u2581\u0c2a\u0c41": 4002,
  "\u2581box": 4003,
  "\u2581burning": 4004,
  "\u2581prevent": 4005,
  "\u2581sake": 4006,
  "\u2581prepare": 4007,
  "\u2581\u0d15\u0d4a\u0d1f\u0d41\u0d15\u0d4d\u0d15": 4008,
  "\u2581..": 4009,
  "\u0c2f\u0c4d\u0c2f": 4010,
  "\u0cae\u0cbe\u0ca8": 4011,
  "\u0d3f\u0d28\u0d41": 4012,
  "\u2581\u0d05\u0d24\u0d3f\u0d28\u0d4d\u0d31\u0d46": 4013,
  "\u0bc1\u0bb5\u0ba4\u0bc8": 4014,
  "\u2581\u0c1a\u0c47\u0c38\u0c4d\u0c24\u0c41\u0c02\u0c26\u0c3f": 4015,
  "\u2581sought": 4016,
  "\u2581\u0c15\u0c42\u0c21": 4017,
  "\u2581\u0caf\u0cbe\u0c95\u0cc6": 4018,
  "\u2581\u0b95\u0bbe\u0bb0\u0ba3\u0bae\u0bbe\u0b95": 4019,
  "\u0c28\u0c02\u0c26\u0c41": 4020,
  "\u2581Open": 4021,
  "\u2581\u0b9a\u0bca\u0bb2\u0bcd\u0b95\u0bbf\u0bb1\u0ba4\u0bc1": 4022,
  "\u0d24\u0d4d\u0d24\u0d4b\u0d1f\u0d46": 4023,
  "\u2581glad": 4024,
  "\u2581studies": 4025,
  "\u2581\u0c38\u0c2e\u0c2f\u0c02": 4026,
  "\u2581\u0cac\u0ca6\u0cb2\u0cbe\u0c97\u0cbf": 4027,
  "\u2581mental": 4028,
  "\u0c15\u0c42": 4029,
  "\u2581creatures": 4030,
  "\u2581observed": 4031,
  "\u2581story": 4032,
  "\u2581\u0c1a\u0c42\u0c2a": 4033,
  "\u2581Similarly": 4034,
  "\u2581drive": 4035,
  "\u2581\u0c1c\u0c40\u0c35": 4036,
  "\u0c15\u0c02\u0c1f\u0c46": 4037,
  "\u2581\u0b9a\u0baa\u0bc8": 4038,
  "\u2581becomes": 4039,
  "\u2581faced": 4040,
  "\u2581\u0b87\u0bb0\u0bc1\u0ba8\u0bcd\u0ba4\u0bbe\u0bb2\u0bcd": 4041,
  "\u2581\u0d15\u0d3e\u0d23\u0d3f\u0d15\u0d4d\u0d15": 4042,
  "\u2581\u0c07\u0c15\u0c4d\u0c15\u0c21": 4043,
  "\u2581\u0d15\u0d23\u0d4d\u0d1f\u0d41": 4044,
  "\u0b9a\u0bc1": 4045,
  "\u0d23\u0d4d\u0d23": 4046,
  "\u2581\u0c38\u0c02\u0c35\u0c24\u0c4d\u0c38\u0c30\u0c3e\u0c32": 4047,
  "\u2581twenty": 4048,
  "\u2581\u0d15\u0d3e\u0d30\u0d4d\u0d2f\u0d24\u0d4d\u0d24\u0d3f\u0d32": 4049,
  "\u2581tabernacle": 4050,
  "\u2581event": 4051,
  "\u0cbf\u0cb0": 4052,
  "\u0c97\u0cc2": 4053,
  "\u2581grateful": 4054,
  "\u2581nine": 4055,
  "\u2581\u0ba8\u0bbe\u0bb3\u0bcd": 4056,
  "\u2581general": 4057,
  "\u2581\u0b85\u0ba9\u0bcd\u0baa\u0bc1": 4058,
  "\u0d15\u0d33\u0d41\u0d1f\u0d46": 4059,
  "\u2581expressed": 4060,
  "\u2581raise": 4061,
  "\u2581\u0bae\u0bc0\u0ba3\u0bcd\u0b9f\u0bc1\u0bae\u0bcd": 4062,
  "\u2581\u0c15\u0c4d\u0c30\u0c48\u0c38\u0c4d\u0c24\u0c35\u0c41\u0c32\u0c41": 4063,
  "\u0bc0\u0bb0\u0bcd": 4064,
  "\u2581trouble": 4065,
  "\u2581\u0b8e\u0bb5\u0bcd\u0bb5\u0bb3\u0bb5\u0bc1": 4066,
  "\u2581\u0b95\u0bca": 4067,
  "\u2581\u0c2e\u0c24\u0c4d\u0c24\u0c2f\u0c3f": 4068,
  "\u2581\u0d05\u0d1f\u0d41\u0d15\u0d4d\u0d15\u0d32": 4069,
  "\u0ba4\u0bcd\u0ba4\u0bbe\u0ba9\u0bcd": 4070,
  "\u2581meant": 4071,
  "\u2581\u0b9a\u0bbe": 4072,
  "\u2581warned": 4073,
  "\u2581\u0baa\u0bc7\u0bb0": 4074,
  "\u2581\u0b95\u0b9f\u0bcd\u0b9f": 4075,
  "\u2581\u0ba4\u0ba9\u0bcd\u0ba9\u0bc1\u0b9f\u0bc8\u0baf": 4076,
  "\u2581\u0bb5\u0bbf\u0bb0\u0bc1\u0bae\u0bcd\u0baa": 4077,
  "\u2581dedication": 4078,
  "\u2581\u0b9a\u0bc7\u0bb5\u0bc8": 4079,
  "\u2581\u0b87\u0bb5\u0bc8": 4080,
  "\u2581\u0c85\u0ca8\u0cc1\u0cad\u0cb5\u0cbf\u0cb8": 4081,
  "\u2581\u0c35\u0c46\u0c33\u0c4d\u0c32\u0c3f": 4082,
  "\u0d41\u0d15\u0d2f\u0d4b": 4083,
  "\u0c1f\u0c4d\u0c1f\u0c41": 4084,
  "\u2581\u0ba8\u0bc0\u0b95\u0bcd\u0b95": 4085,
  "\u0c1c\u0c3e": 4086,
  "\u2581V": 4087,
  "\u2581focus": 4088,
  "\u2581\u0c2e\u0c30\u0c4b": 4089,
  "\u2581\u0cb0\u0cbe\u0c9c\u0ccd\u0caf\u0ca6": 4090,
  "\u2581\u0d38\u0d46": 4091,
  "\u2581\u0d15\u0d4a\u0d32\u0d4d\u0d32": 4092,
  "\u2581\u0c24\u0c28\u0c15\u0c41": 4093,
  "\u0c86": 4094,
  "\u2581strive": 4095,
  "\u0d24\u0d4d\u0d24\u0d28\u0d4d\u0d28\u0d46": 4096,
  "\u0d35\u0d41": 4097,
  "\u2581committed": 4098,
  "\u0cbf\u0ca6\u0cb0\u0cc6": 4099,
  "\u2581hell": 4100,
  "\u2581\u0b85\u0ba8\u0bcd\u0ba4\u0baa\u0bcd": 4101,
  "\u2581\u0baf\u0bcb\u0bb5\u0bbe\u0ba9\u0bcd": 4102,
  "\u0bb4\u0bc1": 4103,
  "\u0bb0\u0bc7": 4104,
  "\u2581Her": 4105,
  "\u2581cultivate": 4106,
  "\u0c41\u0c28\u0c4d\u0c28": 4107,
  "\u2581@": 4108,
  "\u2581Elijah": 4109,
  "\u2581unclean": 4110,
  "\u2581\u0cae\u0cc6": 4111,
  "\u2581\u0d12\u0d28\u0d4d\u0d28\u0d41\u0d02": 4112,
  "\u0d24\u0d3f\u0d32\u0d4d": 4113,
  "\u2581\u0d15\u0d41\u0d1f\u0d41\u0d02\u0d2c": 4114,
  "\u0d15\u0d3f\u0d2f": 4115,
  "\u0d28\u0d3e": 4116,
  "\u2581\u0d05\u0d2e\u0d4d\u0d2e": 4117,
  "\u2581w": 4118,
  "\u0b95\u0bcd\u0b95\u0bbe\u0b95": 4119,
  "\u2581parent": 4120,
  "\u2581\u0b9a\u0bc1\u0bae\u0bbe\u0bb0\u0bcd": 4121,
  "\u2581gather": 4122,
  "\u2581\u0c2a\u0c42": 4123,
  "\u2581souls": 4124,
  "\u2581talking": 4125,
  "\u2581\u0cae\u0cbe\u0ca1\u0cbf\u0ca6\u0ca8\u0cc1": 4126,
  "\u0d46\u0d19\u0d4d\u0d15\u0d3f\u0d32\u0d41\u0d02": 4127,
  "\u2581asking": 4128,
  "\u0b99\u0bcd\u0b95\u0bb3\u0bc1\u0b95\u0bcd\u0b95\u0bc1": 4129,
  "\u0d31\u0d4d": 4130,
  "\u2581waiting": 4131,
  "\u2581\u0cb5\u0cbf\u0cb7\u0caf\u0c97\u0cb3": 4132,
  "de": 4133,
  "\u0c38\u0c4d\u0c24\u0c41\u0c02\u0c26\u0c3f": 4134,
  "\u0baf\u0bc8\u0baa\u0bcd": 4135,
  "\u0c32\u0c4b\u0c28\u0c3f\u0c15\u0c3f": 4136,
  "\u2581\u0caf\u0cc1\u0cb5": 4137,
  "\u2581High": 4138,
  "\u2581\u0baa\u0bc6\u0ba3\u0bcd": 4139,
  "\u2581\u0c35\u0c3f\u0c28\u0c3f": 4140,
  "\u2581\u0c17\u0c41\u0c30\u0c3f\u0c02\u0c1a\u0c3f\u0c28": 4141,
  "\u2581\u0c86\u0ca4\u0ca8\u0cbf\u0c97\u0cc6": 4142,
  "\u0cbf\u0c95\u0cc6\u0caf": 4143,
  "\u0d2c\u0d4d": 4144,
  "\u258142": 4145,
  "\u2581\u0ba4\u0b99\u0bcd\u0b95\u0bb3\u0bc1\u0b9f\u0bc8\u0baf": 4146,
  "\u2581birds": 4147,
  "\u0bae\u0bc1\u0bb1\u0bc8": 4148,
  "\u0c1a\u0c47": 4149,
  "\u2581overcome": 4150,
  "\u0cb8\u0ccd\u0ca5": 4151,
  "\u2581\u0c35\u0c30\u0c15\u0c41": 4152,
  "\u2581baby": 4153,
  "\u2581despite": 4154,
  "\u2581unbelievers": 4155,
  "\u2581\u0cb2\u0ccb\u0c95\u0ca6": 4156,
  "\u2581\u0bae\u0bc2\u0ba9\u0bcd\u0bb1\u0bc1": 4157,
  "\u2581\u0ca8\u0cbe": 4158,
  "\u2581\u0baa\u0bcb\u0bb2\u0bcd": 4159,
  "\u0c2e\u0c4d\u0c2e": 4160,
  "\u2581Each": 4161,
  "\u0d3f\u0d24": 4162,
  "\u2581data": 4163,
  "\u2581visited": 4164,
  "\u2581\u0ca8\u0c82\u0cac\u0cbf\u0c97\u0cb8\u0ccd\u0ca4": 4165,
  "\u2581\u0d28\u0d28\u0d4d\u0d26\u0d3f": 4166,
  "\u0c28\u0c48\u0c28\u0c28\u0c41": 4167,
  "\u2581tribulation": 4168,
  "\u2581\u0c95\u0cb3\u0cc1\u0cb9\u0cbf\u0cb8": 4169,
  "\u2581\u0d38\u0d2e\u0d2f\u0d02": 4170,
  "\u0d15\u0d4d\u0d37": 4171,
  "\u2581Society": 4172,
  "\u2581goals": 4173,
  "\u2581obedience": 4174,
  "\u2581<": 4175,
  "\u2581\u0bb5\u0baf\u0ba4\u0bc1": 4176,
  "\u2581\u0cac\u0cb3\u0cbf\u0c95": 4177,
  "\u2581values": 4178,
  "um": 4179,
  "\u2581dust": 4180,
  "\u2581humility": 4181,
  "\u2581reported": 4182,
  "\u2581\u0b8f\u0ba9\u0bc6\u0ba9\u0bcd\u0bb1\u0bbe\u0bb2\u0bcd": 4183,
  "\u2581heed": 4184,
  "\u2581straight": 4185,
  "ment": 4186,
  "\u2581beliefs": 4187,
  "\u2581\u0c09\u0c02\u0c21\u0c47": 4188,
  "\u2581refused": 4189,
  "\u2581\u0bae\u0ba4\u0bbf\u0baa\u0bcd\u0baa\u0bc1": 4190,
  "\u2581Man": 4191,
  "\u2581importance": 4192,
  "\u2581\u0c2f\u0c40": 4193,
  "\u0d1c\u0d3f": 4194,
  "\u2581cried": 4195,
  "\u258138": 4196,
  "\u0c21\u0c3e": 4197,
  "\u2581placed": 4198,
  "\u0c4d\u0c28\u0c3f": 4199,
  "\u2581thanks": 4200,
  "\u0d24\u0d4d\u0d24\u0d3f\u0d32\u0d41\u0d02": 4201,
  "\u2581\u0b9a\u0bbe\u0b9f\u0bcd\u0b9a\u0bbf\u0b95\u0bb3\u0bcd": 4202,
  "ity": 4203,
  "\u0bbe\u0bb3": 4204,
  "\u2581major": 4205,
  "\u0bc0": 4206,
  "\u2581\u0d2e\u0d3e\u0d24\u0d4d\u0d30\u0d2e\u0d3e\u0d23\u0d4d": 4207,
  "ce": 4208,
  "\u0c36\u0c4d": 4209,
  "\u2581\u0c15\u0c4a\u0c28": 4210,
  "\u0b99\u0bcd\u0b95\u0bb3": 4211,
  "\u0c3e\u0c2e\u0c41": 4212,
  "\u2581garden": 4213,
  "\u2581\u0ba8\u0bc7\u0bb0": 4214,
  "\u2581\u0caa\u0cc1\u0ca8\u0c83": 4215,
  "\u2581South": 4216,
  "\u0baf\u0bcd": 4217,
  "\u2581\u0ca6\u0cc7\u0cb5\u0cb0\u0ca8\u0ccd\u0ca8\u0cc1": 4218,
  "\u2581lord": 4219,
  "\u2581\u0c2e\u0c28\u0c32\u0c4d\u0c28\u0c3f": 4220,
  "\u2581\u0d1f\u0d41": 4221,
  "\u2581picture": 4222,
  "\u2581\u0d05\u0d24\u0d41\u0d15\u0d4a\u0d23\u0d4d\u0d1f\u0d4d": 4223,
  "\u2581reveal": 4224,
  "\u2581workers": 4225,
  "\u2581\u0cb5\u0cb0\u0ccd\u0cb7\u0c97\u0cb3": 4226,
  "\u2581\u0d28\u0d4b\u0d15\u0d4d\u0d15": 4227,
  "\u2581\u0d32\u0d4b\u0d15": 4228,
  "\u2581\u0cb8\u0cb9\u0ccb\u0ca6\u0cb0": 4229,
  "\u0d30\u0d3e\u0d2f": 4230,
  "\u2581\u0b85\u0ba4\u0ba9\u0bbe\u0bb2\u0bcd": 4231,
  "\u2581seemed": 4232,
  "do": 4233,
  "\u0c37\u0c4d\u0c1f": 4234,
  "\u2581\u0c17\u0c3e\u0c15": 4235,
  "\u2581points": 4236,
  "\u2581\u0baa\u0bbe\u0bb0\u0bcd\u0ba4\u0bcd\u0ba4": 4237,
  "\u2581\u0c2a\u0c3e\u0c2a\u0c2e\u0c41": 4238,
  "ive": 4239,
  "\u2581writing": 4240,
  "\u2581\u0ba4\u0bc7\u0b9f": 4241,
  "\u0cb2\u0ccb": 4242,
  "la": 4243,
  "\u0d2a\u0d4d\u0d2a\u0d4d": 4244,
  "\u2581\u0ca8\u0c82\u0cac\u0cbf\u0c95\u0cc6": 4245,
  "00": 4246,
  "\u0bb7": 4247,
  "\u2581severe": 4248,
  "\u0c15\u0c41\u0c32\u0c41": 4249,
  "\u2581Germany": 4250,
  "\u2581multitude": 4251,
  "\u2581\u0d2a\u0d47\u0d30\u0d4d": 4252,
  "\u0c47\u0c32\u0c3e": 4253,
  "\u2581publications": 4254,
  "\u2581quite": 4255,
  "\u0cbe\u0c97\u0cb2\u0cbf": 4256,
  "\u2581sex": 4257,
  "\u2581late": 4258,
  "\u0d28\u0d47": 4259,
  "\u2581\u0c2e\u0c24": 4260,
  "\u0c9c\u0ccd": 4261,
  "\u0c28\u0c41\u0c2c\u0c1f\u0c4d\u0c1f\u0c3f": 4262,
  "When": 4263,
  "\u2581closer": 4264,
  "ul": 4265,
  "\u0d3f\u0d1f\u0d4d\u0d1f\u0d4d": 4266,
  "lo": 4267,
  "\u0bc1\u0b95\u0bcd": 4268,
  "\u2581\u0c1a\u0c42\u0c2a\u0c3f\u0c02\u0c1a": 4269,
  "\u2581\u0c28\u0c40\u0c24\u0c3f": 4270,
  "\u2581\u0b89\u0ba3\u0bcd\u0bae\u0bc8\u0baf\u0bbf\u0bb2\u0bcd": 4271,
  "\u2581\u0c95\u0cb2\u0cbf\u0cb8": 4272,
  "\u2581teachers": 4273,
  "\u2581\u0c05\u0c28\u0c17\u0c3e": 4274,
  "\u258144": 4275,
  "\u2581river": 4276,
  "\u258125.": 4277,
  "\u2581Every": 4278,
  "\u2581animal": 4279,
  "\u2581[\u201c": 4280,
  "\u2581\u0c93\u0ca6": 4281,
  "\u2581\u0c2c\u0c3e\u0c27": 4282,
  "\u2581\u0c2e\u0c3e\u0c28\u0c35": 4283,
  "ma": 4284,
  "\u2581bless": 4285,
  "\u2581\u0bb5\u0bc8\u0b95\u0bcd\u0b95": 4286,
  "\u0c35\u0c28\u0c3f": 4287,
  "\u2581affection": 4288,
  "\u2581\u0c95\u0cc1\u0c9f\u0cc1\u0c82\u0cac": 4289,
  "\u0c3f\u0c02\u0c17\u0c4d": 4290,
  "\u2581genuine": 4291,
  "\u2581appeared": 4292,
  "\u2581brethren": 4293,
  "\u2581\u0c07\u0c35\u0c4d\u0c35": 4294,
  "\u2581Church": 4295,
  "\u2581specific": 4296,
  "\u2581\u0d28\u0d47\u0d30\u0d46": 4297,
  "\u2581developed": 4298,
  "\u2581\u0cac\u0cbf\u0c9f\u0ccd\u0c9f\u0cc1": 4299,
  "\u2581relatives": 4300,
  "\u0cbe\u0cb0": 4301,
  "\u2581lest": 4302,
  "\u0c41\u0c15\u0c4b\u0c35\u0c21\u0c3e\u0c28\u0c3f\u0c15\u0c3f": 4303,
  "\u2581accounts": 4304,
  "\u0ba3\u0bcd\u0b9f\u0bc1": 4305,
  "\u2581princes": 4306,
  "\u2581\u0baa\u0bc1": 4307,
  "\u0ba4\u0bcd\u0ba4\u0bbf": 4308,
  "\u2581\u0c2c\u0c4b\u0c27\u0c3f\u0c02\u0c1a": 4309,
  "\u0c2e\u0c02\u0c26\u0c3f": 4310,
  "\u2581table": 4311,
  "\u2581\u0b87\u0ba4\u0bb1\u0bcd\u0b95\u0bc1": 4312,
  "\u0d32\u0d4d\u0d32\u0d3e\u0d24\u0d46": 4313,
  "\u2581\u0cb6\u0cc1\u0ca6\u0ccd\u0ca7": 4314,
  "\u2581\u0c05\u0c2a\u0c4a\u0c38\u0c4d\u0c24\u0c32\u0c41\u0c21": 4315,
  "\u2581\u0d24\u0d3e": 4316,
  "\u2581\u0b9a\u0bca\u0ba8\u0bcd\u0ba4": 4317,
  "\u258124,": 4318,
  "\u2581\u0d0f\u0d24\u0d41": 4319,
  "\u2581clubs": 4320,
  "\u2581\u0b85\u0b99\u0bcd\u0b95\u0bc1": 4321,
  "\u0d2e\u0d41": 4322,
  "\u2581unity": 4323,
  "\u2581\u0b87\u0bb0\u0bc1\u0b95\u0bcd\u0b95\u0bbf\u0ba9\u0bcd\u0bb1\u0bbe\u0ba9\u0bcd": 4324,
  "\u2581\u0c35\u0c3f\u0c37\u0c2f\u0c02": 4325,
  "\u2581request": 4326,
  "\u2581Philistines": 4327,
  "\u2581stones": 4328,
  "\u2581\u0c38\u0c02\u0c1a\u0c2f\u0c02": 4329,
  "less": 4330,
  "\u0c2f\u0c4a\u0c26\u0c4d\u0c26": 4331,
  "\u0d2e\u0d3e\u0d7c": 4332,
  "\u0bb5\u0bbe\u0ba9": 4333,
  "\u2581\u0caf\u0cc6\u0cb9\u0ccb\u0cb5\u0ca8\u0ca8\u0ccd\u0ca8\u0cc1": 4334,
  "\u2581\u0d38\u0d3e": 4335,
  "\u2581\u0d35\u0d4d\u0d2f\u0d15\u0d4d\u0d24\u0d2e\u0d3e\u0d2f": 4336,
  "\u2581illustration": 4337,
  "\u2581\u0b85\u0bb1\u0bbf\u0baf": 4338,
  "\u2581\u0c28\u0c2e\u0c4d\u0c2e": 4339,
  "\u2581persons": 4340,
  "\u2581principle": 4341,
  "\u258121:": 4342,
  "\u2581\u0baa\u0b95\u0bcd\u0b95": 4343,
  "\u2581carefully": 4344,
  "\u2581\u0b95\u0bb0\u0bc1\u0ba4": 4345,
  "\u2581\u0c35\u0c1a\u0c4d\u0c1a\u0c3f\u0c02\u0c26\u0c3f": 4346,
  "\u0c41\u0c35\u0c3e\u0c21\u0c41": 4347,
  "\u0d35\u0d4b": 4348,
  "\u0d4a\u0d15\u0d4d\u0d15\u0d46": 4349,
  "\u0c36\u0c3e": 4350,
  "\u0d15\u0d4d\u0d15\u0d3e\u0d2f\u0d3f": 4351,
  "\u2581DVD": 4352,
  "\u2581\u0b85\u0ba4\u0bc7": 4353,
  "\u0c35\u0c3e\u0c30\u0c3f\u0c15\u0c3f": 4354,
  "\u2581treatment": 4355,
  "\u2581basic": 4356,
  "\u2581compassion": 4357,
  "\u2581examine": 4358,
  "\u2581\u0d2e\u0d24\u0d3f": 4359,
  "\u2581included": 4360,
  "\u2581\u0b9a\u0bbf\u0bb1\u0ba8\u0bcd\u0ba4": 4361,
  "\u2581\u0c0f\u0c2e\u0c3f\u0c1f\u0c3f": 4362,
  "\u0c1c\u0c3f": 4363,
  "\u2581School": 4364,
  "\u258190": 4365,
  "\u2581\u0b8f\u0bb1\u0bcd\u0bb1": 4366,
  "\u0c41\u0c1a\u0c41\u0c28\u0c4d\u0c28\u0c26\u0c3f": 4367,
  "\u0cb0\u0ca8\u0ccd\u0ca8\u0cc1": 4368,
  "\u2581\u0d39\u0d3e": 4369,
  "\u0cb7\u0ccd\u0c9f\u0cc1": 4370,
  "\u0d24\u0d4d\u0d30\u0d46": 4371,
  "\u2581sovereignty": 4372,
  "\u0b86": 4373,
  "\u25814;": 4374,
  "\u2581\u0d2e\u0d30\u0d23": 4375,
  "\u2581\u0cb8\u0ccd\u0cb5\u0c82\u0ca4": 4376,
  "\u2581\u0d28\u0d1f\u0d24\u0d4d\u0d24": 4377,
  "\u0d24\u0d4b": 4378,
  "\u2581music": 4379,
  "\u2581\u0cac\u0cb9\u0cc1": 4380,
  "\u0b9a\u0bbe": 4381,
  "\u0cb5\u0cbe\u0caf\u0cbf\u0ca4\u0cc1": 4382,
  "\u2581consequences": 4383,
  "\u2581escape": 4384,
  "\u2581involves": 4385,
  "\u2581realized": 4386,
  "\u2581shepherd": 4387,
  "\u2581\u0b85\u0b9f\u0bc8\u0bb5\u0bc1": 4388,
  "\u2581\u0d38\u0d2e": 4389,
  "am": 4390,
  "\u2581painful": 4391,
  "\u2581\u0baa\u0bbe\u0bb5": 4392,
  "\u2581\u0c05\u0c02\u0c26\u0c41\u0c15\u0c41": 4393,
  "\u0b89": 4394,
  "\u2581\u0b87\u0baf\u0bc7\u0b9a\u0bc1\u0bb5\u0bbf\u0ba9\u0bcd": 4395,
  "\u2581\u0c8e\u0c82\u0cac\u0cc1\u0ca6\u0cc1": 4396,
  "\u2581\u0d0e\u0d35\u0d3f\u0d1f\u0d46": 4397,
  "\u2581\u0d1a\u0d47\u0d30\u0d4d": 4398,
  "\u0bb5\u0bb0\u0bbe\u0b95": 4399,
  "\u2581amount": 4400,
  "\u2581emotional": 4401,
  "\u2581\u0caf\u0ccb\u0cb9\u0cbe\u0ca8": 4402,
  "\u2581\u0d05\u0d35\u0d30\u0d4b\u0d1f\u0d4d": 4403,
  "be": 4404,
  "\u2581main": 4405,
  "\u2581\u0bae\u0bc1\u0b95\u0bcd\u0b95\u0bbf\u0baf": 4406,
  "\u2581putt": 4407,
  "\u2581\u0c85\u0cb5\u0cc1\u0c97\u0cb3\u0ca8\u0ccd\u0ca8\u0cc1": 4408,
  "\u2581\u0c97\u0cc6": 4409,
  "\u2581\u0d38\u0d28\u0d4d\u0d26\u0d30\u0d4d": 4410,
  "\u2581Error": 4411,
  "\u2581\u0caf\u0cbe\u0cb5\u0cc1\u0ca6\u0cc1": 4412,
  "\u2581\u0d38\u0d4d\u0d35\u0d40\u0d15\u0d30\u0d3f\u0d15\u0d4d\u0d15": 4413,
  "\u0c41\u0c21\u0c48\u0c28": 4414,
  "\u2581\u0d35\u0d3f\u0d36\u0d4d\u0d35\u0d3e\u0d38": 4415,
  "\u2581\u0cae\u0ca8\u0cc1\u0cb7\u0ccd\u0caf\u0ca8": 4416,
  "\u2581Rome": 4417,
  "\u2581\u0ba8\u0bbe": 4418,
  "\u2581\u0cae\u0cc1\u0c82\u0c9a\u0cc6": 4419,
  "\u2581\u0cae\u0cca\u0ca6\u0cb2\u0cc1": 4420,
  "Y": 4421,
  "\u2581sincere": 4422,
  "\u2581burn": 4423,
  "\u0ca8\u0cbe\u0ca8\u0cc1": 4424,
  "\u0d4d\u0d2f\u0d02": 4425,
  "\u2581eating": 4426,
  "\u2581foot": 4427,
  "\u0c02\u0c26\u0c41\u0c15\u0c41": 4428,
  "\u2581>": 4429,
  "\u2581increased": 4430,
  "\u2581\u0caf\u0cc6\u0cb9\u0ccb\u0cb5": 4431,
  "\u0b95\u0bbf": 4432,
  "\u2581\u0c32\u0c47": 4433,
  "\u2581\u0d24\u0d41": 4434,
  "\u2581Tower": 4435,
  "\u2581\u0b85\u0bb1\u0bbf\u0bb5": 4436,
  "\u2581disciple": 4437,
  "\u0c4d\u0c2f\u0c2e\u0c41": 4438,
  "\u2581danger": 4439,
  "\u2581risk": 4440,
  "\u2581\u0cb9\u0cca\u0cb0\u0c97\u0cc6": 4441,
  "\u2581faces": 4442,
  "\u2581\u0c87\u0ca4\u0cb0": 4443,
  "\u2581\u0cb8\u0ccd\u0cb5": 4444,
  "\u0b9a\u0bcd\u0b9a\u0bbf": 4445,
  "\u2581\u0caa\u0ccd\u0cb0\u0caf\u0ca4\u0ccd\u0ca8\u0cbf\u0cb8": 4446,
  "\u0c35\u0c4d\u0c35": 4447,
  "\u2581\u0d15\u0d34\u0d3f\u0d2f\u0d41\u0d02": 4448,
  "\u0bb5\u0ba9\u0bbe\u0b95": 4449,
  "\u2581diamonds": 4450,
  "\u2581\u0d2a\u0d15\u0d4d\u0d37\u0d02": 4451,
  "\u2581\u0cb8\u0cb9\u0cbe\u0caf\u0cae\u0cbe\u0ca1": 4452,
  "like": 4453,
  "\u2581\u0b87\u0bb0\u0bc1\u0ba8\u0bcd\u0ba4\u0bbe\u0bb2\u0bc1\u0bae\u0bcd": 4454,
  "\u2581\u0b9a\u0b95\u0bcd\u0ba4\u0bbf": 4455,
  "\u2581\u0d35\u0d40\u0d23\u0d4d\u0d1f\u0d41\u0d02": 4456,
  "\u0d38\u0d4d\u0d38": 4457,
  "\u2581yes": 4458,
  "\u0ca5": 4459,
  "\u2581police": 4460,
  "\u0d3f\u0d1f\u0d4d\u0d1f\u0d41\u0d33\u0d4d\u0d33": 4461,
  "\u2581\u0c2f\u0c46\u0c30\u0c42\u0c37\u0c32\u0c47\u0c2e\u0c41": 4462,
  "\u0c97\u0cca\u0c82\u0ca1": 4463,
  "\u2581requires": 4464,
  "\u2581Right": 4465,
  "\u2581\u0ba8\u0b9f\u0ba4\u0bcd\u0ba4": 4466,
  "\u2581\u0bb0\u0bbe\u0b9c\u0bcd\u0baf": 4467,
  "\u2581arrangement": 4468,
  "\u2581Jordan": 4469,
  "\u0cbf\u0c82\u0ca6\u0cb2\u0cc2": 4470,
  "\u2581assembly": 4471,
  "\u2581\u0b85\u0b9f\u0bc1\u0ba4\u0bcd\u0ba4": 4472,
  "\u2581\u0c12\u0c15\u0c21\u0c41": 4473,
  "\u2581\u0c24\u0c46\u0c32\u0c3f\u0c2f": 4474,
  "\u2581\u0c26\u0c2f": 4475,
  "\u25818)": 4476,
  "\u2581resurrected": 4477,
  "\u2581\u0c1a\u0c47\u0c30": 4478,
  "\u0c3e\u0c21\u0c28\u0c3f": 4479,
  "\u2581obedient": 4480,
  "\u2581verses": 4481,
  "\u2581\u0c05\u0c28": 4482,
  "\u2581application": 4483,
  "\u2581bed": 4484,
  "\u2581\u0bae\u0bbf\u0b95\u0bcd\u0b95": 4485,
  "\u2581\u0b85\u0bb5\u0bb1\u0bcd\u0bb1\u0bc8": 4486,
  "\u2581\u0baa\u0bbe\u0bb0\u0bc1\u0b99\u0bcd\u0b95\u0bb3\u0bcd": 4487,
  "\u2581\u0baa\u0bb0\u0bbf\u0b9a\u0bc1\u0ba4\u0bcd\u0ba4": 4488,
  "\u0cb5\u0cbf\u0ca6\u0cc6": 4489,
  "\u2581\u0ca8\u0cbf\u0c9c\u0cb5\u0cbe\u0c97\u0cbf\u0caf\u0cc2": 4490,
  "\u2581\u0d28\u0d3f\u0d28\u0d4d\u0d28": 4491,
  "\u0c38\u0c02": 4492,
  "\u0d28\u0d3f\u0d19\u0d4d\u0d19\u0d33\u0d4d": 4493,
  "\u2581responsible": 4494,
  "\u2581behavior": 4495,
  "\u0c2f\u0c46\u0c21\u0c32": 4496,
  "\u2581gonna": 4497,
  "\u2581\u0d2a\u0d4d\u0d30\u0d24\u0d3f\u0d2b\u0d32\u0d02": 4498,
  "\u2581\u0d35\u0d4d\u0d2f\u0d15\u0d4d\u0d24\u0d3f": 4499,
  "\u0c82\u0c9f": 4500,
  "\u2581pursue": 4501,
  "\u0c21\u0c02\u0c32\u0c4b": 4502,
  "\u2581\u0b86\u0b95\u0bc1\u0bae\u0bcd": 4503,
  "\u2581\u0cae\u0cbe\u0ca8\u0cb5": 4504,
  "\u2581\u0bae\u0bc0\u0ba4\u0bc1\u0bae\u0bcd": 4505,
  "\u2581loves": 4506,
  "\u2581\u0ba4\u0bb2\u0bc8": 4507,
  "\u2581\u0caa\u0ccd\u0cb0\u0cbe\u0cb0\u0ccd\u0ca5\u0cbf\u0cb8": 4508,
  "\u2581contains": 4509,
  "\u2581\u0cb8\u0cc2\u0c9a\u0cbf\u0cb8": 4510,
  "\u2581\u0c89\u0ca4\u0ccd\u0ca4\u0cae": 4511,
  "\u0d38\u0d02": 4512,
  "\u2581\u0c8e\u0c82\u0ca6": 4513,
  "\u0b9f\u0bc8\u0baf": 4514,
  "\u0c3f\u0c28\u0c2f\u0c46\u0c21\u0c32": 4515,
  "\u2581\u0c2f\u0c47\u0c38\u0c41\u0c15\u0c4d\u0c30\u0c40\u0c38\u0c4d\u0c24\u0c41": 4516,
  "\u2581\u0d28\u0d3f\u0d28\u0d4d\u0d28\u0d41": 4517,
  "\u2581\u0cb5\u0cbf\u0cb7\u0caf\u0c97\u0cb3\u0ca8\u0ccd\u0ca8\u0cc1": 4518,
  "\u2581opposition": 4519,
  "\u2581\u0c85\u0ca6\u0cb0\u0cb2\u0ccd\u0cb2\u0cbf": 4520,
  "\u0d1f\u0d41": 4521,
  "\u2581Prophet": 4522,
  "\u0c95\u0cbe": 4523,
  "\u2581\u0b9a\u0bc6\u0baf\u0bb2\u0bcd": 4524,
  "\u0c21\u0c3e\u0c28\u0c4d\u0c28\u0c3f": 4525,
  "\u2581\u0d15\u0d30\u0d4d": 4526,
  "\u2581society": 4527,
  "\u2581\u0caa\u0ca1\u0cc6\u0caf": 4528,
  "\u2581personally": 4529,
  "\u2581\u0ba4\u0bc2\u0ba3\u0bcd\u0b9f": 4530,
  "\u2581\u0cb9\u0cbe": 4531,
  "\u2581\u0d38\u0d02": 4532,
  "\u0c17\u0c3e\u0c28\u0c3f": 4533,
  "\u2581\u0d35\u0d46": 4534,
  "\u0ca4\u0ccd\u0caf": 4535,
  "\u2581\u0ca6\u0cc1\u0c83\u0c96": 4536,
  "\u0d30\u0d46": 4537,
  "\u2581II": 4538,
  "\u2581loyalty": 4539,
  "\u2581\u0c38\u0c46": 4540,
  "\u0ba3\u0bbf": 4541,
  "\u2581spake": 4542,
  "\u2581road": 4543,
  "\u2581Clearly": 4544,
  "\u0d2f\u0d41\u0d23\u0d4d\u0d1f\u0d4d": 4545,
  "\u2581truths": 4546,
  "\u2581\u0b87\u0bb0\u0bc1\u0b95\u0bcd\u0b95\u0bbf\u0bb1": 4547,
  "\u2581\u0c2a\u0c30\u0c3f\u0c36\u0c41\u0c26\u0c4d\u0c27": 4548,
  "\u2581\u0caf\u0ccb\u0c9a\u0cbf\u0cb8": 4549,
  "ah": 4550,
  "\u0ca6\u0ca8\u0ccd\u0ca8\u0cc1": 4551,
  "\u2581urged": 4552,
  "\u2581weeks": 4553,
  "\u2581\u0c38\u0c24\u0c4d\u0c2f": 4554,
  "\u2581\u0c95\u0cca\u0ca1\u0cc1\u0cb5": 4555,
  "\u2581\u0c95\u0ccd\u0cb0\u0cc8\u0cb8\u0ccd\u0ca4\u0cb0\u0cc1": 4556,
  "\u2581\u0cb5\u0cb0\u0cc6\u0c97\u0cc2": 4557,
  "\u2581sat": 4558,
  "\u2581\u0c06\u0c26\u0c3f\u0c15\u0c3e\u0c02\u0c21\u0c2e\u0c41": 4559,
  "\u2581\u0d0e\u0d28\u0d4d\u0d24\u0d41\u0d15\u0d4a\u0d23\u0d4d\u0d1f\u0d4d": 4560,
  "\u0c24\u0c4b\u0c2a\u0c3e\u0c1f\u0c41": 4561,
  "\u2581\u0cb8\u0cbf": 4562,
  "\u2581\u0ca6\u0cc7\u0cb5": 4563,
  "\u2581\u0c95\u0cb0\u0cc6\u0caf": 4564,
  "\u2581continues": 4565,
  "\u2581disbelieve": 4566,
  "\u2581\u0c2a\u0c4d\u0c30\u0c15\u0c1f\u0c3f\u0c02\u0c1a": 4567,
  "\u2581\u0c95\u0cc0\u0cb0\u0ccd\u0ca4": 4568,
  "\u2581besides": 4569,
  "\u2581\u0c1c\u0c30\u0c3f\u0c17\u0c3f\u0c28": 4570,
  "\u2581\u0b8e\u0ba3\u0bcd\u0ba3\u0bbf\u0b95\u0bcd\u0b95\u0bc8": 4571,
  "\u2581\u0d15\u0d1f": 4572,
  "\u0c28\u0c47\u0c28\u0c41": 4573,
  "\u2581Merciful": 4574,
  "\u2581delete": 4575,
  "\u2581\u0c92\u0c82\u0ca6": 4576,
  "\u2581generation": 4577,
  "\u0bc1\u0b95\u0bbf\u0ba9\u0bcd\u0bb1\u0ba9\u0bb0\u0bcd": 4578,
  "\u2581response": 4579,
  "\u2581wickedness": 4580,
  "\u0c2f\u0c02": 4581,
  "\u2581Young": 4582,
  "\u2581\u0c15\u0c4a": 4583,
  "\u2581concerned": 4584,
  "\u2581\u0c35\u0c3e\u0c33\u0c4d\u0c32": 4585,
  ",\"": 4586,
  "\u2581effective": 4587,
  "\u2581\u0cb5\u0cbf\u0cb0\u0ccb\u0ca7\u0cb5\u0cbe\u0c97\u0cbf": 4588,
  "\u2581\u0c85\u0cb0\u0cb8\u0ca8\u0cbe\u0ca6": 4589,
  "\u0c16": 4590,
  "\u2581Two": 4591,
  "\u2581\u0c87\u0ca6\u0cb0": 4592,
  "\u0bc1\u0b95": 4593,
  "\u2581covered": 4594,
  "\u2581hidden": 4595,
  "\u2581hate": 4596,
  "\u0b99\u0bcd\u0b95\u0bb3\u0bc1\u0bae\u0bcd": 4597,
  "\u2581fish": 4598,
  "\u2581ruler": 4599,
  "\u2581\u0c95\u0cbe\u0ca3": 4600,
  "\u2581finally": 4601,
  "\u2581reign": 4602,
  "\u2581\u0c15\u0c32\u0c3f\u0c17\u0c3f\u0c28": 4603,
  "\u2581\u0c2a\u0c4d\u0c30\u0c47\u0c2e\u0c3f\u0c02\u0c1a": 4604,
  "\u0c28\u0c48": 4605,
  "\u2581beloved": 4606,
  "\u2581\u0bae\u0bc1\u0b9f\u0bbf\u0bb5\u0bc1": 4607,
  "\u2581\u0d06\u0d2f\u0d3f\u0d30\u0d41\u0d28\u0d4d\u0d28\u0d41": 4608,
  "\u2581\u0d28\u0d4d\u0d28\u0d24\u0d4d": 4609,
  "\u2581experiences": 4610,
  "\u258129.": 4611,
  "\u258148": 4612,
  "\u2581\u0c2f\u0c47": 4613,
  "\u2581\u0c30\u0c3e\u0c1c\u0c48\u0c28": 4614,
  "\u2581\u0cac\u0ca6\u0cc1\u0c95": 4615,
  "ia": 4616,
  "\u0c1f\u0c30\u0c4d": 4617,
  "\u0d41\u0d15\u0d2f\u0d3e\u0d23\u0d46\u0d19\u0d4d\u0d15\u0d3f\u0d32\u0d4d": 4618,
  "\u2581\u0c15\u0c41\u0c1f\u0c41\u0c02\u0c2c": 4619,
  "\u2581harvest": 4620,
  "\u2581\u0ca6\u0ccb\u0cb7": 4621,
  "\u2581preached": 4622,
  "\u0b99\u0bcd\u0b95\u0bb3\u0bc8\u0baf\u0bc1\u0bae\u0bcd": 4623,
  "\u0bb8\u0bbf": 4624,
  "\u258180": 4625,
  "\u2581listening": 4626,
  "\u2581\u0c09\u0c02\u0c21\u0c21\u0c02": 4627,
  "\u2581moving": 4628,
  "\u0c32\u0c41\u0c28\u0c41": 4629,
  "\u0c9a\u0ccd\u0c9a": 4630,
  "\u2581opening": 4631,
  "\u2581space": 4632,
  "\u0c3e\u0c30\u0c4d\u0c25": 4633,
  "\u2581View": 4634,
  "\u2581\u0cb9\u0ca4\u0ccd\u0ca4\u0cbf\u0cb0": 4635,
  "\u0bb0\u0bcb": 4636,
  "\u2581\u0b95\u0bc0\u0bb4\u0bcd": 4637,
  "\u0cbf\u0c95\u0cca\u0c82\u0ca1": 4638,
  "\u2581careful": 4639,
  "\u2581Save": 4640,
  "\u2581foreign": 4641,
  "\u258116:": 4642,
  "\u2581\u0c1a\u0c47\u0c36\u0c3e\u0c21\u0c41": 4643,
  "\u2581\u0ca4\u0cb0\u0cc1\u0cb5\u0cbe\u0caf": 4644,
  "\u2581\u0cac\u0cc8\u0cac\u0cb2\u0cbf\u0ca8": 4645,
  "\u2581chose": 4646,
  "\u2581offspring": 4647,
  "\u2581walked": 4648,
  "\u0d2a\u0d3e": 4649,
  "\u2581\u0b8e\u0ba4\u0bc1": 4650,
  "\u2581cope": 4651,
  "\u2581\u0c36\u0c15\u0c4d\u0c24\u0c3f": 4652,
  "\u2581root": 4653,
  "\u2581\u0b9a\u0bc6\u0bb2\u0bcd\u0bb5": 4654,
  "\u2581provision": 4655,
  "\u0ba4\u0bc1\u0bae\u0bcd": 4656,
  "\u0d15\u0d4d\u0d15\u0d3e": 4657,
  "\u2581\u0caf\u0cc6\u0cb6\u0cbe\u0caf": 4658,
  "\u2581meal": 4659,
  "\u2581distress": 4660,
  "\u0c26\u0c40": 4661,
  "\u0cb0\u0cc7": 4662,
  "\u2581\u0c09\u0c28\u0c4d\u0c28\u0c3e\u0c30\u0c41": 4663,
  "\u2581\u0c2d\u0c42": 4664,
  "\u2581Truth": 4665,
  "\u2581\u0b85\u0bb5\u0ba9\u0bc8": 4666,
  "\u258110;": 4667,
  "\u2581border": 4668,
  "org": 4669,
  "\u0bc8\u0ba4\u0bcd": 4670,
  "\u2581buy": 4671,
  "\u2581presented": 4672,
  "\u2581\u0cac\u0cb0\u0cc6\u0ca6": 4673,
  "\u2581overseer": 4674,
  "\u2581\u0baa\u0bbf\u0ba9\u0bcd\u0baa\u0bc1": 4675,
  "\u0c15\u0c3e\u0c30": 4676,
  "\u2581spades": 4677,
  "\u0c35\u0c3e\u0c28\u0c3f": 4678,
  "\u0d3f\u0d30\u0d3f\u0d15\u0d4d\u0d15": 4679,
  "\u2581\u0cb0\u0cbe\u0c9c": 4680,
  "\u2581doctor": 4681,
  "\u2581bringing": 4682,
  "\u2581setting": 4683,
  "\u2581\u0bae\u0bb0": 4684,
  "\u0d15\u0d4d\u0d15\u0d3e\u0d28\u0d4d": 4685,
  "\u2581\u0c1c\u0c28\u0c41\u0c32\u0c41": 4686,
  "\u2581apart": 4687,
  "\u0c35\u0c30\u0c4d": 4688,
  "\u2581\u0c9c\u0ca8": 4689,
  "\u2581commandment": 4690,
  "\u2581\u0b95\u0bc6\u0b9f\u0bcd\u0b9f": 4691,
  "\u0cca\u0c82\u0ca6\u0cc1": 4692,
  "\u2581card": 4693,
  "\u2581heavy": 4694,
  "\u2581valuable": 4695,
  "\u2581Asia": 4696,
  "\u2581note": 4697,
  "\u2581running": 4698,
  "\u2581Was": 4699,
  "\u0cca\u0cb3\u0c97\u0cbf\u0c82\u0ca6": 4700,
  "\u0bbf\u0bb0\u0bc1\u0b95\u0bcd\u0b95\u0bbf\u0bb1\u0bbe\u0bb0\u0bcd\u0b95\u0bb3\u0bcd": 4701,
  "\u2581\u0d2a\u0d4d\u0d30\u0d24\u0d3f": 4702,
  "\u2581gifts": 4703,
  "\u2581missionaries": 4704,
  "\u2581\u0b85\u0bb5\u0bb0\u0bcd\u0b95\u0bb3\u0bbf\u0bb2\u0bcd": 4705,
  "\u2581\u0baa\u0bc2": 4706,
  "\u2581\u0baa\u0bc2\u0bae\u0bbf\u0baf\u0bbf\u0bb2\u0bcd": 4707,
  "\u2581\u0c2a\u0c02\u0c2a": 4708,
  "\u2581\u0ca6\u0cc7\u0cb6\u0ca6": 4709,
  "\u2581\u0d35\u0d30\u0d41\u0d24\u0d4d\u0d24": 4710,
  "\u2581relief": 4711,
  "\u2581\u0b85\u0ba4\u0bbe\u0bb5\u0ba4\u0bc1": 4712,
  "\u2581sharing": 4713,
  "\u2581\u0c09\u0c02\u0c21\u0c35\u0c1a\u0c4d\u0c1a\u0c41": 4714,
  "\u2581\u0cb8\u0cc7\u0cb0": 4715,
  "\u2581\u0d30\u0d3e": 4716,
  "\u0cc1\u0cb5\u0cb5\u0ca8\u0cc1": 4717,
  "\u2581possess": 4718,
  "\u2581\u0ba8\u0b95\u0bb0": 4719,
  "\u2581pleased": 4720,
  "\u2581pride": 4721,
  "\u2581upright": 4722,
  "\u25815;": 4723,
  "\u0d2a\u0d4d\u0d2a\u0d46\u0d1f\u0d4d\u0d1f\u0d41": 4724,
  "\u0d3f\u0d1f\u0d4d\u0d1f\u0d41": 4725,
  "\u2581low": 4726,
  "\u0d17\u0d02": 4727,
  "\u2581Once": 4728,
  "\u2581removed": 4729,
  "\u2581\u0cb0\u0c95\u0ccd\u0ca4": 4730,
  "ial": 4731,
  "\u0c1a\u0c47\u0c38\u0c3f": 4732,
  "\u2581portion": 4733,
  "\u2581\u0c2a\u0c4d\u0c30\u0c2d\u0c41\u0c35\u0c41": 4734,
  "\u2581\u0c38\u0c41\u0c35\u0c3e\u0c30\u0c4d\u0c24": 4735,
  "\u2581\u0c2f\u0c4b\u0c2c\u0c41": 4736,
  "\u2581pioneers": 4737,
  "\u0d2b": 4738,
  "\u2581association": 4739,
  "\u2581existence": 4740,
  "\u2581\u0d07\u0d24": 4741,
  "\u201d": 4742,
  "\u2581\u0c38\u0c4c\u0c32\u0c41": 4743,
  "\u0c17\u0c3e\u0c28\u0c41": 4744,
  "\u2581\u0c2a\u0c3e\u0c2a": 4745,
  "\u2581round": 4746,
  "\u2581easily": 4747,
  "\u0cc1\u0cb5\u0cc1\u0ca6\u0cb0": 4748,
  "\u2581\u0cb9\u0cc7\u0cb3\u0cc1\u0ca4\u0ccd\u0ca4\u0cbe\u0ca8\u0cc6": 4749,
  "\u0c27\u0c3f": 4750,
  "\u2581train": 4751,
  "\u258131.": 4752,
  "\u2581challenges": 4753,
  "\u2581\u0ba8\u0bc7\u0bb0\u0bae\u0bcd": 4754,
  "\u2581\u0cb8\u0cc8\u0ca4\u0cbe\u0ca8\u0ca8": 4755,
  "\u2581\u0d32\u0d3e": 4756,
  "\u2581\u0cae\u0cc1": 4757,
  "\u2581\u0d2e\u0d24": 4758,
  "\u2581\u0c28\u0c3f\u0c1c\u0c2e\u0c48\u0c28": 4759,
  "\u2581\u0caa\u0ccd\u0cb0\u0cbe\u0cb0\u0ccd\u0ca5\u0ca8\u0cc6": 4760,
  "\u2581\u0d28\u0d3f\u0d32\u0d4d": 4761,
  "\u0c02\u0c2a": 4762,
  "\u2581\u0b85\u0bb1\u0bbf\u0b95\u0bcd\u0b95\u0bc8": 4763,
  "\u2581join": 4764,
  "\u2581length": 4765,
  "\u2581\u0c15\u0c4a\u0c30\u0c15\u0c41": 4766,
  "\u2581abundance": 4767,
  "\u0b95\u0bbe\u0bb0": 4768,
  "New": 4769,
  "\u0d41\u0d28\u0d4d\u0d28\u0d24\u0d41\u0d02": 4770,
  "\u2581\u0d38\u0d02\u0d2c\u0d28\u0d4d\u0d27\u0d3f\u0d1a\u0d4d\u0d1a": 4771,
  "\u2581reject": 4772,
  "\u0bb0\u0bcd\u0b95\u0bb3\u0bcd": 4773,
  "\u2581Other": 4774,
  "\u2581goodness": 4775,
  "\u2581produced": 4776,
  "\u2581\u0c15\u0c46": 4777,
  "\u2581perform": 4778,
  "\u0cb5\u0cbf\u0ca8": 4779,
  "\u0d2a\u0d4d\u0d2a\u0d46\u0d1f\u0d41\u0d28\u0d4d\u0d28": 4780,
  "\u0c41\u0c15\u0c4a\u0c28": 4781,
  "\u2581\u0c24\u0c40\u0c30\u0c4d\u0c1a": 4782,
  "\u2581\u0cae\u0cbe\u0ca4\u0cc1": 4783,
  "\u0c82\u0c9a": 4784,
  "\u2581weak": 4785,
  "\u2581\u0cae\u0cb0": 4786,
  "\u2581\u0c15\u0c41\u0c2e\u0c3e\u0c30\u0c41\u0c21\u0c41": 4787,
  "\u0d4b\u0d1f\u0d4a\u0d2a\u0d4d\u0d2a\u0d02": 4788,
  "\u2581\u0baa\u0bca\u0bb0\u0bc1\u0bb3\u0bcd": 4789,
  "\u2581\u0c36\u0c4d\u0c30\u0c2e": 4790,
  "\u0bb1\u0bcd\u0baa": 4791,
  "ling": 4792,
  "\u2581\u0cb8\u0c82\u0cac\u0c82\u0ca7": 4793,
  "\u2581grew": 4794,
  "\u25812000": 4795,
  "\u2581non": 4796,
  "\u2581\u0c17\u0c3e": 4797,
  "ies": 4798,
  "\u2581\u0cb8\u0cae\u0cb8\u0ccd\u0ca4": 4799,
  "co": 4800,
  "\u2581understood": 4801,
  "\u2581\u0cb9\u0cc3\u0ca6\u0caf": 4802,
  "\u2581\u0d1a\u0d46": 4803,
  "\u2581\u0c1a\u0c46\u0c02\u0c26\u0c3f\u0c28": 4804,
  "\u2581\u0c38\u0c30\u0c48\u0c28": 4805,
  "\u2581\u0c8f\u0ca8\u0ca8\u0ccd\u0ca8\u0cc1": 4806,
  "ist": 4807,
  "\u0d24\u0d4d\u0d24\u0d3f\u0d2f": 4808,
  "\u2581acceptable": 4809,
  "\u2581student": 4810,
  "\u2581\u0d07\u0d28\u0d4d\u0d28\u0d4d": 4811,
  "ism": 4812,
  "\u0bb0\u0bbe\u0b95": 4813,
  "\u2581claim": 4814,
  "\u2581till": 4815,
  "\u2581Window": 4816,
  "\u2581successful": 4817,
  "\u2581\u0c05\u0c27\u0c4d\u0c2f\u0c2f\u0c28\u0c02": 4818,
  "\u2581\u0c2a\u0c48": 4819,
  "\u2581\u0cae\u0c95\u0ccd\u0c95\u0cb3\u0cbf\u0c97\u0cc6": 4820,
  "\u0bbf\u0bb0\u0bc1\u0b95\u0bcd\u0b95\u0bbf\u0bb1": 4821,
  "\u2581affected": 4822,
  "\u2581\u0c95\u0cc7\u0cb3\u0cbf": 4823,
  "\u0cc1\u0cb5\u0cb5\u0cb0": 4824,
  "\u0d1e\u0d4d\u0d1e\u0d41": 4825,
  "\u0d2e\u0d3e\u0d2f\u0d3f\u0d30\u0d41\u0d28\u0d4d\u0d28\u0d41": 4826,
  "\u2581\u0c35\u0c3f\u0c32\u0c41\u0c35": 4827,
  "\u2581\u0d38\u0d39": 4828,
  "\u0c82\u0ca4\u0cc6\u0caf\u0cc7": 4829,
  "\u2581attack": 4830,
  "\u2581\u0c2e\u0c3e\u0c30\u0c4d\u0c1a": 4831,
  "\u0d1a\u0d4d\u0d1a\u0d4d": 4832,
  "\u2581Among": 4833,
  "\u2581bound": 4834,
  "\u2581\u0b95\u0bc1\u0bb1\u0bbf\u0baa\u0bcd\u0baa\u0bbf\u0b9f\u0bcd\u0b9f": 4835,
  "+": 4836,
  "\u0b9e\u0bcd\u0b9a": 4837,
  "\u0c2f\u0c46\u0c39\u0c4b\u0c35\u0c3e": 4838,
  "\u2581limited": 4839,
  "\u2581\u0d35\u0d3f\u0d36\u0d4d\u0d35\u0d38\u0d4d": 4840,
  "\u2581Muhammad": 4841,
  "\u0ca6\u0cbf": 4842,
  "\u0cb0\u0cc0": 4843,
  "\u2581exist": 4844,
  "\u2581\u0d2a\u0d4b\u0d2f": 4845,
  "\u0c41\u0c17\u0c3e": 4846,
  "\u2581\u0b89\u0ba4\u0bb5": 4847,
  "\u2581\u0c38\u0c30\u0c4d\u0c35": 4848,
  "\u2581\u0cad\u0caf": 4849,
  "\u2581worth": 4850,
  "\u2581commit": 4851,
  "\u0c38\u0c30": 4852,
  "\u0cc6\u0ca8\u0cc1": 4853,
  "\u2581\u0c8f\u0cb3\u0cc1": 4854,
  "\u2581\u0d2a\u0d31\u0d2f\u0d41\u0d28\u0d4d\u0d28": 4855,
  "\u0c02\u0c1f\u0c47": 4856,
  "\u2581\u0d2a\u0d47\u0d30\u0d3f\u0d32\u0d4d": 4857,
  "\u0ca1\u0cc6": 4858,
  "\u0bae\u0bcd\u0baa": 4859,
  "\u2581\u0b95\u0bc7\u0b9f\u0bcd\u0b9f": 4860,
  "\u0c02\u0c17": 4861,
  "\u2581\u0b86\u0bb5\u0bbf\u0b95\u0bcd\u0b95\u0bc1\u0bb0\u0bbf\u0baf": 4862,
  "\u2581\u0c24\u0c2a\u0c4d\u0c2a": 4863,
  "\u0c24\u0c4d\u0c2f": 4864,
  "\u0c3f\u0c02\u0c1a\u0c3f\u0c28": 4865,
  "\u0d24\u0d46\u0d28\u0d4d\u0d28\u0d4d": 4866,
  "\u2581\u0b87\u0bb0\u0bc1\u0b95\u0bcd\u0b95\u0bb2\u0bbe\u0bae\u0bcd": 4867,
  "\u2581drawn": 4868,
  "\u2581\u0c35\u0c02\u0c1f\u0c3f": 4869,
  "\u2581Sea": 4870,
  "\u2581attended": 4871,
  "\u2581establish": 4872,
  "\u2581\u0c12\u0c15\u0c4d\u0c15": 4873,
  "\u0bbf\u0ba4\u0bcd\u0ba4": 4874,
  "\u2581Faith": 4875,
  "\u2581granted": 4876,
  "\u2581\u0ca6\u0cc0\u0c95\u0ccd\u0cb7\u0cbe\u0cb8\u0ccd\u0ca8\u0cbe\u0ca8": 4877,
  "\u258114;": 4878,
  "\u2581\u0c95\u0cc6\u0c9f\u0ccd\u0c9f": 4879,
  "\u0cc1\u0ca4\u0ccd\u0ca4\u0cbf\u0ca4\u0ccd\u0ca4\u0cc1": 4880,
  "\u2581Note": 4881,
  "\u2581troubled": 4882,
  "\u2581\u0c15\u0c4b\u0c30": 4883,
  "\u258119:": 4884,
  "\u2581\u0c35\u0c3e\u0c30\u0c3f\u0c32\u0c4b": 4885,
  "\u2581\u0cb9\u0ca3": 4886,
  "\u2581\u0cae\u0cc1\u0c82\u0ca6\u0cbf\u0ca8": 4887,
  "\u0d3f\u0d1a\u0d4d\u0d1a\u0d4d": 4888,
  "\u2581\u0c15\u0c4d\u0c30\u0c4a\u0c24\u0c4d\u0c24": 4889,
  "\u2581\u0d28\u0d3e\u0d25\u0d28\u0d4d": 4890,
  "\u2581connection": 4891,
  "\u2581\u0ca6\u0cbe\u0cb5\u0cc0\u0ca6\u0ca8": 4892,
  "\u2581\u0c87\u0ca6\u0cc7": 4893,
  "\u0c2e\u0c41\u0c32\u0c4b": 4894,
  "\u2581e": 4895,
  "\u2581\u0c2a\u0c3f": 4896,
  "\u0ba8\u0bc0\u0b99\u0bcd\u0b95\u0bb3\u0bcd": 4897,
  "\u2581Which": 4898,
  "\u2581heads": 4899,
  "\u2581reasonable": 4900,
  "\u2581\u0d24\u0d3f\u0d30\u0d3f\u0d1a\u0d4d\u0d1a\u0d41": 4901,
  "\u2581rivers": 4902,
  "\u2581tears": 4903,
  "\u2581\u0c24\u0c3f\u0c28": 4904,
  "\u0c37\u0c41": 4905,
  "\u0ca8\u0ccd\u0caf": 4906,
  "\u2581associated": 4907,
  "\u0d35\u0d28\u0d46": 4908,
  "\u0d3f\u0d15": 4909,
  "\u0cb9\u0cbe": 4910,
  "\u0d2f\u0d41": 4911,
  "\u2581lying": 4912,
  "\u2581black": 4913,
  "\u2581ill": 4914,
  "\u2581normal": 4915,
  "\u2581adds": 4916,
  "\u2581situations": 4917,
  "\u2581\u0bae\u0bcd": 4918,
  "\u0d36\u0d4d": 4919,
  "\u0c17\u0c3f": 4920,
  "\u2581agree": 4921,
  "\u2581\u0cb8\u0cbe\u0cb0\u0cc1\u0cb5": 4922,
  "\u0cb2\u0ccd\u0cb2\u0cc7": 4923,
  "\u2581\u0c05\u0c2a\u0c4a\u0c38\u0c4d\u0c24\u0c32\u0c41\u0c32": 4924,
  "\u0c1a\u0c41": 4925,
  "\u0d2a\u0d28": 4926,
  "\u2581\u0d07\u0d2a\u0d4d\u0d2a\u0d4b\u0d7e": 4927,
  "\u2581\u0d2a\u0d31\u0d2f\u0d41\u0d28\u0d4d\u0d28\u0d24\u0d4d": 4928,
  "\u2581welcome": 4929,
  "\u2581\u0c24\u0c32\u0c4d\u0c32\u0c3f": 4930,
  "\u2581\u0c95\u0cbf": 4931,
  "\u2581north": 4932,
  "\u0bbf\u0baa\u0bcd\u0baa": 4933,
  "\u2581Chile": 4934,
  "\u2581\u0c05\u0c2e\u0c4d\u0c2e": 4935,
  "\u2581\u0d06\u0d35\u0d36\u0d4d\u0d2f": 4936,
  "\u0bb5\u0bb0\u0bc1\u0bae\u0bcd": 4937,
  "\u2581imagine": 4938,
  "\u2581\u0b85\u0b9f\u0bbf": 4939,
  "\u2581\u0baa\u0bc7\u0ba4\u0bc1\u0bb0\u0bc1": 4940,
  "\u2581dear": 4941,
  "\u2581improve": 4942,
  "\u2581Has": 4943,
  "\u2581\u0c35\u0c3e\u0c30": 4944,
  "\u2581\u0d28\u0d40\u0d24\u0d3f": 4945,
  "There": 4946,
  "\u0cae\u0cbe\u0ca1\u0cbf": 4947,
  "\u2581moon": 4948,
  "\u258121,": 4949,
  "\u2581likewise": 4950,
  "\u2581friendship": 4951,
  "\u0baa\u0bcd\u0baa\u0bbf": 4952,
  "\u2581\u0c92\u0c82\u0ca6\u0cc7": 4953,
  "\u2581\u0d15\u0d47\u0d1f\u0d4d\u0d1f": 4954,
  "\u0c0e": 4955,
  "\u2581journey": 4956,
  "\u2581\u0cae\u0cbe": 4957,
  "\u2581\u0cb5\u0cbf\u0ca7": 4958,
  "up": 4959,
  "\u0baf\u0bc1\u0b9f\u0bc8\u0baf": 4960,
  "\u2581\u0c86\u0ca6": 4961,
  "\u2581notes": 4962,
  "\u2581relative": 4963,
  "\u2581\u0ca4\u0cbe": 4964,
  "\u2581\u0d15\u0d42\u0d1f\u0d41\u0d24\u0d32\u0d4d": 4965,
  "\u2581nearly": 4966,
  "\u2581\u0c36\u0c4d\u0c30\u0c26\u0c4d\u0c27": 4967,
  "\u0d15\u0d41\u0d15\u0d2f\u0d41\u0d02": 4968,
  "\u2581\u0c0e\u0c15\u0c4d\u0c15\u0c41\u0c35\u0c17\u0c3e": 4969,
  "\u2581\u0d05\u0d24\u0d47": 4970,
  "\u2581\u0d05\u0d35\u0d7e": 4971,
  "\u2581\u0b87\u0bb2\u0bcd\u0bb2\u0bbe\u0ba4": 4972,
  "ne": 4973,
  "\u2581France": 4974,
  "\u0bb1\u0bc8": 4975,
  "\u2581\u0d24\u0d40": 4976,
  "\u0c38\u0c4d\u0c1f\u0c4d": 4977,
  "\u2581\u0b89\u0ba9\u0bcd": 4978,
  "\u2581\u0ba4\u0bc7\u0bb0\u0bcd\u0ba8\u0bcd\u0ba4\u0bc6\u0b9f\u0bc1\u0b95\u0bcd\u0b95": 4979,
  "\u2581meat": 4980,
  "\u0d15\u0d4d\u0d15\u0d3f\u0d1f\u0d2f\u0d3f\u0d32": 4981,
  "\u0d28\u0d47\u0d39": 4982,
  "\u2581messages": 4983,
  "\u2581\u0c86\u0cb0\u0c82\u0cad\u0cbf\u0cb8": 4984,
  "\u2581\u0c28\u0c46": 4985,
  "\u2581\u0c2f\u0c46\u0c39\u0c4b\u0c35\u0c3e\u0c38\u0c3e\u0c15\u0c4d\u0c37\u0c41\u0c32": 4986,
  "\u2581images": 4987,
  "\u2581t": 4988,
  "\u2581\u0c87\u0ca8\u0ccd\u0ca8\u0cc1": 4989,
  "\u0ca4\u0ccd\u0cb5": 4990,
  "\u2581associate": 4991,
  "\u2581\u0b95\u0bc7\u0b9f\u0bcd\u0b95": 4992,
  "\u2581\u0c38\u0c4d\u0c35": 4993,
  "\u2581level": 4994,
  "\u2581\u0b85\u0bb5\u0bb0\u0bcd\u0b95\u0bb3\u0bbf\u0b9f\u0bae\u0bcd": 4995,
  "\u2581host": 4996,
  "\u2581universe": 4997,
  "\u2581\u0c38\u0c02\u0c2c\u0c02\u0c27\u0c3f\u0c02\u0c1a\u0c3f\u0c28": 4998,
  "\u2581attending": 4999,
  "\u2581hair": 5000,
  "\u2581particularly": 5001,
  "?\u201d": 5002,
  "\u0c3f\u0c38\u0c4d\u0c24\u0c42": 5003,
  "\u0d3e\u0d35": 5004,
  "\u2581\u0d31\u0d3f": 5005,
  "\u2581probably": 5006,
  "\u2581includes": 5007,
  "\u2581\u0b9a\u0bbe\u0b9f\u0bcd\u0b9a\u0bbf": 5008,
  "\u0c9f\u0cbf": 5009,
  "\u0cac\u0ccd\u0cac": 5010,
  "\u2581sees": 5011,
  "\u2581\u0cae\u0cca\u0ca6\u0cb2": 5012,
  "\u0c1f\u0c40": 5013,
  "\u2581particular": 5014,
  "\u2581\u0c24\u0c32": 5015,
  "\u2581environment": 5016,
  "\u2581wide": 5017,
  "\u2581\u0b89\u0ba3\u0bcd\u0bae\u0bc8\u0baf\u0bbe\u0ba9": 5018,
  "\u2581iniquity": 5019,
  "\u2581practices": 5020,
  "\u2581letters": 5021,
  "\u2581\u0baa\u0ba4\u0bbf\u0bb2\u0bcd": 5022,
  "\u2581\u0baa\u0bc6\u0bb0\u0bc1\u0bae\u0bcd": 5023,
  "\u2581busy": 5024,
  "\u0cb5\u0cc1\u0cb3\u0ccd\u0cb3": 5025,
  "\u2581community": 5026,
  "\u2581\u0d38\u0d39\u0d3e\u0d2f\u0d3f\u0d15\u0d4d\u0d15": 5027,
  "\u2581safe": 5028,
  "\u2581conclusion": 5029,
  "\u2581supported": 5030,
  "\u2581American": 5031,
  "\u2581occurred": 5032,
  "\u0d3f\u0d28\u0d46\u0d2f\u0d41\u0d02": 5033,
  "\u258128.": 5034,
  "\u2581warm": 5035,
  "\u2581endurance": 5036,
  "\u2581elderly": 5037,
  "\u2581hide": 5038,
  "\u2581\u0d1a\u0d4d\u0d1a\u0d41": 5039,
  "\u2581\u0d30\u0d3e\u0d1c\u0d4d\u0d2f": 5040,
  "\u0c15\u0c46": 5041,
  "\u2581\u0caa\u0cb0": 5042,
  "\u0b95\u0bcb": 5043,
  "\u2581pieces": 5044,
  "\u2581unless": 5045,
  "\u2581\u0d36\u0d15\u0d4d\u0d24\u0d3f": 5046,
  "\u2581\u0c38\u0c4d\u0c24\u0c4d\u0c30\u0c40": 5047,
  "\u0c2c\u0c3f": 5048,
  "\u2581rock": 5049,
  "\u0d35\u0d46": 5050,
  "\u2581Lot": 5051,
  "\u2581\u0caa\u0ccd\u0cb0\u0cbe\u0ca3": 5052,
  "\u2581\u0c2f\u0c46\u0c39\u0c4b\u0c35\u0c3e\u0c38\u0c3e\u0c15\u0c4d\u0c37\u0c41\u0c32\u0c41": 5053,
  "\u2581\u0b85\u0bb5\u0ba9\u0bc1\u0b95\u0bcd\u0b95\u0bc1": 5054,
  "\u2581\u0bae\u0bc7": 5055,
  "ter": 5056,
  "\u2581\u0c24\u0c3f": 5057,
  "im": 5058,
  "\u0baf\u0bbe\u0b95\u0bc1\u0bae\u0bcd": 5059,
  "\u2581\u0d05\u0d24\u0d3f\u0d28\u0d41": 5060,
  "\u258112;": 5061,
  "\u2581direct": 5062,
  "\u2581\u0b9a\u0bc6\u0baf\u0bcd\u0bb5": 5063,
  "\u2581Philippians": 5064,
  "\u258128,": 5065,
  "\u2581\u0c9c\u0ccd\u0c9e\u0cbe\u0ca8": 5066,
  "\u2581correct": 5067,
  "\u2581east": 5068,
  "\u2581\u0b9a\u0bc0": 5069,
  "\u2581\u0baa\u0bc7\u0bb0\u0bcd": 5070,
  "\u2581eternal": 5071,
  "\u2581\u0d1a\u0d46\u0d2f\u0d4d\u0d2f\u0d41\u0d28\u0d4d\u0d28\u0d24\u0d4d": 5072,
  "\u2581weight": 5073,
  "\u2581\u0c87\u0ca1": 5074,
  "\u2581\u0d05\u0d2f\u0d3e\u0d33\u0d4d": 5075,
  "\u2581St": 5076,
  "\u2581\u0c05\u0c24\u0c3f": 5077,
  "\u2581\u0c35\u0c32\u0c4d\u0c32": 5078,
  "\u2581\u0d12\u0d30\u0d3f\u0d15\u0d4d\u0d15\u0d32\u0d41\u0d02": 5079,
  "\u0c41\u0c15\u0c41\u0c28\u0c47": 5080,
  "\u2581\u0c35\u0c3f\u0c36\u0c4d\u0c35\u0c3e\u0c38\u0c02": 5081,
  "\u0d3e\u0d23\u0d41": 5082,
  "\u0cc1\u0cb3\u0ccd\u0cb3": 5083,
  "\u2581belief": 5084,
  "\u2581\u0c86\u0c97\u0cbf\u0ca6\u0cc6": 5085,
  "\u2581\u0d28\u0d2e\u0d4d\u0d2e\u0d7e": 5086,
  "\u2581task": 5087,
  "\u2581\u0b87\u0ba4\u0ba9\u0bcd": 5088,
  "\u2581\u0baa\u0b9f\u0bcd\u0b9f": 5089,
  "\u2581\u0d2a\u0d15\u0d30\u0d02": 5090,
  "\u2581\u0c2e\u0c39\u0c3e": 5091,
  "\u2581iron": 5092,
  "\u2581\u0c2c\u0c4b\u0c27": 5093,
  "\u2581dangerous": 5094,
  "\u2581publishers": 5095,
  "\u2581\u0b95\u0bbe\u0b9f\u0bcd\u0b9f\u0bc1": 5096,
  "\u2581\u0c17\u0c32": 5097,
  "\u0d39\u0d4d": 5098,
  "\u2581Hey": 5099,
  "\u2581disbelievers": 5100,
  "\u0d28\u0d4d\u0d24": 5101,
  "\u2581growth": 5102,
  "\u2581\u0d06\u0d24\u0d4d\u0d2e\u0d40\u0d2f": 5103,
  "\u0bb5\u0bb0\u0bcd\u0b95\u0bb3": 5104,
  "\u0c32\u0c47\u0c2e\u0c41": 5105,
  "\u0d24\u0d40\u0d2f": 5106,
  "\u0c97\u0ccd": 5107,
  "\u258139": 5108,
  "\u2581\u0b8e\u0ba9\u0bcd\u0bb1\u0bbe\u0bb2\u0bcd": 5109,
  "\u2581\u0ba8\u0bbf\u0bb1\u0bc8\u0bb5\u0bc7\u0bb1\u0bcd\u0bb1": 5110,
  "\u2581\u0c85\u0ca7\u0cbf\u0c95\u0cbe\u0cb0": 5111,
  "\u2581leading": 5112,
  "\u2581newspaper": 5113,
  "\u2581\u0c30\u0c46\u0c02\u0c21\u0c35": 5114,
  "\u2581\u0c32\u0c3e": 5115,
  "\u2581\u0d2f\u0d39\u0d4b": 5116,
  "000": 5117,
  "\u0bc1\u0b95\u0bbf\u0bb1\u0bbe\u0ba9\u0bcd": 5118,
  "\u0d36\u0d47\u0d37\u0d02": 5119,
  "ho": 5120,
  "\u258120:": 5121,
  "\u2581\u0d07\u0d35": 5122,
  "\u0cb7\u0ccd\u0c9f": 5123,
  "\u2581\u0c38\u0c43\u0c37\u0c4d\u0c1f\u0c3f\u0c02\u0c1a": 5124,
  "\u2581\u0c8f": 5125,
  "\u2581\u0d38\u0d24\u0d4d\u0d2f\u0d28\u0d3f\u0d37\u0d47\u0d27\u0d3f\u0d15\u0d33\u0d4d": 5126,
  "\u0cc1\u0cb5\u0cb5\u0cb0\u0cc1": 5127,
  "\u2581taste": 5128,
  "\u2581\u0ba4\u0b95\u0bb5\u0bb2\u0bcd": 5129,
  "\u0ca6\u0cb0\u0cbf\u0c82\u0ca6": 5130,
  "\u0cc1\u0cb5\u0cc1\u0ca6\u0cb0\u0cbf\u0c82\u0ca6": 5131,
  "\u2581discuss": 5132,
  "\u2581\u0d2d\u0d3e\u0d30\u0d4d\u0d2f": 5133,
  "\u2581burden": 5134,
  "\u0ca8\u0ca8\u0ccd\u0ca8": 5135,
  "\u2581\u0b89\u0bb0\u0bc8": 5136,
  "\u0d23\u0d4d\u0d1f\u0d41": 5137,
  "\u2581\u0c86\u0ca6\u0cbf\u0c95\u0cbe\u0c82\u0ca1": 5138,
  "\u0cac\u0cc7\u0ca1": 5139,
  "\u2581energy": 5140,
  "\u0bb5\u0bc7\u0ba3\u0bcd\u0b9f\u0bc1\u0bae\u0bcd": 5141,
  "\u2581companions": 5142,
  "\u2581convinced": 5143,
  "\u2581trial": 5144,
  "\u2581stars": 5145,
  "\u2581\u0d09\u0d24\u0d4d\u0d24\u0d30\u0d02": 5146,
  "\u0c2b\u0c4d": 5147,
  "\u2581color": 5148,
  "\u2581generations": 5149,
  "\u2581messengers": 5150,
  "\u2581\u0cae\u0cbe\u0ca1\u0cac\u0cc7\u0c95\u0cc1": 5151,
  "\u0c32\u0c46": 5152,
  "\u2581burned": 5153,
  "\u2581viewed": 5154,
  "\u2581younger": 5155,
  "\u0c96": 5156,
  "\u0cb2\u0ccd\u0caa\u0ca1\u0cc1\u0cb5": 5157,
  "\u2581\u0c2e\u0c28\u0c38\u0c4d\u0c38\u0c41": 5158,
  "\u2581Thank": 5159,
  "\u2581\u0b9a\u0bae\u0baf\u0ba4\u0bcd\u0ba4\u0bbf\u0bb2\u0bcd": 5160,
  "\u25813)": 5161,
  "\u2581\u0cb5\u0c9a\u0ca8": 5162,
  "\u0c15\u0c02": 5163,
  "\u2581sinned": 5164,
  "\u0bc6\u0ba9\u0bcd\u0bb1\u0bc1": 5165,
  "em": 5166,
  "\u0d35\u0d4d\u0d35": 5167,
  "\u0d3e\u0d30": 5168,
  "\u2581\u0bae\u0bb1\u0bcd\u0bb1\u0bca\u0bb0\u0bc1": 5169,
  "\u0d46\u0d28\u0d4d\u0d28": 5170,
  "\u2581\u0b8e\u0b99\u0bcd\u0b95\u0bb3\u0bc1\u0b95\u0bcd\u0b95\u0bc1": 5171,
  "\u0b95\u0bb3\u0bc1\u0b95\u0bcd\u0b95\u0bc1\u0bae\u0bcd": 5172,
  "\u2581\u0c2f\u0c46\u0c21\u0c32": 5173,
  "\u2581\u0ca8\u0c82\u0cac\u0cbf\u0c95\u0cc6\u0caf": 5174,
  "\u2581\u0b85\u0baa\u0bcd\u0baa\u0b9f\u0bbf": 5175,
  "\u0b9c": 5176,
  "\u0c32\u0c41\u0c17\u0c3e": 5177,
  "\u2581circuit": 5178,
  "\u2581\u0b85\u0bb1\u0bbf\u0ba8\u0bcd\u0ba4\u0bc1": 5179,
  "ent": 5180,
  "\u2581store": 5181,
  "\u2581\u0cb9\u0cca": 5182,
  "\u2581\u0c24\u0c4b": 5183,
  "\u2581\u0d2e\u0d30": 5184,
  "rs": 5185,
  "\u2581Being": 5186,
  "\u2581\u0baa\u0bc6\u0b9f\u0bcd\u0b9f\u0bbf": 5187,
  "\u2581\u0c2c\u0c46": 5188,
  "\u2581\u0d05\u0d24\u0d3f": 5189,
  "\u0cb2\u0ccd\u0cb2\u0cc2": 5190,
  "\u2581YOU": 5191,
  "\u2581\u0baf\u0bc6\u0b95\u0bcb\u0bb5\u0bbe\u0bb5\u0bc1\u0b95\u0bcd\u0b95\u0bc1": 5192,
  "\u2581\u0d1a": 5193,
  "by": 5194,
  "\u2581Christianity": 5195,
  "\u2581secure": 5196,
  "\u2581\u0cad\u0cc2": 5197,
  "\u2581Really": 5198,
  "\u0ca8\u0ca8\u0ccd\u0ca8\u0cc1": 5199,
  "\u0cb0\u0cbe\u0ca6": 5200,
  "\u2581island": 5201,
  "All": 5202,
  "\u0cbf\u0c95\u0cca\u0c82\u0ca1\u0cc1": 5203,
  "\u258155": 5204,
  "\u2581\u0cb8\u0cbf\u0c97": 5205,
  "\u0d15\u0d30\u0d4d": 5206,
  "\u2581\u0b89\u0ba4\u0bbe\u0bb0\u0ba3\u0bae\u0bbe\u0b95": 5207,
  "\u2581\u0c95\u0cbe\u0caf": 5208,
  "\u2581\u0cb5\u0ccd\u0caf\u0c95\u0ccd\u0ca4\u0cbf\u0caf": 5209,
  "\u2581\u0d28\u0d3f\u0d19\u0d4d\u0d19\u0d7e\u0d15\u0d4d\u0d15\u0d4d": 5210,
  "\u2581\u0bb5\u0bc8\u0ba4\u0bcd\u0ba4": 5211,
  "out": 5212,
  "\u0c06": 5213,
  "\u2581\u0b8e\u0ba3\u0bcd": 5214,
  "\u2581\u0b8f\u0ba9\u0bc6\u0ba9\u0bbf\u0bb2\u0bcd": 5215,
  "\u2581\u0bae\u0b9f\u0bcd\u0b9f\u0bc1\u0bae\u0bcd": 5216,
  "\u0c38\u0c47": 5217,
  "\u2581\u0b89\u0baf\u0bbf\u0bb0\u0bcd": 5218,
  "\u2581\u0b92\u0bb2\u0bbf": 5219,
  "\u2581\u0d15\u0d34\u0d3f\u0d2f": 5220,
  "\u0d47\u0d23\u0d4d\u0d1f\u0d24\u0d3f\u0d28\u0d4d\u0d28\u0d41": 5221,
  "\u2581growing": 5222,
  "\u2581\u0d38\u0d32\u0d4d": 5223,
  "\u0cc1\u0ca4\u0ccd\u0ca4\u0cbf\u0ca6\u0cc6": 5224,
  "\u2581territory": 5225,
  "\u0c41\u0c32\u0c28\u0c41": 5226,
  "\u0d26\u0d3e": 5227,
  "\u2581publication": 5228,
  "\u0cab\u0ccd": 5229,
  "\u2581joined": 5230,
  "\u2581\u0c2a\u0c1f\u0c4d\u0c1f": 5231,
  "\u2581\u0d24\u0d28\u0d4d\u0d28": 5232,
  "\u0b90": 5233,
  "\u0bc1\u0b95\u0bbf\u0bb1\u0bcb\u0bae\u0bcd": 5234,
  "\u2581\u0c28\u0c4d\u0c2f\u0c3e\u0c2f": 5235,
  "\u2581touch": 5236,
  "\u2581translation": 5237,
  "\u0d3f\u0d32\u0d4d\u0d32\u0d47": 5238,
  "\u2581\u0c05\u0c17\u0c4d\u0c28\u0c3f": 5239,
  "\u2581119": 5240,
  "\u0b95\u0bcd\u0b95\u0baa\u0bcd\u0baa\u0b9f\u0bcd\u0b9f": 5241,
  "\u2581Under": 5242,
  "\u2581skin": 5243,
  "\u2581\u0bae\u0ba9\u0bc8\u0bb5\u0bbf": 5244,
  "\u2581\u0d2a\u0d4a": 5245,
  "\u0d2a\u0d3f\u0d15\u0d4d\u0d15": 5246,
  "\u2581\u0c2a\u0c4d\u0c30\u0c15\u0c1f\u0c28": 5247,
  "\u0bbf\u0b9f\u0bae\u0bbf\u0bb0\u0bc1\u0ba8\u0bcd\u0ba4\u0bc1": 5248,
  "\u2581authorities": 5249,
  "\u2581\u0d35\u0d3f\u0d33\u0d3f\u0d15\u0d4d\u0d15": 5250,
  "\u2581India": 5251,
  "\u2581calling": 5252,
  "\u2581\u0cb8\u0cbe\u0cb5\u0cbf\u0cb0": 5253,
  "\u2581\u0d35\u0d3f\u0d36\u0d4d\u0d35\u0d38\u0d3f\u0d15\u0d4d\u0d15": 5254,
  "\u2581Pharisees": 5255,
  "\u2581\u0c26\u0c3f\u0c28\u0c2e\u0c41\u0c28": 5256,
  "ph": 5257,
  "\u2581remains": 5258,
  "\u2581\u0b89\u0ba3\u0bcd\u0b9f\u0bc1": 5259,
  "\u0b95\u0bcd\u0b95\u0bc2\u0b9f\u0bc1\u0bae\u0bcd": 5260,
  "\u0cbe\u0caf": 5261,
  "\u2581\u0b8a\u0bb4\u0bbf\u0baf": 5262,
  "\u2581\u0baa\u0bc6\u0bb1\u0bcd\u0bb1\u0bcb\u0bb0\u0bcd": 5263,
  "\u2581\u0b95\u0bbe\u0bb0\u0ba3\u0bae\u0bcd": 5264,
  "\u2581\u0b86\u0bb0\u0bae\u0bcd\u0baa": 5265,
  "\u2581excellent": 5266,
  "\u2581\u0c95\u0cb2\u0cbf\u0caf": 5267,
  "\u2581\u0baa\u0bc2\u0bae\u0bbf": 5268,
  "\u2581\u0baa\u0b9f\u0bc8\u0ba4\u0bcd\u0ba4": 5269,
  "\u2581\u0d28\u0d3f\u0d28\u0d15\u0d4d\u0d15": 5270,
  "\u0ca4\u0cc6\u0caf\u0ca8\u0ccd\u0ca8\u0cc1": 5271,
  "\u0ca4\u0cc1": 5272,
  "\u2581\u0baf\u0bc6\u0b95\u0bcb\u0bb5\u0bbe\u0bb5\u0bc8": 5273,
  "\u2581declare": 5274,
  "\u2581\u0d35\u0d38\u0d4d": 5275,
  "\u2581\u0bae\u0bbe\u0b9f\u0bcd\u0b9f\u0bbe\u0bb0\u0bcd\u0b95\u0bb3\u0bcd": 5276,
  "\u2581evident": 5277,
  "\u2581\u0c2e\u0c30\u0c32": 5278,
  "\u2581\u0baa\u0bcb": 5279,
  "\u2581\u0c87\u0cb2\u0ccd\u0cb2\u0cbf": 5280,
  "\u2581\u0cae\u0ca8": 5281,
  "\u0baa\u0bcd\u0baa\u0bcb": 5282,
  "\u2581military": 5283,
  "\u2581\u0c95\u0cb0\u0ccd\u0ca4\u0ca8\u0cbf\u0c97\u0cc6": 5284,
  "\u2581\u0d12\u0d30": 5285,
  "\u0c30\u0c4d\u0c24": 5286,
  "\u2581video": 5287,
  "\u2581\u0c2a\u0c42\u0c30\u0c4d\u0c24\u0c3f\u0c17\u0c3e": 5288,
  "\u2581\u0ca6\u0cbf\u0ca8\u0ca6\u0cb2\u0ccd\u0cb2\u0cbf": 5289,
  "\u0cc6\u0cb2\u0ccd\u0cb2\u0cbe": 5290,
  "\u2581\u0b8e\u0ba4\u0bc8": 5291,
  "\u2581\u0b95\u0bbf\u0bb1\u0bbf\u0bb8\u0bcd\u0ba4\u0bb5\u0bb0\u0bcd\u0b95\u0bb3\u0bcd": 5292,
  "\u0baf\u0bcb\u0b9f\u0bc1": 5293,
  "\u0c3f\u0c15\u0c3f": 5294,
  "\u2581\u0bb5\u0bbf\u0bb0\u0bc1\u0bae\u0bcd\u0baa\u0bc1\u0b95\u0bbf\u0bb1": 5295,
  "\u2581exists": 5296,
  "\u2581village": 5297,
  "\u2581\u0c09\u0c02\u0c21\u0c3e\u0c32\u0c3f": 5298,
  "\u0baf\u0bb0\u0bcd": 5299,
  "\u2581\u0ba8\u0bc0\u0ba4\u0bbf\u0bae\u0bca\u0bb4\u0bbf\u0b95\u0bb3\u0bcd": 5300,
  "\u2581\u0b9a\u0bae": 5301,
  "\u2581\u0cb5\u0cbf\u0cb0\u0cc1\u0ca6\u0ccd\u0ca7": 5302,
  "\u2581abuse": 5303,
  "\u2581listed": 5304,
  "\u2581zeal": 5305,
  "\u2581\u0b88": 5306,
  "\u0d2d\u0d02": 5307,
  "\u2581Jonathan": 5308,
  "\u2581fulfill": 5309,
  "\u2581witnesses": 5310,
  "\u2581effects": 5311,
  "\u0d26\u0d4d": 5312,
  "\u0bb5\u0bbf\u0b9f\u0bcd\u0b9f": 5313,
  "\u0cb8\u0cc6": 5314,
  "\u0c28\u0c28\u0c41": 5315,
  "\u2581\u0d39\u0d3f": 5316,
  "\u2581\u0c24\u0c4b\u0c1f\u0c3f": 5317,
  "\u2581\u0d15\u0d42\u0d1f\u0d41\u0d24\u0d7d": 5318,
  "\u0bc1\u0b95\u0bbf\u0bb1\u0bc7\u0ba9\u0bcd": 5319,
  "\u0cb5\u0cb0\u0cbf\u0c97\u0cc6": 5320,
  "\u2581uses": 5321,
  "\u2581contribute": 5322,
  "\u2581\u0cb9\u0cc7\u0cb3\u0cbf": 5323,
  "\u2581\u0c15\u0c41\u0c21\u0c3f": 5324,
  "\u2581\u0cb8\u0cbe\u0c95\u0ccd\u0cb7\u0cbf\u0c97\u0cb3\u0cc1": 5325,
  "\u0ca4\u0ccd\u0cb0": 5326,
  "\u258122:": 5327,
  "\u2581strengthened": 5328,
  "\u2581\u0d38\u0d28\u0d4d\u0d24\u0d4b\u0d37": 5329,
  "\u2581advantage": 5330,
  "\u2581\u0b9a\u0bc6\u0bb5\u0bbf": 5331,
  "\u2581\u0d2e\u0d28\u0d41\u0d37\u0d4d\u0d2f\u0d28\u0d4d": 5332,
  "\u2581statement": 5333,
  "\u2581\u0b87\u0b9f\u0bae\u0bcd": 5334,
  "\u2581\u0bb5\u0bc6": 5335,
  "\u2581\u0c32": 5336,
  "\u2581\u0ca4\u0ca8\u0ccd\u0ca8\u0ca8\u0ccd\u0ca8\u0cc1": 5337,
  "\u2581\u0cae\u0cbf": 5338,
  "\u2581song": 5339,
  "se": 5340,
  "\u2581confident": 5341,
  "\u2581tribes": 5342,
  "\u2581\u0c2a\u0c47": 5343,
  "\u2581grace": 5344,
  "\u0bc1\u0bb5\u0bbe\u0bb0\u0bcd": 5345,
  "\u2581worshippers": 5346,
  "\u2581\u0b9a\u0bc7\u0bb0\u0bcd\u0ba8\u0bcd\u0ba4\u0bc1": 5347,
  "\u2581\u0c95\u0cca\u0cb0\u0cbf\u0c82\u0ca5": 5348,
  "\u0d24\u0d4d\u0d24\u0d3f\u0d32\u0d47\u0d15\u0d4d\u0d15\u0d4d": 5349,
  "\u2581\u0d24\u0d46": 5350,
  "\u0d30\u0d4b": 5351,
  "\u2581\u0c2c\u0c3e\u0c2a\u0c4d\u0c24\u0c3f\u0c38\u0c4d\u0c2e\u0c02": 5352,
  "\u2581\u0cac\u0cb0\u0cc6\u0caf": 5353,
  "\u2581female": 5354,
  "\u2581\u0b9f\u0bbf": 5355,
  "\u2581\u0caf\u0cc1\u0ca6\u0ccd\u0ca7": 5356,
  "\u0ba4\u0bb1\u0bcd\u0b95\u0bbe\u0ba9": 5357,
  "\u2581\u0d15\u0d4d\u0d15\u0d3e\u0d7b": 5358,
  "\u2581leaving": 5359,
  "\u2581PAGE": 5360,
  "\u2581\u0d2b\u0d32": 5361,
  "\u2581pattern": 5362,
  "\u2581separate": 5363,
  "\u2581\u0d28\u0d1f\u0d15\u0d4d\u0d15": 5364,
  "\u2581\u0c24\u0c2a\u0c4d\u0c2a\u0c41": 5365,
  "\u0ca4\u0cbe": 5366,
  "\u2581Without": 5367,
  "\u2581unique": 5368,
  "\u2581\u0c05\u0c2c\u0c4d\u0c30\u0c3e\u0c39\u0c3e\u0c2e\u0c41": 5369,
  "\u2581red": 5370,
  "\u2581\u0b86\u0b9f\u0bcd\u0b9a\u0bbf": 5371,
  "\u2581issues": 5372,
  "\u2581successfully": 5373,
  "\u2581\u0c05\u0c2c\u0c26\u0c4d\u0c27": 5374,
  "\u2581\u0c95\u0cc6\u0cb2\u0cb8\u0cb5\u0ca8\u0ccd\u0ca8\u0cc1": 5375,
  "\u2581worthy": 5376,
  "\u2581\u0c38\u0c2e\u0c2f\u0c02\u0c32\u0c4b": 5377,
  "\u0d3e\u0d15\u0d1f\u0d4d\u0d1f\u0d46": 5378,
  "\u0c97\u0cca\u0cb3\u0ccd\u0cb3": 5379,
  "\u2581instruction": 5380,
  "\u2581\u0bae\u0bc1\u0b9f\u0bbf\u0baf\u0bbe\u0ba4": 5381,
  "\u2581\u0c15\u0c3e\u0c15": 5382,
  "\u2581\u0cb0\u0ccb\u0c97": 5383,
  "\u2581arose": 5384,
  "\u0c87": 5385,
  "\u2581bearing": 5386,
  "\u2581minds": 5387,
  "\u2581reality": 5388,
  "\u2581Body": 5389,
  "\u2581button": 5390,
  "\u2581race": 5391,
  "\u0cad\u0cb0\u0cbf\u0ca4": 5392,
  "\u0cbe\u0c97\u0cbf\u0ca6\u0cc6": 5393,
  "\u0d15\u0d3e": 5394,
  "\u2581Scripture": 5395,
  "\u2581\u0cae\u0cbe\u0ca1\u0cc1": 5396,
  "\u2581\u0c2a\u0c3f\u0c32\u0c4d\u0c32\u0c32": 5397,
  "\u2581\u0d24\u0d19\u0d4d\u0d19\u0d33\u0d4d": 5398,
  "\u2581ear": 5399,
  "\u0c17\u0c4b": 5400,
  "\u0bb2\u0bcb": 5401,
  "\u2581per": 5402,
  "\u2581\u0bae\u0bc1\u0ba9\u0bcd\u0baa\u0bc1": 5403,
  "\u2581Memorial": 5404,
  "\u2581\u0baa\u0bbe": 5405,
  "\u2581\u0c07\u0c36\u0c4d\u0c30\u0c3e\u0c2f\u0c47\u0c32\u0c40\u0c2f\u0c41\u0c32\u0c41": 5406,
  ")...": 5407,
  "\u2581demonstrate": 5408,
  "\u2581Next": 5409,
  "ry": 5410,
  "\u2581foundation": 5411,
  "\u2581\u0c2a\u0c4d\u0c30\u0c27\u0c3e\u0c28": 5412,
  "\u0ba4\u0bcd\u0ba4\u0bbe\u0bb2\u0bcd": 5413,
  "\u0d37\u0d4d\u0d1f": 5414,
  "\u0b99\u0bcd\u0b95\u0bb3\u0bbf\u0ba9\u0bcd": 5415,
  "\u2581\u0d0e\u0d28\u0d4d\u0d28\u0d41\u0d02": 5416,
  "\u2581moment": 5417,
  "\u2581\u0d1c\u0d40\u0d35\u0d3f\u0d24": 5418,
  "\u0d35\u0d3e\u0d26": 5419,
  "\u2581\u0b87\u0b99\u0bcd\u0b95\u0bc1": 5420,
  "\u2581\u0d07\u0d35\u0d30\u0d4d": 5421,
  "\u0cbf\u0c97\u0cb3": 5422,
  "\u2581guilty": 5423,
  "\u2581\u0c85\u0ca8\u0cc7\u0c95\u0cb0\u0cc1": 5424,
  "\u2581Brooklyn": 5425,
  "\u2581extent": 5426,
  "\u2581\u0c17\u0c26\u0c3e": 5427,
  "\u2581\u0cb9\u0cc6\u0cb8\u0cb0\u0ca8\u0ccd\u0ca8\u0cc1": 5428,
  "\u0bb5\u0bc1\u0b95\u0bcd\u0b95\u0bc1": 5429,
  "\u2581\u0c2d\u0c30\u0c4d\u0c24": 5430,
  "\u2581\u0d2a\u0d31": 5431,
  "20": 5432,
  "\u2581\u0c38\u0c41": 5433,
  "\u0cc6\u0cb5\u0cc1": 5434,
  "\u2581German": 5435,
  "\u2581waste": 5436,
  "\u2581\u0b92\u0bb3\u0bbf": 5437,
  "\u2581\u0bb5\u0bbf\u0b9a\u0bc1\u0bb5\u0bbe\u0b9a": 5438,
  "\u2581encouraging": 5439,
  "\u2581recently": 5440,
  "\u2581\u0d1f": 5441,
  "\u0bbf\u0ba9\u0bcd\u0bb1": 5442,
  "\u0cbf\u0ca6\u0cb3\u0cc1": 5443,
  "\u2581Create": 5444,
  "\u2581\u0c35\u0c40": 5445,
  "\u2581\u0c15\u0c26\u0c3e": 5446,
  "\u2581Christendom": 5447,
  "\u2581merely": 5448,
  "\u2581belong": 5449,
  "\u2581\u0c17\u0c4d\u0c30\u0c39\u0c3f\u0c02\u0c1a": 5450,
  "X": 5451,
  "\u0bb1\u0bcd\u0bb1\u0bc1": 5452,
  "\u0ca8\u0cc0\u0ca8\u0cc1": 5453,
  "\u2581\u0b8f\u0b9a\u0bbe\u0baf\u0bbe": 5454,
  "\u2581\u0c86\u0cb3": 5455,
  "\u2581\u0cb2\u0cc2\u0c95": 5456,
  "\u2581across": 5457,
  "\u2581violent": 5458,
  "\u2581\u0c92\u0ca6\u0c97\u0cbf\u0cb8": 5459,
  "\u2581\u0c95\u0cc6": 5460,
  "\u2581\u266a": 5461,
  "\u0d46\u0d32\u0d4d\u0d32\u0d3e\u0d02": 5462,
  "\u2581\u0c2a\u0c30\u0c32\u0c4b\u0c15": 5463,
  "\u2581\u0c2a\u0c4d\u0c30\u0c24\u0c40": 5464,
  "op": 5465,
  "\u2581comments": 5466,
  "\u2581drinking": 5467,
  "\u2581\u0c95\u0cca\u0c9f\u0ccd\u0c9f\u0ca8\u0cc1": 5468,
  "\u0c33\u0c4d\u0c33": 5469,
  "\u0ca6\u0cb0": 5470,
  "\u25813;": 5471,
  "\u2581higher": 5472,
  "\u2581touched": 5473,
  "\u2581\u0bae\u0bb1\u0bc1": 5474,
  "\u2581\u0c24\u0c3e": 5475,
  "\u2581\u0d24\u0d3e\u0d34\u0d4d": 5476,
  "\u258126:": 5477,
  "\u0d36\u0d3e": 5478,
  "\u0ca6\u0ccd\u0ca6\u0ca8\u0ccd\u0ca8\u0cc1": 5479,
  "\u2581\u0d32\u0d41\u0d02": 5480,
  "\u0b95\u0bb3\u0bc7": 5481,
  "\u0cbf\u0cb0\u0cac\u0cb9\u0cc1\u0ca6\u0cc1": 5482,
  "\u0cac\u0cb2\u0ccd\u0cb2\u0cc6\u0cb5\u0cc1": 5483,
  "\u0cb0\u0cc6\u0c82\u0ca6\u0cc1": 5484,
  "\u0cb3\u0cc6": 5485,
  "\u2581background": 5486,
  "\u2581Australia": 5487,
  "\u0d2f\u0d47": 5488,
  "ad": 5489,
  "\u0cac\u0cc7\u0c95\u0cbe\u0ca6": 5490,
  "\u2581fled": 5491,
  "\u0c2a\u0c30\u0c41": 5492,
  "\u2581\u0bb5\u0bc0\u0b9f\u0bc1": 5493,
  "\u2581\u0d2a\u0d4d\u0d30\u0d3e": 5494,
  "\u0c95\u0cca\u0ca1": 5495,
  "\u2581formed": 5496,
  "\u2581minutes": 5497,
  "\u2581\u0cae\u0cca": 5498,
  "\u2581\u0c15\u0c32\u0c41\u0c17": 5499,
  "\u2581\u0c2e\u0c47\u0c32\u0c41": 5500,
  "\u2581\u0d15\u0d3e\u0d30\u0d4d\u0d2f\u0d19\u0d4d\u0d19\u0d7e": 5501,
  "\u2581dream": 5502,
  "\u2581\u0c17\u0c41\u0c30\u0c4d\u0c24\u0c41": 5503,
  "\u0bbf\u0bb0\u0bc1\u0b95\u0bcd\u0b95\u0bbf\u0ba9\u0bcd\u0bb1\u0ba9": 5504,
  "\u2581aid": 5505,
  "\u2581\u0c35\u0c4d\u0c30\u0c3e\u0c2f": 5506,
  "\u2581\u0caa\u0cc2\u0cb0\u0ccd\u0cb5": 5507,
  "\u2581conversation": 5508,
  "\u2581bodies": 5509,
  "\u0d57": 5510,
  "\u2581clothes": 5511,
  "\u2581discreet": 5512,
  "\u2581speaks": 5513,
  "\u2581\u201c[": 5514,
  "\u2581\u0b87\u0ba3\u0bc8": 5515,
  "\u2581Hezekiah": 5516,
  "\u2581Resurrection": 5517,
  "\u2581\u0b85\u0ba9\u0bc8\u0ba4\u0bcd\u0ba4\u0bc1": 5518,
  "\u2581\u0d2a\u0d31\u0d1e\u0d4d\u0d1e\u0d24\u0d4d": 5519,
  "0": 5520,
  "\u2581Z": 5521,
  "\u2581\u0b89\u0bae\u0b95\u0bcd\u0b95\u0bc1": 5522,
  "\u2581\u0c2a\u0c24\u0c4d\u0c30\u0c3f\u0c15": 5523,
  "\u2581\u0d38\u0d39\u0d3e\u0d2f\u0d3f": 5524,
  "\u2581\u0b89\u0bae\u0bcd": 5525,
  "\u2581\u0ba8\u0b95\u0bb0\u0bcd\u0ba4\u0bcd\u0ba4\u0bc1": 5526,
  "\u0bae\u0bcb": 5527,
  "\u2581sinful": 5528,
  "\u0c21\u0c47": 5529,
  "\u0c95\u0cc1": 5530,
  "\u2581\u0bb5\u0bb4\u0b99\u0bcd\u0b95": 5531,
  "\u2581\u0c2a\u0c42\u0c30\u0c4d\u0c24\u0c3f": 5532,
  "\u0d3f\u0d15\u0d4d\u0d15\u0d41\u0d28\u0d4d\u0d28\u0d41": 5533,
  "\u0d3f\u0d1f\u0d4d\u0d1f": 5534,
  "\u0d46\u0d28\u0d4d\u0d28\u0d41": 5535,
  "\u2581accomplish": 5536,
  "\u2581\u0c2a\u0c4b\u0c2f\u0c3f": 5537,
  "\u2581Ruth": 5538,
  "\u2581\u0ca8\u0cc6\u0ca8\u0cb8": 5539,
  "\u2581Hereafter": 5540,
  "\u2581surface": 5541,
  "\u2581Last": 5542,
  "\u2581\u0c15\u0c4b": 5543,
  "\u0ba8\u0bbe": 5544,
  "\u0c2c\u0c21\u0c41\u0c28\u0c41": 5545,
  "\u0d4d\u0d2f\u0d42": 5546,
  "\u2581Matt": 5547,
  "\u2581praying": 5548,
  "\u0c41\u0c02\u0c26\u0c3f": 5549,
  "\u0d28\u0d3e\u0d2f\u0d3f": 5550,
  "\u2581Japan": 5551,
  "\u2581\u0b9a\u0bb0\u0bbf\u0baf\u0bbe\u0ba9": 5552,
  "\u2581\u0c2a\u0c3e": 5553,
  "\u2581\u0cac\u0cb3\u0cbf": 5554,
  "Why": 5555,
  "\u0d24\u0d41\u0d2a\u0d4b\u0d32\u0d46": 5556,
  "\u2581decide": 5557,
  "\u2581lips": 5558,
  "\u2581occur": 5559,
  "\u2581\u0ca8\u0cbf\u0cb0\u0ccd\u0ca3\u0caf": 5560,
  "\u2581\u0c85\u0ca8\u0cc1\u0cad\u0cb5": 5561,
  "\u0c2b": 5562,
  "\u0d24\u0d4d\u0d24\u0d41\u0d02": 5563,
  "\u0ba4\u0bcd\u0ba4\u0bc1\u0b9f\u0ba9\u0bcd": 5564,
  "\u2581\u0c38\u0c2e\u0c38\u0c4d\u0c24": 5565,
  "\u0bb5\u0ba8\u0bcd\u0ba4": 5566,
  "\u0c2e\u0c40\u0c30\u0c41": 5567,
  "\u2581\u0bae\u0bb0\u0ba3": 5568,
  "\u2581telling": 5569,
  "\u2581\u0c2a\u0c30\u0c3f": 5570,
  "\u2581\u0c30\u0c15\u0c4d\u0c37\u0c23": 5571,
  "\u2581\u0b8e\u0ba9\u0bcd\u0bb1\u0bbe\u0bb2\u0bc1\u0bae\u0bcd": 5572,
  "\u2581\u0d30\u0d15\u0d4d\u0d37\u0d3f\u0d24\u0d3e\u0d35\u0d4d": 5573,
  "\u0bbf\u0ba9\u0bbe\u0ba9\u0bcd": 5574,
  "\u2581\u0caa\u0ccd\u0cb0\u0cbe\u0cae\u0cc1\u0c96\u0ccd\u0caf": 5575,
  "\u2581\u0d0e\u0d1f\u0d41\u0d15\u0d4d\u0d15": 5576,
  "\u2581\u0b8e\u0bb5\u0bb0\u0bcd": 5577,
  "\u2581\u0c85\u0cb0\u0ccd\u0caa\u0cbf\u0cb8": 5578,
  "\u2581proud": 5579,
  "\u2581\u0b85\u0ba9\u0bc1\u0baa\u0bcd\u0baa": 5580,
  "\u0d3e\u0d23\u0d46\u0d28\u0d4d\u0d28\u0d4d": 5581,
  "\u2581marry": 5582,
  "\u2581writer": 5583,
  "\u2581\u0c86\u0cb6\u0cc0\u0cb0\u0ccd\u0cb5\u0cbe\u0ca6": 5584,
  "\u2581appearance": 5585,
  "\u0caa\u0cbe": 5586,
  "\u2581\u0b87\u0baa\u0bcd\u0baa\u0b9f\u0bbf\u0baa\u0bcd\u0baa\u0b9f\u0bcd\u0b9f": 5587,
  "\u0d26\u0d3f": 5588,
  "\u2581\u0c07\u0c1a\u0c4d\u0c1a\u0c3f\u0c28": 5589,
  "\u2581\u0b85\u0ba4\u0bbf\u0b95\u0bae\u0bbe\u0b95": 5590,
  "\u2581\u0c17\u0c41": 5591,
  "\u0bc1\u0bae\u0bbe": 5592,
  "\u0cbf\u0caf\u0ca8\u0ccd\u0ca8\u0cc1": 5593,
  "\u0d2a\u0d4d\u0d2a\u0d3f": 5594,
  "\u2581wood": 5595,
  "\u2581\u0c1a\u0c46\u0c2a\u0c4d\u0c2a\u0c3f": 5596,
  "\u2581\u0c35\u0c3e\u0c33\u0c4d\u0c33\u0c41": 5597,
  "\u0c48\u0c24\u0c47": 5598,
  "\u2581hundreds": 5599,
  "\u0baf\u0bbe\u0bb2\u0bcd": 5600,
  "\u0cbe\u0c97\u0cbf\u0ca6\u0ccd\u0ca6": 5601,
  "\u2581\u0b89\u0ba3\u0bb5\u0bc1": 5602,
  "\u0d15\u0d4d\u0d15\u0d3e\u0d30": 5603,
  "\u2581\u0b85\u0bb3\u0bbf\u0ba4\u0bcd\u0ba4": 5604,
  "\u2581\u0c30\u0c3e\u0c24\u0c4d\u0c30\u0c3f": 5605,
  "\u0c26\u0c3e\u0c28\u0c3f": 5606,
  "\u2581\u0d09\u0d2f\u0d3f\u0d30": 5607,
  "\u2581\u0b89\u0ba3\u0bb0": 5608,
  "\u2581\u0caa\u0ccd\u0cb0\u0caf\u0ca4\u0ccd\u0ca8": 5609,
  "\u2581\u0d06\u0d30\u0d46\u0d19\u0d4d\u0d15\u0d3f\u0d32\u0d41\u0d02": 5610,
  "\u2581\u0d07\u0d2a\u0d4d\u0d2a\u0d4b\u0d33\u0d4d": 5611,
  "They": 5612,
  "\u0b95\u0bcd\u0b95\u0bbe\u0ba9": 5613,
  "\u2581slaves": 5614,
  "\u2581\u0c07\u0c02\u0c1f\u0c3f": 5615,
  "\u0ba8\u0bbf": 5616,
  "\u0baf\u0bc1\u0b9f\u0ba9\u0bcd": 5617,
  "\u2581angry": 5618,
  "\u2581mere": 5619,
  "\u2581\u0cb9\u0cbe\u0c97\u0cbe\u0ca6\u0cb0\u0cc6": 5620,
  "ut": 5621,
  "\u2581wild": 5622,
  "\u2581\u0d2c\u0d28\u0d4d\u0d27": 5623,
  "\u2581\u0c1c\u0c40\u0c35\u0c3f\u0c24": 5624,
  "\u2581\u0c15\u0c43\u0c2a": 5625,
  "\u2581Finally": 5626,
  "\u2581\u0d1a\u0d3e": 5627,
  "\u0cb2\u0cc0": 5628,
  "\u2581\u0cb9\u0cc6\u0c9a\u0ccd\u0c9a\u0cbe\u0c97\u0cbf": 5629,
  "\u2581\u0d38\u0d2e\u0d2f": 5630,
  "\u2581caring": 5631,
  "\u2581poverty": 5632,
  "\u2581\u0bae\u0bb2\u0bc8": 5633,
  "\u2581\u0c06\u0c32\u0c4b\u0c1a\u0c28": 5634,
  "\u0cbf\u0c9f\u0ccd\u0c9f": 5635,
  "\u2581prospect": 5636,
  "\u2581feed": 5637,
  "\u2581\u0cab\u0cb2": 5638,
  "\u2581\u0d1c\u0d28\u0d24": 5639,
  "\u0caf\u0cbe\u0c97\u0cbf": 5640,
  "\u2581immorality": 5641,
  "\u2581\u0b85\u0b9a\u0bcd\u0b9a": 5642,
  "\u2581\u0c2d\u0c2f\u0c2a\u0c21": 5643,
  "\u2581\u0d15\u0d4d\u0d15\u0d3e": 5644,
  "\u0c1f\u0c3e": 5645,
  "\u2581research": 5646,
  "ING": 5647,
  "\u2581assist": 5648,
  "\u2581\u0d15\u0d23\u0d4d\u0d1f\u0d46\u0d24\u0d4d\u0d24": 5649,
  "\u0c1f\u0c4d\u0c1f": 5650,
  "\u2581\u0baa\u0ba4\u0bcd\u0ba4\u0bbf\u0bb0\u0bbf\u0b95\u0bc8": 5651,
  "\u2581\u0d2f\u0d46": 5652,
  "\u2581\u0caa\u0ccd\u0cb0\u0cc0\u0ca4\u0cbf\u0caf": 5653,
  "\u2581\u0d19\u0d4d\u0d19": 5654,
  "\u0ca6\u0ccd\u0cb0": 5655,
  "\u2581thank": 5656,
  "\u2581\u0b85\u0ba9\u0bcd\u0baa": 5657,
  "\u2581=": 5658,
  "\u2581south": 5659,
  "\u2581\u0c26\u0c3e": 5660,
  "\u2581\u0d05\u0d35\u0d33\u0d41\u0d1f\u0d46": 5661,
  "\u0d3f\u0d15\u0d4d\u0d15\u0d41\u0d15": 5662,
  "\u2581Hell": 5663,
  "\u2581\u0c28\u0c3f\u0c2e\u0c3f\u0c24\u0c4d\u0c24\u0c2e\u0c41": 5664,
  "\u2581\u0b9a\u0bc6\u0baf\u0bcd": 5665,
  "\u0b95\u0bb3\u0bbe\u0bb2\u0bcd": 5666,
  "\u2581consideration": 5667,
  "\u2581expected": 5668,
  "\u2581\u0ba8\u0bcb\u0b95\u0bcd\u0b95\u0bbf": 5669,
  "\u0d4b\u0d1f": 5670,
  "\u2581\u0ca4\u0cc6\u0c97\u0cc6\u0ca6\u0cc1\u0c95\u0cca\u0cb3\u0ccd\u0cb3": 5671,
  "\u2581\u0b9a\u0bbf\u0bb1\u0bbf\u0baf": 5672,
  "\u2581\u0c9c\u0ca8\u0cbe\u0c82\u0c97\u0c97\u0cb3": 5673,
  "\u2581\u0ca8\u0ca1\u0cc6\u0ca6": 5674,
  "vi": 5675,
  "\u0baa\u0bc7": 5676,
  "\u2581\u0b92\u0bb0\u0bc1\u0bb5\u0bc7\u0bb3\u0bc8": 5677,
  "\u2581\u0d35\u0d47": 5678,
  "\u2581\u0ba8\u0bbf\u0ba9\u0bc8\u0bb5\u0bc1": 5679,
  "\u2581\u0cb9\u0ccb\u0c97\u0cc1\u0cb5": 5680,
  "\u2581helpful": 5681,
  "\u2581\u0c05\u0c27\u0c3f\u0c15": 5682,
  "\u0b8e\u0ba9\u0bcd": 5683,
  "\u0c32\u0c48\u0c28": 5684,
  "\u2581fat": 5685,
  "\u2581\u0d26\u0d41\u0d30\u0d4d": 5686,
  "\u0d41\u0d15\u0d2f\u0d3e\u0d23\u0d4d": 5687,
  "\u2581style": 5688,
  "\u0d2f\u0d3e\u0d23\u0d4b": 5689,
  "\u2581stress": 5690,
  "\u2581theme": 5691,
  "\u2581\u0c35\u0c1a\u0c4d\u0c1a\u0c47": 5692,
  "\u2581\u0b85\u0b9f\u0bc8\u0baf\u0bbe\u0bb3": 5693,
  "\u2581\u0c87\u0ca6\u0c95\u0ccd\u0c95\u0cc6": 5694,
  "\u2581\u0d35\u0d3f\u0d1f": 5695,
  "\u0c2e\u0c4d\u0c2e\u0c41": 5696,
  "\u2581\u0d28\u0d3f\u0d19\u0d4d\u0d19\u0d33\u0d3f\u0d32\u0d4d": 5697,
  "\u2581cattle": 5698,
  "\u2581handle": 5699,
  "\u2581react": 5700,
  "\u2581\u0d2f\u0d47\u0d36\u0d41\u0d35\u0d3f\u0d28\u0d4d": 5701,
  "\u2581La": 5702,
  "\u2581Mother": 5703,
  "\u2581purposes": 5704,
  "\u0d32\u0d4b": 5705,
  "\u2581factors": 5706,
  "\u2581invitation": 5707,
  "\u2581\u0cae\u0ca8\u0cc1\u0cb7\u0ccd\u0caf\u0ca8\u0cc1": 5708,
  "\u2581\u0d35\u0d3f\u0d33\u0d3f\u0d1a\u0d4d\u0d1a\u0d41": 5709,
  "\u0ca1\u0cc1": 5710,
  "\u2581\u0d09\u0d23\u0d4d\u0d1f\u0d4d": 5711,
  "\u2581crime": 5712,
  "\u2581\u0b95\u0bbe\u0b9f\u0bcd\u0b9a\u0bbf": 5713,
  "\u0c02\u0c24\u0c4b": 5714,
  "\u0c35\u0c4d": 5715,
  "\u0c47\u0c35\u0c3e\u0c30\u0c41": 5716,
  "\u0cbf\u0cb8\u0cbf\u0c95\u0cca\u0cb3\u0ccd\u0cb3": 5717,
  "\u0c15\u0c41\u0c28\u0c4d\u0c28": 5718,
  "\u0c2a\u0c30\u0c3f": 5719,
  "\u2581valley": 5720,
  "\u2581\u0ba4\u0ba9\u0bbf": 5721,
  "\u2581\u0c2c\u0c1f\u0c4d\u0c1f\u0c3f": 5722,
  "\u0cbf\u0cb0\u0cb2\u0cbf\u0cb2\u0ccd\u0cb2": 5723,
  "\u2581\u0b85\u0baa\u0bcd\u0baa\u0bcb\u0bb8\u0bcd\u0ba4\u0bb2\u0bb0\u0bcd": 5724,
  "\u2581\u0ba4\u0bca\u0b9f\u0bb0\u0bcd\u0baa\u0bc1": 5725,
  "\u2581\u0cb5\u0cbf\u0cb5\u0cb0\u0cbf\u0cb8": 5726,
  "\u2581\u0d1a\u0d41": 5727,
  "\u2581\u0d26\u0d42\u0d24\u0d28\u0d4d": 5728,
  "\u0c28\u0c40\u0c35\u0c41": 5729,
  "\u0d2e\u0d3e\u0d15\u0d41\u0d28\u0d4d\u0d28\u0d41": 5730,
  "\u2581status": 5731,
  "\u2581\u0d35\u0d3f\u0d27\u0d3f": 5732,
  "\u2581anxiety": 5733,
  "\u2581\u0c1c\u0c28\u0c41\u0c32": 5734,
  "\u2581global": 5735,
  "\u2581possession": 5736,
  "\u2581replied": 5737,
  "\u2581cost": 5738,
  "\u2581\u0c08\u0c32\u0c3e\u0c17\u0c41": 5739,
  "\u0c30\u0c23": 5740,
  "\u0cb5\u0cb2\u0ccd\u0cb2": 5741,
  "\u2581memory": 5742,
  "\u2581overseers": 5743,
  "\u2581\u0cb8\u0cae\u0caf\u0ca6": 5744,
  "\u2581Its": 5745,
  "\u2581\u0c28\u0c3f\u0c1c\u0c3e\u0c28\u0c3f\u0c15\u0c3f": 5746,
  "\u2581forces": 5747,
  "\u2581\u0ba4\u0bb5\u0bb1": 5748,
  "\u2581idols": 5749,
  "\u0b9a\u0bcd\u0b9a\u0bc1": 5750,
  "\u2581\u0c24\u0c40\u0c30\u0c4d\u0c2a\u0c41": 5751,
  "\u2581\u0c2c\u0c3e\u0c17\u0c3e": 5752,
  "\u0d3e\u0d15\u0d4d\u0d15\u0d3f": 5753,
  "\u2581worse": 5754,
  "\u2581\u0b85\u0ba8\u0bcd\u0ba4\u0b95\u0bcd": 5755,
  "\u0d41\u0d28\u0d4d\u0d28\u0d24\u0d41": 5756,
  "\u2581\u0b95\u0bca\u0b9f\u0bc1\u0baa\u0bcd\u0baa": 5757,
  "\u2581Never": 5758,
  "\u0d35\u0d3f\u0d28\u0d4d": 5759,
  "\u2581\u0c38\u0c4a\u0c32\u0c4a\u0c2e\u0c4b\u0c28\u0c41": 5760,
  "\u0b99\u0bcd\u0b95\u0bc1": 5761,
  "\u0c95\u0cca\u0c82\u0ca1": 5762,
  "\u2581referred": 5763,
  "\u2581stayed": 5764,
  "\u2581\u0b89\u0b9f\u0bc8\u0baf": 5765,
  "\u2581\u0c9a\u0cc6\u0ca8\u0ccd\u0ca8\u0cbe\u0c97\u0cbf": 5766,
  "\u2581\u0cb9\u0cc7\u0cb3\u0cc1\u0ca4\u0ccd\u0ca4\u0ca6\u0cc6": 5767,
  "\u0ca6\u0ccd\u0caf": 5768,
  "\u0cb5\u0cb0\u0ccd": 5769,
  "\u2581twelve": 5770,
  "\u2581\u0bb5\u0bc8\u0ba4\u0bcd\u0ba4\u0bc1": 5771,
  "\u0baa\u0bcd\u0baa\u0bb1\u0bcd\u0bb1\u0bbf": 5772,
  "\u2581Ecclesiastes": 5773,
  "\u2581\u0c1a\u0c3f\u0c30\u0c41\u0c28\u0c3e\u0c2e\u0c3e": 5774,
  "\u2581\u0cb5\u0cbf\u0cb5\u0cbe\u0cb9": 5775,
  "\u2581Zion": 5776,
  "\u258135.": 5777,
  "\u2581bones": 5778,
  "\u0bbf\u0bb1\u0bbe\u0bb0\u0bcd": 5779,
  "\u2581dwelling": 5780,
  "\u2581\u0c8e\u0ca6\u0cc1\u0cb0\u0cbf\u0cb8": 5781,
  "\u2581\u0d2e\u0d41\u0d28\u0d4d": 5782,
  "\u2581performed": 5783,
  "\u2581population": 5784,
  "\u0c38\u0c4d\u0c24\u0c41": 5785,
  "\u2581version": 5786,
  "\u2581Mr": 5787,
  "\u2581\u0bb5\u0bc7\u0ba3\u0bcd\u0b9f\u0bc1\u0bae\u0bbe": 5788,
  "\u2581\u0d35\u0d30\u0d41\u0d28\u0d4d\u0d28": 5789,
  "\u0cbf\u0ca6\u0ccd\u0ca6\u0cc7\u0cb5\u0cc6": 5790,
  "\u258165": 5791,
  "\u2581\u0baa\u0ba4\u0bbf\u0bb5\u0bc1": 5792,
  "one": 5793,
  "\u0c15\u0c28\u0c4d\u0c28\u0c3e": 5794,
  "\u2581\u0cb9\u0cc6\u0c82\u0ca1\u0ca4\u0cbf\u0caf": 5795,
  "\u2581cold": 5796,
  "\u2581\u0c87\u0ca4\u0ccd\u0ca4\u0cc1": 5797,
  "\u2581\u0d21\u0d3f": 5798,
  "\u0b95\u0bcd\u0b95\u0bbf": 5799,
  "\u0b95\u0bb3\u0bbf\u0bb2\u0bc1\u0bae\u0bcd": 5800,
  "\u2581Baal": 5801,
  "\u2581\u0baa\u0bbf\u0bb3\u0bcd\u0bb3\u0bc8": 5802,
  "\u2581\u0baa\u0bcb\u0ba9": 5803,
  "\u2581divided": 5804,
  "\u0b9f\u0bbe": 5805,
  "\u2581\u0c85\u0c82\u0ca4\u0ccd\u0caf": 5806,
  "\u0d24\u0d4d\u0d24\u0d3f\u0d28\u0d4d\u0d28\u0d41": 5807,
  "\u2581\u0b95\u0bc1\u0bb4\u0ba8\u0bcd\u0ba4\u0bc8": 5808,
  "\u0ba3\u0bcd": 5809,
  "\u2581displayed": 5810,
  "\u2581\u0bb5\u0bbf\u0b9f\u0bcd\u0b9f\u0bc1\u0bae\u0bcd": 5811,
  "\u0cae\u0cbf": 5812,
  "\u0d28\u0d4d\u0d31\u0d46": 5813,
  "\u2581approval": 5814,
  "\u2581trained": 5815,
  "\u2581\u0bae\u0bc1\u0b95": 5816,
  "\u2581identify": 5817,
  "\u2581\u0c2f\u0c46\u0c26\u0c41\u0c1f": 5818,
  "\u2581\u0ba8\u0b9f\u0ba8\u0bcd\u0ba4": 5819,
  "\u2581\u0c05\u0c28\u0c4d\u0c28": 5820,
  "\u0cae\u0ccd\u0cae": 5821,
  "\u2581mode": 5822,
  "\u2581\u0d0e\u0d19\u0d4d\u0d15\u0d3f\u0d32\u0d41\u0d02": 5823,
  "\u0cc1\u0cb5\u0cc1\u0ca6\u0cc7": 5824,
  "\u2581leads": 5825,
  "\u2581\u0c0e\u0c35\u0c30\u0c41": 5826,
  "\u0cab": 5827,
  "\u2581worshipers": 5828,
  "\u2581Furthermore": 5829,
  "\u2581demons": 5830,
  "\u2581vain": 5831,
  "\u2581Almighty": 5832,
  "\u2581\u0c1a\u0c3f\u0c24\u0c4d\u0c30\u0c3e\u0c32": 5833,
  "\u2581\u0d1a\u0d4b\u0d26\u0d3f\u0d1a\u0d4d\u0d1a\u0d41": 5834,
  "\u2581\u0b85\u0bae\u0bc8\u0baa\u0bcd\u0baa\u0bc1": 5835,
  "\u258143": 5836,
  "\u2581repentance": 5837,
  "\u2581temptation": 5838,
  "\u2581\u0d2a\u0d47\u0d30": 5839,
  "ine": 5840,
  "\u2581arise": 5841,
  "\u2581husbands": 5842,
  "\u2581legal": 5843,
  "\u2581details": 5844,
  "\u2581\u0d2e\u0d39\u0d3e": 5845,
  "\u2581hatred": 5846,
  "\u2581listened": 5847,
  "\u0cac\u0cbe": 5848,
  "\u2581\u0b9a\u0ba8\u0bcd\u0ba4\u0bcb\u0bb7": 5849,
  "\u2581\u0cb9\u0cbe\u0c97\u0cbe\u0c97\u0cbf": 5850,
  "\u2581fruitage": 5851,
  "\u2581\u0bb9": 5852,
  "\u2581\u0c28\u0c3e\u0c32\u0c41\u0c17\u0c41": 5853,
  "\u2581\u0c39\u0c3e": 5854,
  "\u2581\u0b95\u0bca\u0bb3\u0bcd\u0bb3\u0bc1\u0b99\u0bcd\u0b95\u0bb3\u0bcd": 5855,
  "\u2581\u0cae\u0cbe\u0ca4\u0cc1\u0c97\u0cb3\u0ca8\u0ccd\u0ca8\u0cc1": 5856,
  "\u0d33\u0d3f": 5857,
  "\u0d24\u0d4d\u0d24\u0d46\u0d34\u0d41\u0d28\u0d4d\u0d28\u0d47\u0d32\u0d4d": 5858,
  "\u0baa\u0b9f": 5859,
  "\u2581sorry": 5860,
  "\u0d32\u0d4d\u0d32\u0d47": 5861,
  "\u2581Colossians": 5862,
  "\u2581\u0d38\u0d4d\u0d35\u0d28\u0d4d\u0d24\u0d02": 5863,
  "\u0c33\u0c4d\u0c32\u0c41": 5864,
  "\u2581\u0d2e\u0d3e\u0d24\u0d4d\u0d30\u0d2e\u0d47": 5865,
  "\u25812;": 5866,
  "\u2581\u0d38\u0d41": 5867,
  "\u0d2a\u0d4d\u0d2a\u0d41": 5868,
  "\u2581verse": 5869,
  "\u2581\u0b8f\u0bb1\u0bcd\u0baa\u0b9f\u0bcd\u0b9f": 5870,
  "\u2581\u0c2f\u0c3f": 5871,
  "\u2581believing": 5872,
  "\u2581towards": 5873,
  "\u2581\u0bb5\u0bbe\u0bb4\u0bcd\u0bb5": 5874,
  "\u2581\u0c30\u0c4b\u0c1c\u0c41": 5875,
  "\u2581\u0cb9\u0cc6\u0ca4\u0ccd\u0ca4\u0cb5\u0cb0\u0cc1": 5876,
  "\u0baa\u0b9f\u0bc1\u0ba4\u0bcd\u0ba4": 5877,
  "\u0d24\u0d4d\u0d2f": 5878,
  "\u2581\u0d2a\u0d20\u0d3f\u0d15\u0d4d\u0d15": 5879,
  "\u2581d": 5880,
  "\u2581plant": 5881,
  "\u2581\u0baa\u0b9f\u0bbf\u0b95\u0bcd\u0b95": 5882,
  "\u2581\u0d09\u0d26\u0d4d\u0d26\u0d47\u0d36\u0d3f\u0d15\u0d4d\u0d15\u0d41\u0d28\u0d4d\u0d28": 5883,
  "\u2581sinners": 5884,
  "\u2581international": 5885,
  "\u0ca8\u0cbe\u0c97\u0cbf": 5886,
  "\u2581\u0bb5\u0bc6\u0bb3\u0bbf\u0baa\u0bcd\u0baa\u0b9f\u0bc1\u0ba4\u0bcd\u0ba4": 5887,
  "\u2581\u0b87\u0baa\u0bcd\u0baa\u0bca\u0bb4\u0bc1\u0ba4\u0bc1": 5888,
  "\u2581\u0c15\u0c1f\u0c4d\u0c1f": 5889,
  "\u2581\u0d36\u0d4d\u0d30\u0d26\u0d4d\u0d27": 5890,
  "\u2581\u0bb5\u0ba3\u0b99\u0bcd\u0b95": 5891,
  "\u2581\u0d09\u0d32\u0d4d": 5892,
  "\u2581City": 5893,
  "\u2581unjust": 5894,
  "\u0bae\u0bb1\u0bcd\u0bb1": 5895,
  "\u2581\u0c09\u0c02\u0c1f\u0c3e\u0c2f\u0c3f": 5896,
  "\u2581\u0c15\u0c4a\u0c28\u0c38\u0c3e\u0c17": 5897,
  "with": 5898,
  "\u0d2f\u0d3e\u0d2f\u0d3f\u0d30\u0d41\u0d28\u0d4d\u0d28\u0d41": 5899,
  "\u2581\u0c17\u0c3e\u0c28\u0c40": 5900,
  "\u0d2f\u0d02": 5901,
  "\u2581\u0ba8\u0bcb\u0baf\u0bcd": 5902,
  "\u2581\u0d28\u0d28\u0d4d\u0d28\u0d3e\u0d2f\u0d3f": 5903,
  "\u0bbf\u0bb0": 5904,
  "\u2581\u0c15\u0c42": 5905,
  "\u2581\u0cae\u0ca8\u0cc1\u0cb7\u0ccd\u0caf\u0cb0": 5906,
  "\u2581\u0ca4\u0cc6\u0cb0\u0cc6\u0caf": 5907,
  "\u2581\u0d35\u0d7c\u0d37": 5908,
  "\u2581cloud": 5909,
  "\u2581flee": 5910,
  "\u2581ought": 5911,
  "\u2581treasure": 5912,
  "\u2581lessons": 5913,
  "\u2581release": 5914,
  "\u2581\u0ca8\u0cbe\u0ca8\u0cc7": 5915,
  "\u2581rulers": 5916,
  "\u2581pre": 5917,
  "\u2581resist": 5918,
  "\u2581\u0c2a\u0c4d\u0c30\u0c15\u0c3e\u0c30\u0c02": 5919,
  "\u2581Micah": 5920,
  "\u0c97\u0cc1": 5921,
  "\u0d1a\u0d46\u0d2f\u0d4d\u0d24\u0d3f\u0d30\u0d3f\u0d15\u0d4d\u0d15\u0d41\u0d28\u0d4d\u0d28\u0d41": 5922,
  "\u2581queen": 5923,
  "\u2581\u0d30\u0d23\u0d4d\u0d1f\u0d4d": 5924,
  "\u0d39\u0d3e": 5925,
  "\u2581\u0cae\u0cb0\u0ca3": 5926,
  "\u2581\u0c85\u0cb5": 5927,
  "\u2581Wise": 5928,
  "\u2581plan": 5929,
  "\u2581\u0caa\u0cb0\u0cbf\u0c97\u0ca3\u0cbf\u0cb8": 5930,
  "\u2581difference": 5931,
  "\u2581ship": 5932,
  "\u2581\u0b95\u0bcb": 5933,
  "\u2581\u0d2a\u0d4b\u0d32\u0d41\u0d02": 5934,
  "\u2581\u0d38\u0d4d\u0d35\u0d2f\u0d02": 5935,
  "\u0ba4\u0bcd\u0ba4\u0bbf\u0bb0": 5936,
  "\u0bb5\u0bcd": 5937,
  "\u0c35\u0c48\u0c2a\u0c41": 5938,
  "\u0d46\u0d19\u0d4d\u0d15\u0d3f\u0d7d": 5939,
  "\u0b95\u0bb3\u0bbf\u0bb2\u0bbf\u0bb0\u0bc1\u0ba8\u0bcd\u0ba4\u0bc1": 5940,
  "\u0ba9\u0bc1\u0bae\u0bcd": 5941,
  "\u0b95\u0bcd\u0b95\u0bb3\u0bcd": 5942,
  "\u0c33\u0c4d\u0c32": 5943,
  "\u2581\u0b95\u0bc1\u0bb1\u0bbf\u0baa\u0bcd\u0baa\u0bbf\u0b9f": 5944,
  "\u2581\u0b9a\u0bcb\u0ba4\u0ba9\u0bc8": 5945,
  "\u2581\u0c06\u0c30\u0c4d\u0c1f\u0c3f\u0c15\u0c32\u0c4d": 5946,
  "\u2581\u0b95\u0bca\u0bb0\u0bbf\u0ba8\u0bcd\u0ba4\u0bbf\u0baf\u0bb0\u0bcd": 5947,
  "\u2581\u0baa\u0bbf\u0bb3\u0bcd\u0bb3\u0bc8\u0b95\u0bb3\u0bcd": 5948,
  "\u2581\u0cb5\u0cbf\u0cb5\u0cc7\u0c95": 5949,
  "\u0d15\u0d30\u0d2e\u0d3e\u0d2f": 5950,
  "\u0d1c\u0d28": 5951,
  "\u2581\u0c35\u0c3e\u0c15\u0c4d\u0c15\u0c41": 5952,
  "\u0c41\u0c15\u0c41\u0c28\u0c4d\u0c28": 5953,
  "\u2581receiving": 5954,
  "\u2581\u0c30\u0c3e\u0c1c": 5955,
  "\u2581Out": 5956,
  "\u2581\u0c35\u0c46\u0c02\u0c1f\u0c28\u0c47": 5957,
  "\u2581dry": 5958,
  "\u2581\u0c35\u0c47": 5959,
  "\u0ca4\u0cbf": 5960,
  "\u2581Internet": 5961,
  "\u2581series": 5962,
  "ig": 5963,
  "\u2581Mexico": 5964,
  "\u2581Think": 5965,
  "\u0d2f\u0d4b\u0d1f\u0d46": 5966,
  "\u2581standard": 5967,
  "\u2581finished": 5968,
  "\u2581appears": 5969,
  "\u2581location": 5970,
  "\u2581\u0c05\u0c02\u0c17\u0c40\u0c15\u0c30\u0c3f\u0c02\u0c1a": 5971,
  "na": 5972,
  "\u2581\u0d23": 5973,
  "\u0ba8\u0bbf\u0bb2\u0bc8": 5974,
  "\u2581\u0c1c\u0c46": 5975,
  "\u0d24\u0d4d\u0d25": 5976,
  "\u2581Govern": 5977,
  "\u2581\u0b9a\u0b9f\u0bcd\u0b9f": 5978,
  "\u2581\u0ca4\u0cbf\u0ca8\u0ccd\u0ca8": 5979,
  "\u0d2f\u0d32\u0d4d\u0d32": 5980,
  "\u0d31\u0d3e": 5981,
  "\u2581Hav": 5982,
  "\u2581computer": 5983,
  "\u2581server": 5984,
  "\u2581\u0c2e\u0c30\u0c23": 5985,
  "\u0ca6\u0ccd\u0ca6\u0cb0\u0cbf\u0c82\u0ca6": 5986,
  "\u2581illness": 5987,
  "\u2581\u0d1c": 5988,
  "\u2581\u0d2b": 5989,
  "\u2581applied": 5990,
  "\u2581beast": 5991,
  "\u2581secular": 5992,
  "\u2581\u0c09\u0c02\u0c1f\u0c47": 5993,
  "As": 5994,
  "\u2581\u0c95\u0cc1\u0cb0\u0cbf\u0ca4\u0cbe\u0c97\u0cbf": 5995,
  "\u0c3e\u0c32\u0c15\u0c41": 5996,
  "\u0d3f\u0d32\u0d47\u0d15\u0d4d\u0d15\u0d41": 5997,
  "\u0cc6\u0c82\u0cac": 5998,
  "\u2581\u0c89\u0cb3\u0cbf\u0ca6": 5999,
  "\u0bbf\u0ba9\u0bcd\u0bb1\u0ba9": 6000,
  "\u2581flow": 6001,
  "\u2581moves": 6002,
  "\u2581\u0d28\u0d41": 6003,
  "\u2581ruin": 6004,
  "\u2581\u0c17\u0c41\u0c30\u0c4d\u0c24\u0c3f\u0c02\u0c1a": 6005,
  "\u2581\u0cb8\u0cc7\u0cb5\u0cc6\u0cae\u0cbe\u0ca1": 6006,
  "\u2581Questions": 6007,
  "\u2581popular": 6008,
  "\u2581\u0d2a\u0d4d\u0d30\u0d36\u0d4d": 6009,
  "How": 6010,
  "\u0cb2\u0cbe\u0c97\u0cc1\u0ca4\u0ccd\u0ca4\u0ca6\u0cc6": 6011,
  "\u2581immoral": 6012,
  "\u2581\u0c2e\u0c42": 6013,
  "For": 6014,
  "\u2581beauty": 6015,
  "\u0d15\u0d3e\u0d32": 6016,
  "\u2581Family": 6017,
  "\u2581discussion": 6018,
  "\u2581indicate": 6019,
  "\u2581\u0c97\u0cae\u0ca8": 6020,
  "\u2581lasting": 6021,
  "\u2581\u0c1c\u0c4d\u0c1e\u0c3e\u0c28\u0c2e\u0c41": 6022,
  "Who": 6023,
  "\u0d1f\u0d4d\u0d30": 6024,
  "\u2581\u0c15\u0c4d\u0c30\u0c3f\u0c02\u0c26": 6025,
  "\u2581\u0d05\u0d26\u0d4d\u0d26\u0d47\u0d39\u0d24\u0d4d\u0d24\u0d46": 6026,
  "\u0d15\u0d4d\u0d15\u0d41\u0d15\u0d2f\u0d41\u0d02": 6027,
  "\u2581Deuteronomy": 6028,
  "\u0bb0\u0bc1\u0bae\u0bcd": 6029,
  "\u2581\u0d28\u0d3f\u0d30": 6030,
  "\u2581\u0d38\u0d4d\u0d35": 6031,
  "\u0d30\u0d02": 6032,
  "\u2581content": 6033,
  "\u2581powers": 6034,
  "\u2581\u0bb0": 6035,
  "\u0c2c\u0c21\u0c46\u0c28\u0c41": 6036,
  "\u0c3f\u0c38\u0c4d\u0c24\u0c41\u0c02\u0c26\u0c3f": 6037,
  "\u2581Whatever": 6038,
  "\u0d28\u0d4d\u0d2e\u0d3e\u0d7c": 6039,
  "\u2581object": 6040,
  "\u2581\u0c12\u0c15\u0c1f\u0c3f": 6041,
  "\u0cbe\u0caf\u0cbf\u0ca4\u0cc1": 6042,
  "\u2581Tell": 6043,
  "\u2581charge": 6044,
  "\u2581\u0c32\u0c47\u0c1a\u0c3f": 6045,
  "\u0bc1\u0bb5\u0ba4\u0bb1\u0bcd\u0b95\u0bbe\u0b95": 6046,
  "\u2581assured": 6047,
  "\u2581\u0c2e\u0c42\u0c32": 6048,
  "\u0c35\u0c32\u0c38\u0c3f": 6049,
  "\u2581grown": 6050,
  "\u2581\u0b90\u0b95\u0bcd\u0b95\u0bbf\u0baf": 6051,
  "\u0ca0": 6052,
  "\u2581Text": 6053,
  "unit": 6054,
  "\u2581French": 6055,
  "\u2581\u0b87\u0bb0\u0bc1\u0b95\u0bcd\u0b95\u0bbf\u0bb1\u0bbe\u0bb0\u0bcd\u0b95\u0bb3\u0bcd": 6056,
  "\u2581\u0c06\u0c32\u0c4b\u0c1a\u0c3f\u0c02\u0c1a": 6057,
  "\u2581\u0b85\u0ba9\u0bc1\u0bae\u0ba4\u0bbf": 6058,
  "\u2581travel": 6059,
  "\u2581\u0c15\u0c28\u0c41\u0c17\u0c4a\u0c28": 6060,
  "\u2581\u0cad": 6061,
  "\u2581discovered": 6062,
  "\u2581\u0c1a\u0c47\u0c38\u0c4d\u0c24\u0c41\u0c28\u0c4d\u0c28": 6063,
  "\u2581satisfaction": 6064,
  "\u2581wedding": 6065,
  "\u2581contrary": 6066,
  "\u2581\u0ba8\u0bb0\u0b95": 6067,
  "\u0c32\u0c4d\u0c28\u0c3f": 6068,
  "\u258123,": 6069,
  "\u2581succeed": 6070,
  "\u2581widow": 6071,
  "\u2581\u0bb5\u0bbf\u0bb3\u0bc8\u0baf\u0bbe\u0b9f\u0bcd\u0b9f\u0bc1": 6072,
  "\u2581\u0d1c\u0d28\u0d19\u0d4d\u0d19\u0d33": 6073,
  "\u2581\u0ca4\u0cbf\u0cb0\u0cbf\u0c97\u0cbf": 6074,
  "\u2581\u0cae\u0ccc\u0cb2\u0ccd\u0caf": 6075,
  "\u0d4a\u0d15\u0d4d\u0d15\u0d46\u0d2f\u0d41\u0d02": 6076,
  "\u2581\u0d0e\u0d28\u0d4d\u0d24\u0d46\u0d19\u0d4d\u0d15\u0d3f\u0d32\u0d41\u0d02": 6077,
  "\u0d40\u0d15\u0d30\u0d3f\u0d15\u0d4d\u0d15": 6078,
  "\u2581\u0bae\u0ba3": 6079,
  "\u2581\u0d30\u0d3e\u0d24\u0d4d\u0d30\u0d3f": 6080,
  "\u2581\u0c24\u0c32\u0c4d\u0c32\u0c3f\u0c26\u0c02\u0c21\u0c4d\u0c30\u0c41\u0c32\u0c41": 6081,
  "\u2581height": 6082,
  "\u2581property": 6083,
  "\u2581\u0bb0\u0bca\u0bae\u0bcd\u0baa": 6084,
  "\u2581\u0ba4\u0bbe\u0bae\u0bcd": 6085,
  "\u2581\u0c95\u0ccb\u0caa": 6086,
  "\u2581operation": 6087,
  "\u2581\u0d2f\u0d3e\u0d24\u0d4d\u0d30": 6088,
  "\u2581plain": 6089,
  "\u2581\u0b95\u0bbe\u0bb2\u0bae\u0bcd": 6090,
  "\u0bbf\u0bb0\u0bc1\u0ba8\u0bcd\u0ba4\u0bbe\u0bb2\u0bcd": 6091,
  "\u2581\u0c38\u0c02\u0c2a\u0c3e\u0c26\u0c3f\u0c02\u0c1a": 6092,
  "\u2581firstborn": 6093,
  "\u2581\u0bae\u0bca\u0bb4\u0bbf": 6094,
  "\u2581\u0d2e\u0d31": 6095,
  "\u0c02\u0c1a\u0c3f": 6096,
  "\u2581unable": 6097,
  "\u2581curse": 6098,
  "\u2581played": 6099,
  "\u2581proof": 6100,
  "\u2581\u0b8f\u0bb1\u0bcd\u0baa\u0b9f\u0bc1\u0ba4\u0bcd\u0ba4": 6101,
  "\u2581\u0c28\u0c3f\u0c30\u0c4d": 6102,
[...]
