{
  "</s>": 0,
  "<unk>": 1,
  ".": 2,
  ",": 3,
  "\u2581the": 4,
  "\u2581of": 5,
  "\u2581to": 6,
  "\u2581and": 7,
  "\u200d": 8,
  "\u2581in": 9,
  "\u2581a": 10,
  "?": 11,
  "s": 12,
  "\u2581": 13,
  "\u2581that": 14,
  "\u2581\u201d": 15,
  "\u2581\u201c": 16,
  ":": 17,
  "\u200c": 18,
  "\u2581is": 19,
  "\u2581you": 20,
  ";": 21,
  "\u2581for": 22,
  "\u2581(": 23,
  "\u2581-": 24,
  "\u2581I": 25,
  "\u2581not": 26,
  ")": 27,
  "\u2581be": 28,
  "\u2581with": 29,
  "\u2581his": 30,
  "\u2019": 31,
  "\u2581it": 32,
  "\u2581God": 33,
  "\u2581will": 34,
  "\u2581was": 35,
  "\u2581he": 36,
  "\u2581\u2014": 37,
  "\u2581have": 38,
  "\u2581are": 39,
  "\u2581they": 40,
  "\u2581on": 41,
  "\u2581we": 42,
  "\u2581as": 43,
  "\u2581Jehovah": 44,
  "!": 45,
  "\u2581The": 46,
  "\u2581them": 47,
  "\u2581from": 48,
  "'": 49,
  "\u2581their": 50,
  "\u2581who": 51,
  "\u0d4d": 52,
  "\u2581your": 53,
  "\u2581by": 54,
  "\u0c28\u0c41": 55,
  "\u2581him": 56,
  "\u2581all": 57,
  "\u2581this": 58,
  "\u2581\u2019": 59,
  "\u2581[": 60,
  "\u2581or": 61,
  "\u0cc1": 62,
  "\u2581can": 63,
  "\u2581our": 64,
  "\u2581And": 65,
  "\u2581do": 66,
  "\u2581were": 67,
  "\u2581us": 68,
  "\u2581my": 69,
  "\u2581what": 70,
  "\u2581one": 71,
  "\u2581\u2018": 72,
  "\u0d02": 73,
  "\u2581me": 74,
  "ing": 75,
  "\u2581at": 76,
  "\u2581had": 77,
  "\u2581people": 78,
  "\u2581He": 79,
  "\u2581Jesus": 80,
  "\u2581an": 81,
  "\u2581when": 82,
  "t": 83,
  "\u2581has": 84,
  "\u2581\"": 85,
  "\u0d31\u0d46": 86,
  "\u2581but": 87,
  "\u2581shall": 88,
  "\u2581Bible": 89,
  "\u2581What": 90,
  "...": 91,
  "\u2581said": 92,
  "\u25811": 93,
  "\u2581those": 94,
  "\u2581We": 95,
  "\u2581which": 96,
  "\u0ca6": 97,
  "\u2581In": 98,
  "\u2581out": 99,
  "\u0c41": 100,
  "\u2581about": 101,
  "\u2581may": 102,
  "\u2581so": 103,
  "\u2581would": 104,
  "\u0bae\u0bcd": 105,
  "]": 106,
  "\u0ca8\u0ccd\u0ca8\u0cc1": 107,
  "\u2581up": 108,
  "\u2581time": 109,
  "\u0b95\u0bcd": 110,
  "\u2581\u0c06": 111,
  "\u2581did": 112,
  "\u2581there": 113,
  "\u2581\u0d12\u0d30\u0d41": 114,
  "-": 115,
  "\u0c32\u0c4b": 116,
  "\u0c28\u0c3f": 117,
  "\u2581no": 118,
  "\u2581her": 119,
  "\u2581if": 120,
  "\u2581life": 121,
  "\u0cbf": 122,
  "\u2581%": 123,
  "\u2581How": 124,
  "\u0c02": 125,
  "\u2581It": 126,
  "\u0baa\u0bcd": 127,
  "\u2581\u0d05\u0d35\u0d30\u0d4d": 128,
  "\u2581also": 129,
  "\u2581been": 130,
  "\u2581man": 131,
  "\u2581\u0cae\u0ca4\u0ccd\u0ca4\u0cc1": 132,
  "\u2581more": 133,
  "\u0c15\u0c41": 134,
  "\u2581\u0d28\u0d3f\u0d19\u0d4d\u0d19\u0d33\u0d4d": 135,
  "\u0bc1\u0bae\u0bcd": 136,
  "\u0cb5\u0ca8\u0ccd\u0ca8\u0cc1": 137,
  "\u2581\u2014\u2060": 138,
  "\u2581But": 139,
  "\u0d15\u0d4d\u0d15\u0d4d": 140,
  "\u0d41\u0d02": 141,
  "\u0c3f": 142,
  "\u2581good": 143,
  "\u2581some": 144,
  "\u2581into": 145,
  "\u2581You": 146,
  "\u2581A": 147,
  "\u2581\u0b92\u0bb0\u0bc1": 148,
  "\u2581day": 149,
  "\u0bc1": 150,
  "\u0d41": 151,
  "\u2581They": 152,
  "\u2581Allah": 153,
  "\u2581\u0c88": 154,
  "\u2581\u0c2f\u0c46\u0c39\u0c4b\u0c35\u0c3e": 155,
  "\u2581things": 156,
  "\u2581should": 157,
  "\u2581how": 158,
  "\u2581way": 159,
  "\u0c32\u0c41": 160,
  "\u2581such": 161,
  "\u2581make": 162,
  "\u2581even": 163,
  "\u2581many": 164,
  "\u2581For": 165,
  "\u2581\u0c06\u0c2f\u0c28": 166,
  "\u0c17\u0c3e": 167,
  "\u2581\u0c86": 168,
  "\u0cb5\u0cc1": 169,
  "\u2581than": 170,
  "\u2581earth": 171,
  "\u2581made": 172,
  "\u2581children": 173,
  "\u2581other": 174,
  "\u2581before": 175,
  "\u2581then": 176,
  "\u0d3e": 177,
  "\u2581come": 178,
  "\u2581know": 179,
  "\u2581unto": 180,
  "\u0b95\u0bb3\u0bcd": 181,
  "\u2581help": 182,
  "\u2581these": 183,
  "\u0c2e\u0c41": 184,
  "a": 185,
  "\u2581This": 186,
  "\u0ba4\u0bc1": 187,
  "\u2581like": 188,
  "\u2581\u0c28\u0c47\u0c28\u0c41": 189,
  "\u2581Lord": 190,
  "ed": 191,
  "\u0cb0": 192,
  "\u2581When": 193,
  "\u2581over": 194,
  "\u2581does": 195,
  "\u2581world": 196,
  "\u2581work": 197,
  "\u2581she": 198,
  "\u2581love": 199,
  "d": 200,
  "\u25812": 201,
  "\u2581because": 202,
  "\u2581_": 203,
  "\u2581could": 204,
  "\u2581If": 205,
  "\u2581/": 206,
  "\u0c35": 207,
  "\u0ba4\u0bcd": 208,
  "\u2581years": 209,
  "\u0c97\u0cb3\u0ca8\u0ccd\u0ca8\u0cc1": 210,
  "\u2581only": 211,
  "\u0b9a\u0bcd": 212,
  "\u2581\u0b8e\u0ba9\u0bcd\u0bb1\u0bc1": 213,
  "\u2581\u0ca8\u0cbe\u0cb5\u0cc1": 214,
  "\u2581see": 215,
  "\u2581men": 216,
  "\u2581\u0c28\u0c3e": 217,
  "\u2581say": 218,
  "\u2581Israel": 219,
  "\u2581\u0d05\u0d35\u0d28\u0d4d": 220,
  "\u0ca8": 221,
  "\u0d24": 222,
  "\u0bcd": 223,
  "\u0c32": 224,
  "\u0c28": 225,
  "\u2581\u0c08": 226,
  "\u2581\u0b85\u0bb5\u0bb0\u0bcd\u0b95\u0bb3\u0bcd": 227,
  "\u2581\u0c2e\u0c40\u0c30\u0c41": 228,
  "\u2581\u0c24\u0c28": 229,
  "\u2581Paul": 230,
  "\u2581first": 231,
  "\u2581\u0ca4\u0ca8\u0ccd\u0ca8": 232,
  "\u2581\u0d06": 233,
  "\u2581any": 234,
  "\u0c15": 235,
  "\u2581Witnesses": 236,
  "\u2581its": 237,
  "m": 238,
  "\u0c24\u0c4b": 239,
  "\u2581against": 240,
  "\u2581\u0c8e\u0c82\u0ca6\u0cc1": 241,
  "\u2581\u0c12\u0c15": 242,
  "\u2581page": 243,
  "\u2581\u0d28\u0d40": 244,
  "\u2581take": 245,
  "\u2581upon": 246,
  "\u0cbf\u0c97\u0cc6": 247,
  "\u2581after": 248,
  "\u0d2f\u0d41\u0d02": 249,
  "\u2581So": 250,
  "\u0c97\u0cb3\u0cc1": 251,
  "\u2581Why": 252,
  "\u0cb2\u0cc1": 253,
  ".\"": 254,
  "\u2581\u0c92\u0c82\u0ca6\u0cc1": 255,
  "\u2581says": 256,
  "\u2581came": 257,
  "\u2581Christ": 258,
  "\u0cc1\u0cb5": 259,
  "\u2581go": 260,
  "\u0d24\u0d4d": 261,
  "\u2581two": 262,
  "\u2581down": 263,
  "\u0d3f": 264,
  "\u2581\u0ba8\u0bc0\u0b99\u0bcd\u0b95\u0bb3\u0bcd": 265,
  "\"": 266,
  "\u2581name": 267,
  "\u2581Christian": 268,
  "\u0bc8": 269,
  "\u2581As": 270,
  "\u2581others": 271,
  "ly": 272,
  "\u2581give": 273,
  "\u0c47": 274,
  "\u2581\u0ca8\u0ca8\u0ccd\u0ca8": 275,
  "\u2581now": 276,
  "\u0bbf\u0ba9\u0bcd": 277,
  "\u2581being": 278,
  "\u0d15\u0d4d\u0d15": 279,
  "\u0ca8\u0cc1": 280,
  "\u0c95\u0ccd\u0c95\u0cc6": 281,
  "\u2581\u0ba8\u0bbe\u0bae\u0bcd": 282,
  "\u2581need": 283,
  "the": 284,
  "\u0d2f": 285,
  "\u2581\u0ca8\u0cbe\u0ca8\u0cc1": 286,
  "\u0caf": 287,
  "\u2581heart": 288,
  "\u0d46": 289,
  "\u2581\u0c86\u0ca6\u0cb0\u0cc6": 290,
  "\u0cb0\u0cc1": 291,
  "\u2581faith": 292,
  "\u2581son": 293,
  "\u2581\u0ca8\u0cae\u0ccd\u0cae": 294,
  "\u2581\u0d28\u0d3e\u0d02": 295,
  "\u2581\u0c85\u0cb5\u0cb0\u0cc1": 296,
  "\u2581own": 297,
  "\u2581Christians": 298,
  "\u0d35\u0d41\u0d02": 299,
  "\u2581\u0c28\u0c40": 300,
  "\u2581just": 301,
  "\u2581must": 302,
  "\u0cc2": 303,
  "\u2581king": 304,
  "\u2581spirit": 305,
  "\u2581Then": 306,
  "\u0c3e": 307,
  "\u2581Yahweh": 308,
  "\u2581house": 309,
  "\u2581That": 310,
  "\u0cb2\u0ccd\u0cb2\u0cbf": 311,
  "\u0d2e": 312,
  "\u2581among": 313,
  "\u2581Kingdom": 314,
  "\u2581well": 315,
  "\u2581family": 316,
  "\u2581LORD": 317,
  "\u2581folder": 318,
  "\u2581\u0c85\u0cb5\u0ca8\u0cc1": 319,
  "\u2581away": 320,
  "\u0baf": 321,
  "\u2581\u0d08": 322,
  "\u2581\u0b87\u0ba8\u0bcd\u0ba4": 323,
  "Name": 324,
  "\u2581great": 325,
  "\u0bbf\u0bb2\u0bcd": 326,
  "\u2581\u0c35\u0c3e\u0c30\u0c41": 327,
  "\u2581\u0cae\u0cc7\u0cb2\u0cc6": 328,
  "\u2581\u0ca6\u0cc7\u0cb5\u0cb0": 329,
  "\u2581right": 330,
  "\u2581Can": 331,
  "\u201c": 332,
  "\u2581thou": 333,
  "\u2581\u0d05\u0d32\u0d4d\u0d32\u0d3e\u0d39\u0d41": 334,
  "\u2581another": 335,
  "\u2581\u0d1e\u0d3e\u0d28\u0d4d": 336,
  "\u2581words": 337,
  "\u2581David": 338,
  "\u2581let": 339,
  "\u2581get": 340,
  "\u2581example": 341,
  "\u2581every": 342,
  "\u2581ye": 343,
  "\u2581new": 344,
  "I": 345,
  "\u2581through": 346,
  "\u2581\u0c2e\u0c28\u0c02": 347,
  "\u0d30\u0d4d": 348,
  "e": 349,
  "\u0cc7": 350,
  "\u0baf\u0bc1\u0bae\u0bcd": 351,
  "\u2581death": 352,
  "\u2581\u0c2e\u0c40": 353,
  "\u2581congregation": 354,
  "\u2581His": 355,
  "\u2581'": 356,
  "\u2581land": 357,
  "\u2581\u0c05\u0c28\u0c3f": 358,
  "\u2581become": 359,
  "\u2581might": 360,
  "\u2581am": 361,
  "\u2581true": 362,
  "\u2581\u0c26\u0c47\u0c35\u0c41\u0c28\u0c3f": 363,
  "\u258115": 364,
  "\u2581\u0b85\u0bb5\u0bb0\u0bcd": 365,
  "\u2581truth": 366,
  "\u2581hand": 367,
  "\u0b95\u0bb3\u0bc8": 368,
  "\u2581put": 369,
  "\u2581Do": 370,
  "\u2581&": 371,
  "\u0bbf": 372,
  "\u2581spiritual": 373,
  "--": 374,
  "\u2581\u0ca8\u0cc0\u0cb5\u0cc1": 375,
  "\u2581\u0c86\u0c97": 376,
  "\u2581very": 377,
  "\u2581whom": 378,
  "\u0c3f\u0c28": 379,
  "\u0c38\u0c4d": 380,
  "\u0d41\u0d15": 381,
  "\u2581place": 382,
  "\u0c97\u0cb3": 383,
  "\u2581much": 384,
  "\u2581where": 385,
  "\u0c95": 386,
  "\u2581\u0d05\u0d24\u0d4d": 387,
  "\u2581ones": 388,
  "re": 389,
  "\u2022": 390,
  "\u2581found": 391,
  "\u2581most": 392,
  "\u0d41\u0d28\u0d4d\u0d28\u0d41": 393,
  "/": 394,
  "S": 395,
  "\u0c3e\u0c28\u0c4d\u0c28\u0c3f": 396,
  "\u0d47": 397,
  "\u0d15": 398,
  "\u0cb5\u0cbe\u0c97\u0cbf": 399,
  "\u2581\u0ca8\u0cbf\u0cae\u0ccd\u0cae": 400,
  "\u0d4b": 401,
  "\u25813:": 402,
  "\u0c15\u0c4d": 403,
  "\u2581\u0c2e\u0c28": 404,
  "\u2581\u0c05": 405,
  "\u2581want": 406,
  "\u0d35": 407,
  "\u2581\u0ca8\u0cbf\u0ca8\u0ccd\u0ca8": 408,
  "\u0d38\u0d4d": 409,
  "\u2581find": 410,
  "\u0ca6\u0cb2\u0ccd\u0cb2\u0cbf": 411,
  "\u0d28": 412,
  "\u0d15\u0d4d\u0d15\u0d41": 413,
  "\u2581To": 414,
  "\u0d3e\u0d7b": 415,
  "\u2581thy": 416,
  "\u0c30\u0c4d": 417,
  "\u2581\u0ba8\u0bbe\u0ba9\u0bcd": 418,
  "\u2581back": 419,
  "\u2581\u0c85\u0cb5\u0ca8": 420,
  "\u2581No": 421,
  "\u2581days": 422,
  "\u2581\u0c15\u0c42\u0c21\u0c3e": 423,
  "er": 424,
  "\u2581times": 425,
  "\u0cb5\u0cbe\u0ca6": 426,
  "\u2581message": 427,
  "\u0ba4\u0bcd\u0ba4": 428,
  "\u2581set": 429,
  "\u0c32\u0c28\u0c41": 430,
  "\u2581\u0c85\u0cb5\u0cb0": 431,
  "\u0cbe": 432,
  "\u2581\u0b86\u0ba9\u0bbe\u0bb2\u0bcd": 433,
  "\u25812:": 434,
  "\u2581\u0c85": 435,
  "\u2581given": 436,
  "\u0c3e\u0c21\u0c41": 437,
  "\u2581himself": 438,
  "\u2581word": 439,
  "\u2581went": 440,
  "\u2581\u0caf\u0cc6\u0cb9\u0ccb\u0cb5\u0ca8": 441,
  "\u2581use": 442,
  "\u25813": 443,
  "\u0bbe\u0bb0\u0bcd": 444,
  "\u0c97\u0cc6": 445,
  "\u2581keep": 446,
  "\u0bb5\u0bc1\u0bae\u0bcd": 447,
  "\u2581used": 448,
  "\u2581thee": 449,
  "\u0d41\u0d28\u0d4d\u0d28": 450,
  "\u0baf\u0bc8": 451,
  "\u0c2e\u0c48\u0c28": 452,
  "\u2581\u0c05\u0c26\u0c3f": 453,
  "\u2581father": 454,
  "\u0b95\u0bcd\u0b95\u0bc1": 455,
  "\u2581saying": 456,
  "\u0b95\u0bcd\u0b95": 457,
  "\u2581parents": 458,
  "\u0ba4\u0bcd\u0ba4\u0bc8": 459,
  "\u2581All": 460,
  "\u2581nor": 461,
  "\u0d41\u0d15\u0d2f\u0d41\u0d02": 462,
  "\u0d28\u0d4d": 463,
  "\u2581each": 464,
  "\u0cbf\u0c82\u0ca6": 465,
  "\u0c30\u0c41": 466,
  "\u0c3e\u0c30\u0c41": 467,
  "\u0c26\u0c3f": 468,
  "\u2581year": 469,
  "\u0bbf\u0baf": 470,
  "\u0c30": 471,
  "\u2581Picture": 472,
  "\u2581sent": 473,
  "\u2581\u0d2a\u0d31\u0d1e\u0d4d\u0d1e\u0d41": 474,
  "\u2581There": 475,
  "\u2581One": 476,
  "\u2581:\u2060": 477,
  "\u2581\u0d05\u0d35\u0d30\u0d41\u0d1f\u0d46": 478,
  "\u2581person": 479,
  "\u2581young": 480,
  "\u2581never": 481,
  "\u2581called": 482,
  "\u0bae": 483,
  "\u2581same": 484,
  "\u0d24\u0d4d\u0d24": 485,
  "\u0c15\u0c3f": 486,
  "\u2581part": 487,
  "E": 488,
  "\u2581\u0d28\u0d3f\u0d19\u0d4d\u0d19\u0d33\u0d41\u0d1f\u0d46": 489,
  "\u0d3e\u0d23\u0d4d": 490,
  "\u0cc6": 491,
  "\u0bb5": 492,
  "\u2581close": 493,
  "\u2581\u0d24\u0d40\u0d30\u0d4d": 494,
  "\u25811:": 495,
  "\u0c28\u0c47": 496,
  "in": 497,
  "\u2581\u0d15": 498,
  "\u25814:": 499,
  "\u2581themselves": 500,
  "y": 501,
  "\u0ba4\u0bcd\u0ba4\u0bbf\u0bb2\u0bcd": 502,
  "\u2581brothers": 503,
  "\u2581believe": 504,
  "\u2581end": 505,
  "\u0b95": 506,
  "\u0cb5": 507,
  "\u2581\u0c35\u0c3e\u0c30\u0c3f": 508,
  "\u2581long": 509,
  "\u2581under": 510,
  "\u2581Moses": 511,
  "\u0ca6\u0cbf\u0c82\u0ca6": 512,
  "\u2581today": 513,
  "\u2581home": 514,
  "\u0d2e\u0d3e\u0d2f": 515,
  "\u2581bring": 516,
  "\u2581three": 517,
  "\u2581\u0ba8\u0bbf\u0b9a\u0bcd\u0b9a\u0baf\u0bae\u0bbe\u0b95": 518,
  "\u2581\u0caf\u0cc7\u0cb8\u0cc1": 519,
  "\u0c24": 520,
  "\u0d24\u0d41": 521,
  "\u2581show": 522,
  "\u0c30\u0c3f": 523,
  "\u2581Our": 524,
  "\u2581gave": 525,
  "\u2581\u0cb9\u0cc7\u0c97\u0cc6": 526,
  "\u0cc1\u0cb5\u0cc1\u0ca6\u0cc1": 527,
  "\u0bbe\u0b95": 528,
  "\u2581(_": 529,
  "\u0cbf\u0cb0\u0cbf": 530,
  "\u2581\u0b8e\u0ba9\u0bcd\u0ba9": 531,
  "\u2581took": 532,
  "\u0c02\u0c17\u0c3e": 533,
  "\u2581O": 534,
  "(": 535,
  "\u0d3f\u0d32\u0d4d\u0d32": 536,
  "\u258110": 537,
  "\u2581\u0d28\u0d32\u0d4d": 538,
  "\u2581study": 539,
  "\u2581John": 540,
  "\u2581\u0b85\u0ba4\u0bc1": 541,
  "\u2581too": 542,
  "\u0cb8": 543,
  "\u2581\u0d38\u0d4d": 544,
  "\u2581\u0c24\u0c2e": 545,
  "\u2581old": 546,
  "\u2581wife": 547,
  "\u0d30": 548,
  "\u2581\u0c26\u0c3e\u0c28\u0c3f": 549,
  "\u2581Word": 550,
  "\u0d3f\u0d32\u0d4d": 551,
  "\u0c2f": 552,
  "\u0baa": 553,
  "\u0bc7": 554,
  "\u25815:": 555,
  "\u2581why": 556,
  "\u2581\u0c2f\u0c47\u0c38\u0c41": 557,
  "\u2581while": 558,
  "\u2581without": 559,
  "\u0cb8\u0ccd": 560,
  "\u2581feel": 561,
  "C": 562,
  "\u2581though": 563,
  "\u2581My": 564,
  "\u2581knowledge": 565,
  "\u2581\u0d05": 566,
  "\u2581Satan": 567,
  "\u0bae\u0bbe\u0b95": 568,
  "\u0cbe\u0c97": 569,
  "\u2581brought": 570,
  "\u2581city": 571,
  "\u2581worship": 572,
  "\u2581C": 573,
  "\u25816:": 574,
  "\u2581between": 575,
  "\u0c21\u0c02": 576,
  "\u0baf\u0bbf\u0bb2\u0bcd": 577,
  "\u2581means": 578,
  "\u2581here": 579,
  "\u2581human": 580,
  "\u2581fear": 581,
  "\u2581\u0cae\u0cbe\u0ca1": 582,
  "\u0d3e\u0d28\u0d4d": 583,
  "\u2581book": 584,
  "\u25818": 585,
  "\u25814": 586,
  "\u0c2a\u0c41": 587,
  "\u0c32\u0c4d": 588,
  "\u258112": 589,
  "\u2581\u0c0f": 590,
  "\u2581Is": 591,
  "\u0bb0\u0bcd": 592,
  "\u25815": 593,
  "\u2581told": 594,
  "\u0d15\u0d4d\u0d15\u0d41\u0d02": 595,
  "\u2581b": 596,
  "\u25817": 597,
  "\u25811,": 598,
  "\u2581\u0b85": 599,
  "\u0ca6\u0cc6": 600,
  "\u0bae\u0bbe\u0ba9": 601,
  "\u2581\u0bb5\u0bc7\u0ba3\u0bcd\u0b9f\u0bc1\u0bae\u0bcd": 602,
  "\u2581power": 603,
  "\u2581apostle": 604,
  "\u2581However": 605,
  "\u2581open": 606,
  "\u0baa\u0bcd\u0baa\u0b9f\u0bcd\u0b9f": 607,
  "\u2581\u0b85\u0bb2\u0bcd\u0bb2\u0ba4\u0bc1": 608,
  "\u0c21\u0c3e\u0c28\u0c3f\u0c15\u0c3f": 609,
  "\u2581sons": 610,
  "\u2581\u0ca4\u0cae\u0ccd\u0cae": 611,
  "\u2581servants": 612,
  "\u2581off": 613,
  "\u2581\u0c2e\u0c3e": 614,
  "\u2581\u0d24\u0d28\u0d4d\u0d28\u0d46": 615,
  "\u2581became": 616,
  "\u0cc1\u0ca4\u0ccd\u0ca4\u0ca6\u0cc6": 617,
  "\u2581peace": 618,
  "\u2581\u0b87\u0ba4\u0bc1": 619,
  "\u0d19\u0d4d\u0d19\u0d7e": 620,
  "\u2581live": 621,
  "\u2581again": 622,
  "\u2581holy": 623,
  "\u0d24\u0d4d\u0d24\u0d46": 624,
  "\u0d1a\u0d4d\u0d1a\u0d2f\u0d3e\u0d2f\u0d41\u0d02": 625,
  "\u2581\u0c28\u0c41\u0c02\u0c21\u0c3f": 626,
  "\u258116": 627,
  "\u2581Some": 628,
  "\u2581think": 629,
  "\u2581done": 630,
  "\u2581*": 631,
  "\u2581She": 632,
  "\u0bb2\u0bcd": 633,
  "\u0c2a": 634,
  "\u2581Yes": 635,
  "\u2581\u0b85\u0ba8\u0bcd\u0ba4": 636,
  "\u0d2e\u0d3e\u0d2f\u0d3f": 637,
  "al": 638,
  "\u258113": 639,
  "\u0d24\u0d4d\u0d24\u0d3f\u0d28\u0d4d": 640,
  "\u2581both": 641,
  "\u2581still": 642,
  "\u0bb8\u0bcd": 643,
  "\u2581left": 644,
  "\u2581water": 645,
  "\u2581\u0c17\u0c41\u0c30\u0c3f\u0c02\u0c1a\u0c3f": 646,
  "\u2581Father": 647,
  "th": 648,
  "\u2581together": 649,
  "\u2581\u0d0e\u0d28\u0d4d\u0d28": 650,
  "\u0c2e": 651,
  "\u2581course": 652,
  "\u0ca8\u0ccd\u0ca8\u0cc2": 653,
  "\u0cb2": 654,
  "\u2581Jerusalem": 655,
  "\u2581read": 656,
  "\u25816": 657,
  "\u0cbf\u0ca6\u0ca8\u0cc1": 658,
  "\u258111": 659,
  "\u2581wrote": 660,
  "\u0baf\u0bbf\u0ba9\u0bcd": 661,
  "\u2581\u0c28\u0c40\u0c35\u0c41": 662,
  "i": 663,
  "\u2581don": 664,
  "\u2581\u0c8e\u0c82\u0cac": 665,
  "\u2581Let": 666,
  "\u2581\u0b87\u0ba9\u0bcd\u0ba9\u0bc1\u0bae\u0bcd": 667,
  "\u2581\u0caf\u0cc6\u0cb9\u0ccb\u0cb5\u0ca8\u0cc1": 668,
  "\u2581\u0c05\u0c2f\u0c3f\u0c24\u0c47": 669,
  "\u2581At": 670,
  "\u2581learn": 671,
  "\u2581After": 672,
  "\u2581\u0c2c\u0c48\u0c2c\u0c3f\u0c32\u0c41": 673,
  "\u2581Could": 674,
  "\u0c2f\u0c41": 675,
  "c": 676,
  "\u2581eyes": 677,
  "\u0cac\u0cc7\u0c95\u0cc1": 678,
  "\u2581Peter": 679,
  "\u0ccd": 680,
  "\u2581By": 681,
  "\u2581\u0d1e\u0d3e\u0d7b": 682,
  "\u2581hope": 683,
  "\u2581\u0caf\u0cbe\u0cb5": 684,
  "\u2581full": 685,
  "\u2581\u0c85\u0ca6\u0cc1": 686,
  "\u2581\u0d0e\u0d28\u0d4d\u0d28\u0d41": 687,
  "\u2581able": 688,
  "\u2581faithful": 689,
  "\u258120": 690,
  "r": 691,
  "\u0cbe\u0ca6": 692,
  "\u2581mind": 693,
  "\u2581\u0d05\u0d19\u0d4d\u0d19\u0d28\u0d46": 694,
  "\u2581\u0c28\u0c3e\u0c15\u0c41": 695,
  "\u0d24\u0d4d\u0d24\u0d3f\u0d32\u0d4d": 696,
  "\u0c28\u0c3e": 697,
  "\u2581On": 698,
  "O": 699,
  "\u2581evil": 700,
  "\u0d2f\u0d41\u0d1f\u0d46": 701,
  "\u0cc1\u0cb5\u0c82\u0ca4\u0cc6": 702,
  "\u0cc1\u0ca4\u0ccd\u0ca4\u0cbe\u0cb0\u0cc6": 703,
  "\u2581until": 704,
  "\u2581\u0d0e\u0d28\u0d4d": 705,
  "\u0c38": 706,
  "\u2581often": 707,
  "\u2581number": 708,
  "\u0ca8\u0ccd": 709,
  "\u2581doing": 710,
  "\u2581Now": 711,
  "\u2581serve": 712,
  "\u0bbe\u0ba9": 713,
  "\u0d7c": 714,
  "\u0c35\u0c3f": 715,
  "\u2581news": 716,
  "\u2581\u0cac\u0cc8\u0cac\u0cb2\u0ccd": 717,
  "\u0ba9": 718,
  "\u2581service": 719,
  "\u2581brother": 720,
  "\u0ba8\u0bcd\u0ba4": 721,
  "\u2581\u0b85\u0bb2\u0bcd\u0bb2\u0bbe\u0bb9\u0bcd": 722,
  "\u25819": 723,
  "\u0b99\u0bcd\u0b95\u0bb3\u0bcd": 724,
  "\u2581\u0c09\u0c28\u0c4d\u0c28": 725,
  "\u2581Who": 726,
  "\u2581important": 727,
  "\u0bb5\u0bc8": 728,
  "\u2581little": 729,
  "\u2581mother": 730,
  "\u0c3e\u0c28\u0c3f\u0c15\u0c3f": 731,
  "\u2581sin": 732,
  "\u0bbe\u0bb2\u0bcd": 733,
  "\u0c21\u0c41": 734,
  "\u0ba9\u0bcd": 735,
  "\u0c17": 736,
  "\u2581face": 737,
  "\u0bc1\u0b95\u0bcd\u0b95\u0bc1": 738,
  "),": 739,
  "\u0d1a\u0d4d\u0d1a": 740,
  "\u0c17\u0c32": 741,
  "\u258119": 742,
  "\u0d32": 743,
  "\u2581\u0cb8\u0cb9": 744,
  "\u2581\u0c05\u0c24\u0c28\u0c3f": 745,
  "\u2581\u0d05\u0d35\u0d30\u0d46": 746,
  "\u2581blood": 747,
  "A": 748,
  "\u2581forth": 749,
  "The": 750,
  "\u0c41\u0c28\u0c41": 751,
  "\u2581B": 752,
  "\u2581ways": 753,
  "\u2581ever": 754,
  "\u2581child": 755,
  "\u0d3f\u0d30\u0d3f\u0d15\u0d4d\u0d15\u0d41\u0d28\u0d4d\u0d28\u0d41": 756,
  "\u2581\u0c92\u0cac\u0ccd\u0cac": 757,
  "\u2581\u0b89\u0b99\u0bcd\u0b95\u0bb3\u0bcd": 758,
  "\u2581yet": 759,
  "\u0ba4": 760,
  "\u2581turn": 761,
  "\u0bcb\u0bae\u0bcd": 762,
  "\u0ba4\u0bcd\u0ba4\u0bbf\u0ba9\u0bcd": 763,
  "\u0d2f\u0d4b": 764,
  "\u0bc7\u0ba9\u0bcd": 765,
  "\u2581saw": 766,
  "\u2581\u0b8e\u0ba9\u0bcd\u0bb1": 767,
  "\u2581woman": 768,
  "\u2581during": 769,
  "\u0c97\u0cb3\u0cb2\u0ccd\u0cb2\u0cbf": 770,
  "\u2581\u0b85\u0bb5\u0ba9\u0bcd": 771,
  "\u0c21": 772,
  "\u2581living": 773,
  "\u2581view": 774,
  "\u2581\u0c86\u0ca4\u0ca8": 775,
  "\u2581began": 776,
  "\u2581Organiser": 777,
  "\u0c3e\u0c32\u0c41": 778,
  "\u0d35\u0d30\u0d4d": 779,
  "\u0bbe": 780,
  "\u2581New": 781,
  "Other": 782,
  "\u2581something": 783,
  "\u2581Your": 784,
  "\u2581\u0c2e\u0c30\u0c3f\u0c2f\u0c41": 785,
  "\u2581better": 786,
  "\u0c28\u0c4d": 787,
  "\u0baa\u0bcd\u0baa": 788,
  "\u0c46\u0c28\u0c41": 789,
  "\u0bbe\u0bb0\u0bcd\u0b95\u0bb3\u0bcd": 790,
  "\u2581hath": 791,
  "\u0c32\u0c3e": 792,
  "\u2581heaven": 793,
  "\u0cbf\u0cb8": 794,
  "\u258118": 795,
  "\u258114": 796,
  "\u2581therefore": 797,
  "\u0d23": 798,
  "\u2581\u0ca6\u0cc7\u0cb5\u0cb0\u0cc1": 799,
  "\u2581look": 800,
  "\u2581toward": 801,
  "\u2581\u0d28\u0d3f\u0d28\u0d4d\u0d28\u0d4d": 802,
  "\u2581ministry": 803,
  "\u0d41\u0d28\u0d4d\u0d28\u0d24\u0d4d": 804,
  "\u2581cause": 805,
  "\u0d31": 806,
  "\u2581\u0d28\u0d2e\u0d4d\u0d2e\u0d41\u0d1f\u0d46": 807,
  "\u2581With": 808,
  "\u2581disciples": 809,
  "\u2581always": 810,
  "\u2581\u0ca8\u0cae\u0c97\u0cc6": 811,
  "\u0baf\u0bbe\u0b95": 812,
  "\u2581later": 813,
  "\u0cbf\u0ca8": 814,
  "\u0bb2\u0bbe\u0bae\u0bcd": 815,
  "\u0c1f": 816,
  "\u0d38": 817,
  "\u0d42": 818,
  "\u2581thing": 819,
  "\u2581according": 820,
  "\u2581\u0c86\u0ca4\u0ca8\u0cc1": 821,
  "\u0d7b": 822,
  "\u2581\u0caa\u0cc1\u0c9f": 823,
  "\u0d3f\u0d1a\u0d4d\u0d1a\u0d41": 824,
  "\u2581\u0c1a\u0c47\u0c2f": 825,
  "\u258130": 826,
  "\u2581ask": 827,
  "\u258117": 828,
  "\u2581order": 829,
  "\u2581\u0baf\u0bc6\u0b95\u0bcb\u0bb5\u0bbe": 830,
  "\u0cb0\u0ccd": 831,
  "\u2581asked": 832,
  "\u2581having": 833,
  "\u2581\u0c05\u0c24\u0c21\u0c41": 834,
  "\u0d19\u0d4d\u0d19\u0d33\u0d4d": 835,
  "\u2581women": 836,
  "\u2581going": 837,
  "\u0bb5\u0bc7": 838,
  "\u2581\u0c85\u0ca6\u0ca8\u0ccd\u0ca8\u0cc1": 839,
  "\u0cb2\u0cbf": 840,
  "\u0ca4": 841,
  "n": 842,
  "\u0d1f": 843,
  "\u2581\u0ca8\u0ca8\u0c97\u0cc6": 844,
  "\u2581\u0b9a\u0bc6\u0baf\u0bcd\u0baf": 845,
  "\u2581These": 846,
  "\u2581Him": 847,
  "\u2581heard": 848,
  "\u2581\u0b8e\u0ba9": 849,
  "\u2581preaching": 850,
  "\u0d2f\u0d46": 851,
  "ll": 852,
  "\u2581speak": 853,
  "\u2581\u0ca8\u0cc0\u0ca8\u0cc1": 854,
  "\u0cb2\u0ccd": 855,
  "\u0bcb": 856,
  "\u2581night": 857,
  "\u0c48\u0c28": 858,
  "\u2581making": 859,
  "\u2581Yet": 860,
  "\u0bbe\u0ba9\u0bcd": 861,
  "\u2581\u0b87\u0bb2\u0bcd\u0bb2\u0bc8": 862,
  "\u0cc1\u0ca4\u0ccd\u0ca4\u0cbe\u0ca8\u0cc6": 863,
  "\u2581\u0d0e\u0d28\u0d4d\u0d28\u0d3e\u0d32\u0d4d": 864,
  "_": 865,
  "\u2581cannot": 866,
  "\u0bb0": 867,
  "\u2581\u0c07\u0c32\u0c3e": 868,
  "\u2581really": 869,
  "\u2581mankind": 870,
  "\u0d2e\u0d3e\u0d23\u0d4d": 871,
  "\u0bb2": 872,
  "\u2581indeed": 873,
  "\u2581Thus": 874,
  "\u2581Psalm": 875,
  "g": 876,
  "\u2581near": 877,
  "\u2581hearts": 878,
  "\u2581temporary": 879,
  "\u2581neither": 880,
  "\u2581tell": 881,
  "\u0c30\u0c3e": 882,
  "\u2581righteous": 883,
  "\u2581S": 884,
  "\u2581\u0c06\u0c2e\u0c46": 885,
  "an": 886,
  "\u2581however": 887,
  "\u2581law": 888,
  "\u2581nations": 889,
  "\u2581\u0c87\u0ca6\u0cc1": 890,
  "\u0d3f\u0d7d": 891,
  "\u2581\u0d0e\u0d28\u0d4d\u0d28\u0d4d": 892,
  "\u2581\u0b8e\u0ba9\u0bcd": 893,
  "\u2581fact": 894,
  "\u0c02\u0c21\u0c3f": 895,
  "\u0c97": 896,
  "\u2581dead": 897,
  "\u2581prayer": 898,
  "\u2581\u0baa\u0bc8\u0baa\u0bbf\u0bb3\u0bcd": 899,
  "\u2581\u0baa\u0bb1\u0bcd\u0bb1\u0bbf": 900,
  "\u2581high": 901,
  "\u2581\u0d28\u0d3f\u0d19\u0d4d\u0d19\u0d33\u0d46": 902,
  "\u0cc1\u0ca4\u0ccd\u0ca4\u0cbe": 903,
  "\u0d2f\u0d4d": 904,
  "\u0b95\u0bb3\u0bbf\u0bb2\u0bcd": 905,
  "\u2581Even": 906,
  "\u0cb5\u0cc2": 907,
  "\u2581result": 908,
  "\u2581food": 909,
  "\u2581\u0c09\u0c02\u0c26\u0c3f": 910,
  "\u2581\u0bb2\u0bcd": 911,
  "\u2581best": 912,
  "\u258124": 913,
  "\u2581century": 914,
  "\u0cbf\u0cb0\u0cc1\u0cb5": 915,
  "\u2581heavens": 916,
  "\u0cbf\u0ca6\u0cc6": 917,
  "\u0d15\u0d4d": 918,
  "\u2581reason": 919,
  "\u2581\u0c0e\u0c32\u0c3e": 920,
  "\u2581wicked": 921,
  "\u0c26\u0c41": 922,
  "\u2581\u0b87\u0baf\u0bc7\u0b9a\u0bc1": 923,
  "\u2581consider": 924,
  "\u2581Those": 925,
  "\u2581loving": 926,
  "\u0d33": 927,
  "\u0c26": 928,
  "\u0d2f\u0d3e\u0d23\u0d4d": 929,
  ".\u201d": 930,
  "\u0d24\u0d4d\u0d24\u0d3f\u0d7d": 931,
  "\u2581\u0b89\u0bb3\u0bcd\u0bb3": 932,
  "\u0d2a\u0d4d\u0d2a": 933,
  "\u2581\u0baa\u0b95\u0bcd\u0b95\u0bae\u0bcd": 934,
  "\u0baf\u0bc7": 935,
  "\u2581\u0d1e\u0d19\u0d4d\u0d19\u0d33\u0d4d": 936,
  "\u2581Son": 937,
  "\u2581\u0c26\u0c47\u0c35\u0c41\u0c21\u0c41": 938,
  "\u0c1a": 939,
  "\u2581\u0d0e\u0d28\u0d4d\u0d31\u0d46": 940,
  "\u2581nothing": 941,
  "\u2581\u0d28\u0d3f\u0d28\u0d4d\u0d31\u0d46": 942,
  "\u0cbf\u0ca6": 943,
  "\u2581\u0c85\u0cb5\u0cb0\u0cbf\u0c97\u0cc6": 944,
  "\u2581last": 945,
  "\u2581\u0cb9\u0cc0\u0c97\u0cc6": 946,
  "\u0ba4\u0bbe\u0ba9\u0bcd": 947,
  "\u0cbe\u0c97\u0cbf": 948,
  "\u2581\u0c35\u0c3f": 949,
  "\u2581wisdom": 950,
  "\u2581known": 951,
  "\u2581around": 952,
  "\u2581light": 953,
  "\u2581\u0bae\u0bc7\u0bb2\u0bc1\u0bae\u0bcd": 954,
  "\u2581\u0cac\u0c97\u0ccd\u0c97\u0cc6": 955,
  "\u2581\u0c85\u0ca6\u0cb0": 956,
  "\u2581\u0b9a\u0bbf\u0bb2": 957,
  "\u258125": 958,
  "\u0d2a": 959,
  "\u0cac\u0cb9\u0cc1\u0ca6\u0cc1": 960,
  "\u0d32\u0d4d": 961,
  "\u0ca1": 962,
  "\u0c32\u0c47\u0c26\u0c41": 963,
  "o": 964,
  "\u0c32\u0c4b\u0c28\u0c3f": 965,
  "p": 966,
  "\u0ca6\u0cc1": 967,
  "\u2581King": 968,
  "\u0d3e\u0d2f": 969,
  "\u2581article": 970,
  "\u2581Matthew": 971,
  "\u2581call": 972,
  "\u2581four": 973,
  "\u2581\u0cb9\u0cc7\u0cb3": 974,
  "\u0cb2\u0ccd\u0cb2": 975,
  "\u2581far": 976,
  "\u2581\u0ca4\u0cc1\u0c82\u0cac": 977,
  "\u0d3e\u0d32\u0d4d": 978,
  "\u258121": 979,
  "\u2581few": 980,
  "\u2581From": 981,
  "\u2581Abraham": 982,
  "\u2581free": 983,
  "\u2581file": 984,
  "\u2581\u0c24\u0c30\u0c4d\u0c35\u0c3e\u0c24": 985,
  "\u2581hands": 986,
  "b": 987,
  "\u0ccb": 988,
  "\u0d1f\u0d4d\u0d1f": 989,
  "\u2581\u0baf\u0bc6\u0b95\u0bcb\u0bb5\u0bbe\u0bb5\u0bbf\u0ba9\u0bcd": 990,
  "\u2581eat": 991,
  "\u2581Many": 992,
  "\u0cb3": 993,
  "\u2581\u0c15\u0c3e\u0c2c\u0c1f\u0c4d\u0c1f\u0c3f": 994,
  "\u2581husband": 995,
  "\u0b95\u0bb3\u0bbf\u0ba9\u0bcd": 996,
  "\u258112:": 997,
  "\u0cbf\u0ca4\u0cc1": 998,
  "\u0c3f\u0c02\u0c26\u0c3f": 999,
  "\u2581joy": 1000,
  "\u0d41\u0d33\u0d4d\u0d33": 1001,
  "?\"": 1002,
  "\u2581\u0c95\u0cb0\u0ccd\u0ca4\u0ca8\u0cc1": 1003,
  "\u2581understand": 1004,
  "\u0bb5\u0bb0\u0bcd\u0b95\u0bb3\u0bcd": 1005,
  "\u2581wrong": 1006,
  "\u2581next": 1007,
  "\u2581surely": 1008,
  "\u2581someone": 1009,
  "\u2581Judah": 1010,
  "\u2581matter": 1011,
  "\u0cae": 1012,
  "\u2581soul": 1013,
  "\u2581Scriptures": 1014,
  "\u0c17\u0c41": 1015,
  "\u0b9f\u0bcd": 1016,
  "%": 1017,
  "\u2581\u0d2f\u0d39\u0d4b\u0d35": 1018,
  "\u2581marriage": 1019,
  "\u0cb9": 1020,
  "\u2581follow": 1021,
  ").": 1022,
  "\u2581hear": 1023,
  "\u0d2f\u0d3f\u0d32\u0d4d": 1024,
  "\u2581D": 1025,
  "\u2581fellow": 1026,
  "\u2581purpose": 1027,
  "\u2581\u0d2f\u0d3f": 1028,
  "\u0ba4\u0bcd\u0ba4\u0bc1": 1029,
  "\u2581\u0d0e\u0d28\u0d3f\u0d15\u0d4d\u0d15\u0d4d": 1030,
  "\u2581system": 1031,
  "\u2581taken": 1032,
  "\u2581money": 1033,
  "\u0c2e\u0c3e": 1034,
  "\u2581\u0d35": 1035,
  "\u2581personal": 1036,
  "2": 1037,
  "\u2581\u0cb9\u0cbe\u0c97\u0cc2": 1038,
  "\u2581s": 1039,
  "or": 1040,
  "\u2581humans": 1041,
  "\u2581body": 1042,
  "\u2581\u0ca8\u0cbf\u0cae\u0c97\u0cc6": 1043,
  "\u2581\u0d05\u0d24\u0d41": 1044,
  "\u2581yourself": 1045,
  "\u0c1f\u0c4d": 1046,
  "\u2581\u0cb9\u0cbe\u0c97\u0cc6": 1047,
  "\u0c3f\u0c02\u0c1a": 1048,
  "\u2581\u0d0e\u0d28\u0d4d\u0d28\u0d46": 1049,
  "\u2581desire": 1050,
  "\u0caf\u0ca8\u0ccd\u0ca8\u0cc1": 1051,
  "\u2581seen": 1052,
  "\u2581\u0b9a\u0bc6\u0baf\u0bcd\u0ba4\u0bc1": 1053,
  "\u0c2a\u0c48": 1054,
  "\u2581\u0cb8": 1055,
  "\u2581\u0c2e\u0c47\u0c2e\u0c41": 1056,
  "\u2581return": 1057,
  "\u0cb0\u0cc6": 1058,
  "\u0caa": 1059,
  "\u2581\u0c35\u0c3e\u0c30\u0c3f\u0c28\u0c3f": 1060,
  "\u0d35\u0d30": 1061,
  "\u2581counsel": 1062,
  "\u0b85": 1063,
  "\u0bb5\u0bb0\u0bcd": 1064,
  "D": 1065,
  "\u0cb5\u0cc7": 1066,
  "\u2581certain": 1067,
  "\u2581\u0b87\u0bb0\u0bc1\u0b95\u0bcd\u0b95\u0bbf\u0bb1\u0ba4\u0bc1": 1068,
  "\u2581\u0b95\u0b9f\u0bb5\u0bc1\u0bb3\u0bc1\u0b9f\u0bc8\u0baf": 1069,
  "\u2581following": 1070,
  "\u0d31\u0d4d\u0d31": 1071,
  "\u0cb2\u0cbf\u0cb2\u0ccd\u0cb2": 1072,
  "\u0b9f\u0bcd\u0b9f": 1073,
  "\u2581\u0c32\u0c47\u0c26\u0c3e": 1074,
  "\u0d15\u0d33\u0d4d": 1075,
  "\u2581fire": 1076,
  "\u0cbf\u0ca6\u0ccd\u0ca6": 1077,
  "\u2581thus": 1078,
  "\u2581\u0d0e": 1079,
  "\u2581certainly": 1080,
  "\u2581\u0d24\u0d28\u0d4d": 1081,
  "\u0cb0\u0cb2\u0ccd\u0cb2\u0cbf\u0cb0\u0cc1\u0cb5": 1082,
  "\u2581\u0b89\u0b99\u0bcd\u0b95\u0bb3\u0bc1\u0b95\u0bcd\u0b95\u0bc1": 1083,
  "\u2581care": 1084,
  "\u0d23\u0d02": 1085,
  "eth": 1086,
  "\u2581\u0b8e\u0ba9\u0bcd\u0baa\u0ba4\u0bc8": 1087,
  "\u0c95\u0ccd": 1088,
  "\u2581Of": 1089,
  "\u2581whole": 1090,
  "\u2581fine": 1091,
  "\u2581thought": 1092,
  "\u0cbf\u0ca6\u0cb0\u0cc1": 1093,
  "\u0ba4\u0bc8": 1094,
  "\u0d3e\u0d2f\u0d3f": 1095,
  "\u2581wise": 1096,
  "3": 1097,
  "\u0c2e\u0c28\u0c3f": 1098,
  "\u2581lives": 1099,
  "\u0c41\u0c2e\u0c41": 1100,
  "\u2581\u0c8e\u0cb2\u0ccd\u0cb2\u0cbe": 1101,
  "\u2581Not": 1102,
  "\u2581\u0c8e": 1103,
  "\u0d3e\u0d02": 1104,
  "\u2581\u0ba9\u0bcd": 1105,
  "\u2581leave": 1106,
  "\u0b9f\u0bbf": 1107,
  "\u2581since": 1108,
  "\u2581answer": 1109,
  "\u2581sure": 1110,
  "\u2581Synchronis": 1111,
  "\u2581created": 1112,
  "\u2581\u0c1a\u0c47\u0c38\u0c3f\u0c28": 1113,
  "\u258110:": 1114,
  "\u2581\u0ba8\u0bc0\u0bb0\u0bcd": 1115,
  "\u2581\u0b90": 1116,
  "\u2581helped": 1117,
  "\u2581\u0d05\u0d26\u0d4d\u0d26\u0d47\u0d39\u0d02": 1118,
  "\u0c28\u0c40": 1119,
  "to": 1120,
  "\u2581\u0c1a\u0c3e\u0c32\u0c3e": 1121,
  "\u2581\u0d07\u0d24\u0d4d": 1122,
  "\u0c28\u0c15\u0c41": 1123,
  "\u2581Because": 1124,
  "\u2581Indeed": 1125,
  "\u2581works": 1126,
  "\u2581\u0c38\u0c39\u0c3e\u0c2f\u0c02": 1127,
  "\u2581\u0c85\u0ca5\u0cb5\u0cbe": 1128,
  "\u2581Read": 1129,
  "\u2581Are": 1130,
  "\u2581different": 1131,
  "\u0c21\u0c4d": 1132,
  "\u2581questions": 1133,
  "\u2581clear": 1134,
  "\u2581hard": 1135,
  "\u2581bad": 1136,
  "\u0d28\u0d3f": 1137,
  "\u0b9a": 1138,
  "\u2581\u0b95\u0bca\u0ba3\u0bcd\u0b9f\u0bc1": 1139,
  "\u2581Jews": 1140,
  "\u0cca\u0c82\u0ca6\u0cbf\u0c97\u0cc6": 1141,
  "\u2581future": 1142,
  "\u0c2f\u0c3e": 1143,
  "\u2581received": 1144,
  "\u2581Day": 1145,
  "\u0bae\u0bc1\u0bae\u0bcd": 1146,
  "\u2581elders": 1147,
  "\u2581\u0c0e": 1148,
  "\u2581receive": 1149,
  "\u0c28\u0c41\u0c02\u0c21\u0c3f": 1150,
  "\u0c23": 1151,
  "\u2581\u0bae\u0bb1\u0bcd\u0bb1\u0bc1\u0bae\u0bcd": 1152,
  "\u0bb5\u0bbf\u0b9f": 1153,
  "\u0c37": 1154,
  "\u2581friends": 1155,
  "\u2581\u0c28\u0c28\u0c4d\u0c28\u0c41": 1156,
  "\u2581\u0d24": 1157,
  "\u2581experience": 1158,
  "\u2581\u0c15\u0c3e\u0c28\u0c40": 1159,
  "\u2581\u0c2e\u0c28\u0c15\u0c41": 1160,
  "\u258111:": 1161,
  "\u0c2c\u0c21\u0c3f\u0c28": 1162,
  "\u2581support": 1163,
  "\u0c02\u0c24": 1164,
  "\u2581religious": 1165,
  "\u2581offering": 1166,
  "\u2581comes": 1167,
  "\u2581\u0b87": 1168,
  "\u2581\u0d05\u0d35\u0d28\u0d46": 1169,
  "\u2581\u0d26\u0d48\u0d35": 1170,
  "\u0d2f\u0d3f\u0d7d": 1171,
  "\u2581war": 1172,
  "\u0d15\u0d7e": 1173,
  "\u2581problems": 1174,
  "\u2581continue": 1175,
  "\u2581\u0c9a\u0cbf\u0ca4\u0ccd\u0cb0": 1176,
  "\u25817:": 1177,
  "\u2581die": 1178,
  "\u2581present": 1179,
  "\u2581\u0b85\u0bb5\u0bb0\u0bc1\u0b9f\u0bc8\u0baf": 1180,
  "\u2581\u0cae\u0cc2\u0cb2\u0c95": 1181,
  "\u0d7d": 1182,
  "\u0bc8\u0baf\u0bc1\u0bae\u0bcd": 1183,
  "\u2581got": 1184,
  "\u0c2e\u0c40\u0c26": 1185,
  "\u2581possible": 1186,
  "\u258123": 1187,
  "\u258122": 1188,
  "\u2581language": 1189,
  "\u2581information": 1190,
  "\u2581anointed": 1191,
  "\u2581Egypt": 1192,
  "\u0ba8\u0bcd\u0ba4\u0bc1": 1193,
  "\u2581kind": 1194,
  "\u0d2f\u0d41\u0d33\u0d4d\u0d33": 1195,
  "\u0cbf\u0ca4": 1196,
  "\u2581share": 1197,
  "\u2581\u0b85\u0ba4\u0bc8": 1198,
  "\u2581knew": 1199,
  "\u0bc1\u0b95\u0bbf\u0bb1\u0ba4\u0bc1": 1200,
  "\u2581\u0c05\u0c28\u0c47": 1201,
  "\u0c3e\u0c32\u0c3f": 1202,
  "\u2581learned": 1203,
  "\u2581Isaiah": 1204,
  "\u2581\u0c26\u0c4d\u0c35\u0c3e\u0c30\u0c3e": 1205,
  "\u2581meetings": 1206,
  "\u0c35\u0c1a\u0c4d\u0c1a\u0c41": 1207,
  "T": 1208,
  "\u0ba4\u0bbe\u0b95": 1209,
  "\u2581seven": 1210,
  "\u2581\u0d0e\u0d19\u0d4d\u0d19\u0d28\u0d46": 1211,
  "ve": 1212,
  "\u0d2a\u0d4d\u0d2a\u0d46\u0d1f\u0d4d\u0d1f": 1213,
  "\u2581Therefore": 1214,
  "\u2581\u0c95": 1215,
  "\u0d2f\u0d3e": 1216,
  "\u2581\u0b9a": 1217,
  "\u25814.": 1218,
  "\u0c28\u0c4d\u0c28": 1219,
  "\u2581\u0c32\u0c47\u0c26\u0c41": 1220,
  "\u0ca6\u0ccd\u0ca6": 1221,
  "\u2581\u0bae\u0bc0\u0ba4\u0bc1": 1222,
  "\u0d24\u0d3f": 1223,
  "\u2581Evolution": 1224,
  "\u2581strong": 1225,
  "\u2581needed": 1226,
  "\u2581\u0c95\u0cc1\u0cb0\u0cbf\u0ca4\u0cc1": 1227,
  "\u2581\u0c95\u0cca\u0ca1": 1228,
  "\u2581\u0d35\u0d3f": 1229,
  "\u2581\u0c15\u0c4b\u0c38\u0c02": 1230,
  "M": 1231,
  "\u2581trust": 1232,
  "\u0d32\u0d4d\u0d32": 1233,
  "\u2581Solomon": 1234,
  "\u2581\u0d2e\u0d3e": 1235,
  "\u2581...": 1236,
  "\u2581whose": 1237,
  "\u2581died": 1238,
  "\u2581\u0c95\u0cb0\u0ccd\u0ca4\u0ca8": 1239,
  "\u2581\u0b85\u0bb5\u0bb0\u0bcd\u0b95\u0bb3\u0bc1\u0b95\u0bcd\u0b95\u0bc1": 1240,
  "\u2581\u0c2e\u0c40\u0c15\u0c41": 1241,
  "\u2581mean": 1242,
  "\u2581righteousness": 1243,
  "\u2581five": 1244,
  "\u0c2e\u0c47": 1245,
  "\u2581along": 1246,
  "\u2581happy": 1247,
  "\u2581age": 1248,
  "\u2581stand": 1249,
  "\u25812.": 1250,
  "\u2581'%": 1251,
  "\u2581\u0c85\u0cb5\u0ca8\u0cbf\u0c97\u0cc6": 1252,
  "\u2581\u0c87\u0cb2\u0ccd\u0cb2": 1253,
  "\u2581talk": 1254,
  "\u2581\u0baa\u0bb2": 1255,
  "\u0bb5\u0bbf\u0bb2\u0bcd\u0bb2\u0bc8": 1256,
  "\u0c15\u0c3e": 1257,
  "\u2581head": 1258,
  "\u2581believers": 1259,
  "\u2581whether": 1260,
  "1": 1261,
  "\u2581\u0b95": 1262,
  "\u2581relationship": 1263,
  "\u2581prophet": 1264,
  "\u0c82\u0ca4\u0cc6": 1265,
  "\u2581side": 1266,
  "\u0c4b": 1267,
  "\u2581account": 1268,
  "\u2581Be": 1269,
  "\u0cb5\u0cbe\u0c97\u0cbf\u0ca6\u0cc6": 1270,
  "\u0c42": 1271,
  "\u2581Proverbs": 1272,
  "Comment": 1273,
  "on": 1274,
  "\u2581felt": 1275,
  "\u0c4d": 1276,
  "\u0baf\u0bbe": 1277,
  "\u2581early": 1278,
  "\u2581\u0b86\u0b95\u0bb5\u0bc7": 1279,
  "\u2581\u0d05\u0d35\u0d7c": 1280,
  "\u0baa\u0bcd\u0baa\u0b9f": 1281,
  "\u0b95\u0bb3\u0bc8\u0baf\u0bc1\u0bae\u0bcd": 1282,
  "\u2581small": 1283,
  "\u2581makes": 1284,
  "\u2581self": 1285,
  "\u2581soon": 1286,
  "\u0c39": 1287,
  "\u2581case": 1288,
  "es": 1289,
  "\u2581\u0b8f\u0ba9\u0bcd": 1290,
  "\u2581nation": 1291,
  "\u2581already": 1292,
  "\u0bb5\u0bbf": 1293,
  "\u0b95\u0bb3\u0bc1\u0bae\u0bcd": 1294,
  "\u2581\u0c2a\u0c47\u0c1c\u0c40\u0c32\u0c4b": 1295,
  "\u2581glory": 1296,
  "\u2581\u0c9c\u0ca8\u0cb0\u0cc1": 1297,
  "\u0d28\u0d4d\u0d28": 1298,
  "\u0bc1\u0b99\u0bcd\u0b95\u0bb3\u0bcd": 1299,
  "\u0c41\u0c21\u0c3f": 1300,
  "\u0d3f\u0d28\u0d4d": 1301,
  "\u2581\u0b8e": 1302,
  "\u0b95\u0bb3\u0bc1\u0b95\u0bcd\u0b95\u0bc1": 1303,
  "\u0c9f\u0ccd": 1304,
  "\u2581\u0c1a\u0c46\u0c2a\u0c4d\u0c2a": 1305,
  "\u2581ourselves": 1306,
  "\u2581Job": 1307,
  "\u2581kingdom": 1308,
  "\u2581\u0d1a\u0d46\u0d2f\u0d4d": 1309,
  "P": 1310,
  "\u2581religion": 1311,
  "\u2060": 1312,
  "\u2581\u0d05\u0d35\u0d28\u0d4d\u0d31\u0d46": 1313,
  "\u0d17": 1314,
  "\u2581\u0d0e\u0d32\u0d4d\u0d32\u0d3e": 1315,
  "\u2581\u0d28\u0d3f\u0d30\u0d4d": 1316,
  "\u2581mercy": 1317,
  "\u2581benefit": 1318,
  "st": 1319,
  "\u2581\u0c35\u0c3e\u0c30\u0c3f\u0c15\u0c3f": 1320,
  "\u0cb0\u0cb2\u0ccd\u0cb2\u0cbf": 1321,
  "\u2581change": 1322,
  "\u2581teaching": 1323,
  "ic": 1324,
  "\u0d36": 1325,
  "\u0caf\u0cc2": 1326,
  "\u2581kindness": 1327,
  "\u2581\u0d28\u0d32\u0d4d\u0d32": 1328,
  "\u2581\u0c28": 1329,
  "\u2581\u0c15\u0c3e\u0c26\u0c41": 1330,
  "\u0d41\u0d1f\u0d46": 1331,
  "\u0d35\u0d3f": 1332,
  "\u0ca3": 1333,
  "\u2581\"%": 1334,
  "\u0cb3\u0cc1": 1335,
  "\u2581school": 1336,
  "\u2581Organisation": 1337,
  "\u2581anything": 1338,
  "\u2581lead": 1339,
  "\u2581strength": 1340,
  "\u0c35\u0c3e\u0c30\u0c41": 1341,
  "\u2581\u0c2a\u0c28\u0c3f": 1342,
  "\u0d39": 1343,
  "\u2581\u0d15\u0d4d\u0d15\u0d41": 1344,
  "\u2581\u0d28\u0d3f\u0d28\u0d4d": 1345,
  "\u2581turned": 1346,
  "\u2581\u0b87\u0bb0\u0bc1\u0b95\u0bcd\u0b95": 1347,
  "\u2581point": 1348,
  "\u2581servant": 1349,
  "\u0cae\u0cbe\u0ca1": 1350,
  "\u2581\u0d1a\u0d46\u0d2f\u0d4d\u0d24\u0d41": 1351,
  "\u2581seek": 1352,
  "\u0c41\u0c1a\u0c41": 1353,
  "\u2581\u0b86": 1354,
  "\u0cc1\u0cb5\u0cbe\u0c97": 1355,
  "\u2581Israelites": 1356,
  "\u2581\u0b87\u0bb0\u0bc1\u0b95\u0bcd\u0b95\u0bc1\u0bae\u0bcd": 1357,
  "\u2581mail": 1358,
  "\u2581\u0b9a\u0bc6\u0baf\u0bcd\u0ba4": 1359,
  "\u0baa\u0bcd\u0baa\u0bc1": 1360,
  "\u2581initialise": 1361,
  "\u0d1a": 1362,
  "\u0bb5\u0ba9\u0bcd": 1363,
  "\u2581value": 1364,
  "\u0bb1\u0bcd\u0bb1": 1365,
  "\u2581\u0d05\u0d35\u0d7b": 1366,
  "\u2581\u201d?": 1367,
  "\u2581\u0cb9\u0ccb\u0c97": 1368,
  "):": 1369,
  "You": 1370,
  "\u2581\u0c2e\u0c02\u0c1a\u0c3f": 1371,
  "\u258110.": 1372,
  "\u258115,": 1373,
  "\u2581\u0c15\u0c3e": 1374,
  "\u2581sea": 1375,
  "\u258131": 1376,
  "\u0d05\u0d2a\u0d4d\u0d2a\u0d4b\u0d33\u0d4d": 1377,
  "\u2581voice": 1378,
  "\u2581World": 1379,
  "\u2581\u0ba4\u0ba9\u0bcd": 1380,
  "\u2581giving": 1381,
  "\u2581\u0b8e\u0baa\u0bcd\u0baa\u0b9f\u0bbf": 1382,
  "\u0d30\u0d3f": 1383,
  "\u2581\u0d24\u0d19\u0d4d\u0d19\u0d33\u0d41\u0d1f\u0d46": 1384,
  "\u0c24\u0c3f": 1385,
  "\u0bae\u0bc8": 1386,
  "\u0d38\u0d3f": 1387,
  "\u2581coming": 1388,
  "\u2581kg": 1389,
  "\u2581\u0c85\u0ca8\u0cc7\u0c95": 1390,
  "\u2581flesh": 1391,
  "\u2581ten": 1392,
  "\u2581pray": 1393,
  "\u2581\u0b85\u0bb5\u0bb0\u0bcd\u0b95\u0bb3\u0bc1\u0b9f\u0bc8\u0baf": 1394,
  "\u2581remember": 1395,
  "\u2581\u0d2a\u0d31\u0d1e\u0d4d\u0d1e": 1396,
  "\u2581Say": 1397,
  "\u2581avoid": 1398,
  "\u2581enjoy": 1399,
  "\u2581country": 1400,
  "\u2581\u0c05\u0c2a\u0c4d\u0c2a\u0c41\u0c21\u0c41": 1401,
  "\u2581second": 1402,
  "\u2581group": 1403,
  "\u2581\u0d2f\u0d39\u0d4b\u0d35\u0d2f\u0d41\u0d1f\u0d46": 1404,
  "\u0c2e\u0c41\u0c28\u0c41": 1405,
  "\u2581field": 1406,
  "\u2581witness": 1407,
  "\u2581Canno": 1408,
  "\u2581moved": 1409,
  "\u0d05": 1410,
  "\u2581please": 1411,
  "\u2581gives": 1412,
  "\u2581above": 1413,
  "\u2581\u0c85\u0cb5\u0cb0\u0ca8\u0ccd\u0ca8\u0cc1": 1414,
  "(_": 1415,
  "\u0b99\u0bcd\u0b95\u0bb3\u0bc8": 1416,
  "\u2581\u0cae\u0cc1\u0c82\u0ca6\u0cc6": 1417,
  "\u2581respect": 1418,
  "\u2581\u0c09\u0c02\u0c21": 1419,
  "\u2581\u0c85\u0c82\u0ca6\u0ca8\u0cc1": 1420,
  "\u2581conduct": 1421,
  "\u0cb0\u0cc2": 1422,
  "4": 1423,
  "\u2581temple": 1424,
  "\u0baf\u0bbe\u0ba9": 1425,
  "\u2581\u0d28": 1426,
  "\u2581\u2013": 1427,
  "\u2581written": 1428,
  "\u2581\u0d2a": 1429,
  "\u2581\u0c2a\u0c4d\u0c30\u0c24\u0c3f": 1430,
  "\u0ba9\u0bb0\u0bcd": 1431,
  "\u2581\u0d2a\u0d4d\u0d30\u0d35\u0d30\u0d4d": 1432,
  "\u2581remain": 1433,
  "\u0bc1\u0b9f\u0bc8\u0baf": 1434,
  "\u2581members": 1435,
  "\u2581\u0b8e\u0ba9\u0b95\u0bcd\u0b95\u0bc1": 1436,
  "\u0d2e\u0d3e": 1437,
  "\u2581knows": 1438,
  "\u258132": 1439,
  "\u0d35\u0d30\u0d46": 1440,
  "\u0d2e\u0d41\u0d33\u0d4d\u0d33": 1441,
  "\u2581within": 1442,
  "\u2581heavenly": 1443,
  "\u2581situation": 1444,
  "\u2581Joseph": 1445,
  "\u2581\u0d15\u0d4d\u0d30\u0d3f\u0d38\u0d4d": 1446,
  "\u2581\u0cb9\u0cc6\u0c9a\u0ccd\u0c9a\u0cc1": 1447,
  "\u0bc1\u0bb3\u0bcd\u0bb3": 1448,
  "\u2581baptized": 1449,
  "\u2581pass": 1450,
  "\u2581covenant": 1451,
  "\u2581try": 1452,
  "\u258128": 1453,
  "\u0bb5\u0bc1": 1454,
  "\u2581\u0d28\u0d3f\u0d28\u0d4d\u0d28\u0d46": 1455,
  "\u0bae\u0bbe": 1456,
  "\u0c97\u0cb3\u0cbf\u0c97\u0cc6": 1457,
  "\u2581\u0c95\u0cbe\u0cb0\u0ca3": 1458,
  "\u2581real": 1459,
  "\u2581needs": 1460,
  "\u2581sacrifice": 1461,
  "\u2581Timothy": 1462,
  "\u2581attention": 1463,
  "\u0c38\u0c3f": 1464,
  "\u2581Saul": 1465,
  "\u0c3e\u0c28\u0c41": 1466,
  "\u2581\u0c17\u0c28\u0c41\u0c15": 1467,
  "\u0bbe\u0ba4": 1468,
  "\u2581ancient": 1469,
  "\u2581Most": 1470,
  "\u2581Such": 1471,
  "\u2581\u0c8f\u0ca8\u0cc1": 1472,
  "\u0d40": 1473,
  "\u0d41\u0d23\u0d4d\u0d1f\u0d4d": 1474,
  "\u0cc0": 1475,
  "\u25818.": 1476,
  "\u2581\u0c2a": 1477,
  "\u25813,": 1478,
  "\u2581alone": 1479,
  "\u2581\u0baa\u0bc1\u0ba4\u0bbf\u0baf": 1480,
  "\u0bb3": 1481,
  "\u2581An": 1482,
  "\u2581sense": 1483,
  "\u0ccd\u0caf": 1484,
  "\u2581\u0d2a\u0d4d\u0d30": 1485,
  "\u25813.": 1486,
  "\u2581except": 1487,
  "\u2581happened": 1488,
  "\u0cc1\u0cb5\u0cc1\u0ca6\u0cbf\u0cb2\u0ccd\u0cb2": 1489,
  "\u25818,": 1490,
  "\u2581\u0b87\u0bb0\u0bc1\u0ba8\u0bcd\u0ba4": 1491,
  "\u2581question": 1492,
  "\u2581states": 1493,
  "\u2581\u0d28\u0d3f\u0d19\u0d4d\u0d19\u0d7e": 1494,
  "R": 1495,
  "\u2581Although": 1496,
  "\u2581See": 1497,
  "\u2581%1": 1498,
  "\u2581priest": 1499,
  "\u2581especially": 1500,
  "\u2581everything": 1501,
  "\u25818:": 1502,
  "\u0c1f\u0c3f": 1503,
  "\u2581\u0c88\u0c97": 1504,
  "\u0ca8\u0cc2": 1505,
  "\u2581reading": 1506,
  "\u2581shal": 1507,
  "\u2581health": 1508,
  "\u0b99\u0bcd\u0b95": 1509,
  "\u0bb2\u0bc8": 1510,
  "\u0c2e\u0c4d": 1511,
  "\u2581provide": 1512,
  "\u2581hold": 1513,
  "\u0c2e\u0c3f": 1514,
  "\u25817.": 1515,
  "\u2581forever": 1516,
  "\u0ca8\u0cc6": 1517,
  "\u0ca4\u0ccd\u0ca4": 1518,
  "\u0d35\u0d3e": 1519,
  "\u0ba4\u0bcd\u0ba4\u0bbf\u0bb1\u0bcd\u0b95\u0bc1": 1520,
  "\u2581angels": 1521,
  "\u2581hundred": 1522,
  "\u2581\u0c15": 1523,
  "\u2581serving": 1524,
  "\u0c9a": 1525,
  "\u2581once": 1526,
  "\u2581\u0d1a\u0d46\u0d2f\u0d4d\u0d2f": 1527,
  "\u0c3e\u0c32": 1528,
  "\u2581United": 1529,
  "\u2581promise": 1530,
  "\u0b9f\u0bc1": 1531,
  "\u2581\u0d0e\u0d28\u0d4d\u0d28\u0d3e\u0d7d": 1532,
  "\u2581act": 1533,
  "\u2581Consider": 1534,
  "\u0c9f": 1535,
  "\u2581difficult": 1536,
  "\u2581Adam": 1537,
  "\u2581anyone": 1538,
  "\u0d24\u0d4d\u0d24\u0d3f": 1539,
  "\u25815.": 1540,
  "\u2581M": 1541,
  "\u0bb0\u0bc8": 1542,
  "\u0d24\u0d4d\u0d24\u0d41": 1543,
  "\u2581Their": 1544,
  "\u2581taking": 1545,
  "\u2581Since": 1546,
  "\u0cb0\u0cbf": 1547,
  "\u2581\u0ba8\u0bbe\u0b99\u0bcd\u0b95\u0bb3\u0bcd": 1548,
  "\u2581\u0d1a\u0d3f\u0d32": 1549,
  "\u0c41\u0c1f\u0c15\u0c41": 1550,
  "\u2581\u0ca8\u0ca8\u0ccd\u0ca8\u0ca8\u0ccd\u0ca8\u0cc1": 1551,
  "\u2581understanding": 1552,
  "\u2581control": 1553,
  "\u2581\u0d05\u0d32\u0d4d\u0d32\u0d3e\u0d39\u0d41\u0d35\u0d3f\u0d28\u0d4d": 1554,
  "\u0d15\u0d4d\u0d15\u0d41\u0d15": 1555,
  "\u2581\u0c2a\u0c4c\u0c32\u0c41": 1556,
  "\u0c02\u0c32\u0c4b": 1557,
  "\u2581taught": 1558,
  "\u2581rest": 1559,
  "\u2581six": 1560,
  "\u2581didn": 1561,
  "\u2581walk": 1562,
  "\u2581E": 1563,
  "\u0d21\u0d4d": 1564,
  "\u2581\u0bb5\u0ba8\u0bcd\u0ba4": 1565,
  "5": 1566,
  "\u0cb5\u0ca8\u0ccd\u0ca8\u0cc2": 1567,
  "\u2581move": 1568,
  "able": 1569,
  "\u0cbf\u0c97\u0cc2": 1570,
  "\u0d3f\u0d1a\u0d4d\u0d1a": 1571,
  "\u0c32\u0c15\u0c41": 1572,
  "\u258114.": 1573,
  "\u2581Or": 1574,
  "\u2581\u0d0e\u0d28\u0d4d\u0d24\u0d41": 1575,
  "We": 1576,
  "\u2581spoke": 1577,
  "\u2581save": 1578,
  "\u0caf\u0cbe": 1579,
  "\u2581feet": 1580,
  "\u2581\u0c2e\u0c3e\u0c1f": 1581,
  "\u0c2e\u0c41\u0c17\u0c3e": 1582,
  "\u0cbf\u0ca6\u0ccd\u0ca6\u0cbe\u0cb0\u0cc6": 1583,
  "\u2581feelings": 1584,
  "\u2581\u0bb5\u0bb4\u0bbf": 1585,
  "\u2581thousand": 1586,
  "\u2581fathers": 1587,
  "\u2581\u0c0f\u0c2e\u0c3f": 1588,
  "\u0d30\u0d41\u0d24\u0d4d": 1589,
  "\u2581daughter": 1590,
  "\u2581Corinthians": 1591,
  "\u2581\u0c2e": 1592,
  "\u2581command": 1593,
  "\u0c95\u0ccd\u0c95\u0cbe\u0c97\u0cbf": 1594,
  "\u2581lost": 1595,
  "\u2581\u0d05\u0d35": 1596,
  "u": 1597,
  "\u2581~": 1598,
  "\u258115:": 1599,
  "\u2581\u0c35\u0c1a\u0c4d\u0c1a\u0c3f": 1600,
  "\u2581Will": 1601,
  "\u2581false": 1602,
  "\u2581commanded": 1603,
  "\u2581suffering": 1604,
  "\u2581\u0ca8\u0ccb\u0ca1": 1605,
  "\u2581kept": 1606,
  "\u2581wanted": 1607,
  "\u0cc1\u0ca4\u0ccd\u0ca4\u0cb5\u0cc6": 1608,
  "\u2581\u0d28\u0d3f\u0d28\u0d15\u0d4d\u0d15\u0d4d": 1609,
  "7": 1610,
  "\u2581\u0c07": 1611,
  "\u2581text": 1612,
  "\u2581\u0ba8\u0bae\u0bcd\u0baa\u0bbf\u0b95\u0bcd\u0b95\u0bc8": 1613,
  "\u2581\u0b93\u0bb0\u0bcd": 1614,
  "\u0ba4\u0bbe": 1615,
  "\u0d3e\u0d15\u0d41\u0d28\u0d4d\u0d28\u0d41": 1616,
  "\u258140": 1617,
  "x": 1618,
  "\u2581\u0c2a\u0c4a\u0c02\u0c26": 1619,
  "\u2581teach": 1620,
  "\u2581answered": 1621,
  "\u258111.": 1622,
  "\u2581sheep": 1623,
  "\u0c2a\u0c4d\u0c2a\u0c41\u0c21\u0c41": 1624,
  "\u2581greater": 1625,
  "\u0cae\u0ccd": 1626,
  "\u2581thinking": 1627,
  "\u0ba4\u0bbf": 1628,
  "\u2581\u0b89\u0ba4\u0bb5\u0bbf": 1629,
  "\u258112.": 1630,
  "\u2581\u0cac\u0cb0": 1631,
  "\u2581offer": 1632,
  "\u0c35\u0c41": 1633,
  "\u2581behold": 1634,
  "\u2581\u0c2f\u0c4a\u0c15\u0c4d\u0c15": 1635,
  "\u2581People": 1636,
  "\u2581\u0d38": 1637,
  "\u2581allow": 1638,
  "\u2581image": 1639,
  "\u0bae\u0bc7": 1640,
  "\u2581Have": 1641,
  "\u2581\u0d07": 1642,
  "\u2581\u0d2a\u0d3f\u0d28\u0d4d\u0d28\u0d46": 1643,
  "\u2581\u0c07\u0c26\u0c3f": 1644,
  "\u2581While": 1645,
  "\u258133": 1646,
  "\u0c30\u0c40": 1647,
  "\u2581Law": 1648,
  "\u0bbe\u0baf\u0bcd": 1649,
  "\u0bb5\u0bbe": 1650,
  "\u2581Book": 1651,
  "\u2581appointed": 1652,
  "\u2581component": 1653,
  "\u2581\u0c85\u0cb5\u0ca8\u0ca8\u0ccd\u0ca8\u0cc1": 1654,
  "\u0c3e\u0c2f\u0c3f": 1655,
  "\u2581attitude": 1656,
  "\u2581\u0bb5\u0bb0": 1657,
  "\u2581likely": 1658,
  "\u2581judgment": 1659,
  "\u2581morning": 1660,
  "\u2581Luke": 1661,
  "\u2581\u0b85\u0ba4\u0ba9\u0bcd": 1662,
  "\u2581\u0c0e\u0c02\u0c26\u0c41\u0c15\u0c41": 1663,
  "\u2581\u0b9a\u0bca\u0bb2\u0bcd\u0bb2": 1664,
  "\u0ba3": 1665,
  "\u2581\u0c9c\u0ca8\u0cb0": 1666,
  "\u0d2e\u0d4b": 1667,
  "\u2581\u0b85\u0bb5\u0bb0\u0bcd\u0b95\u0bb3\u0bc8": 1668,
  "\u2581sins": 1669,
  "\u0c24\u0c41": 1670,
  "\u2581\u0ca6": 1671,
  "\u2581Jacob": 1672,
  "\u2581married": 1673,
  "\u0c26\u0c3e": 1674,
  "\u2581\u0d35\u0d47\u0d23\u0d4d\u0d1f\u0d3f": 1675,
  "\u0c1c": 1676,
  "ers": 1677,
  "\u2581special": 1678,
  "\u0d3f\u0d15\u0d4d\u0d15": 1679,
  "\u258127": 1680,
  "\u0c48": 1681,
  "\u2581Creator": 1682,
  "\u2581\u0b87\u0bb5\u0bcd\u0bb5\u0bbe\u0bb1\u0bc1": 1683,
  "\u2581\u0ba8\u0bc0": 1684,
  "\u0c2c\u0c21": 1685,
  "\u2581\u0d05\u0d35\u0d3f\u0d1f\u0d46": 1686,
  "\u2581\u0b8e\u0ba8\u0bcd\u0ba4": 1687,
  "\u2581lived": 1688,
  "\u2581places": 1689,
  "\u2581\u0d15\u0d4a\u0d23\u0d4d\u0d1f\u0d4d": 1690,
  "\u2581\u0d1a\u0d46\u0d2f\u0d4d\u0d24": 1691,
  "\u2581\u0c35": 1692,
  "\u2581provided": 1693,
  "\u2581punishment": 1694,
  "\u2581using": 1695,
  "\u2581\u0d2c\u0d48\u0d2c\u0d3f\u0d7e": 1696,
  "\u2581perfect": 1697,
  "\u25819.": 1698,
  "\u2581\u0c24\u0c3f\u0c30\u0c3f\u0c17\u0c3f": 1699,
  "\u2581including": 1700,
  "\u2581yourselves": 1701,
  "\u0ca4\u0ccd": 1702,
  "\u2581\u0ca4\u0ccb\u0cb0\u0cbf\u0cb8": 1703,
  "\u2581poor": 1704,
  "\u0baa\u0bcd\u0baa\u0b9f\u0bc1\u0bae\u0bcd": 1705,
  "\u2581Greek": 1706,
  "\u0bbe\u0bae\u0bb2\u0bcd": 1707,
  "\u0c3f\u0c30\u0c3f": 1708,
  "\u2581drink": 1709,
  "B": 1710,
  "\u2581\u0caf\u0cc7\u0cb8\u0cc1\u0cb5\u0cbf\u0ca8": 1711,
  "\u2581\u0d28\u0d2e\u0d41\u0d15\u0d4d\u0d15\u0d4d": 1712,
  "\u2581cities": 1713,
  "\u2581\u0d35\u0d30": 1714,
  "\u2581\u0cb9\u0cca\u0cb8": 1715,
  "\u2581\u0ca8\u0ccb\u0ca1\u0cbf": 1716,
  "\u258113.": 1717,
  "\u2581\u0ca8": 1718,
  "\u2581past": 1719,
  "\u2581\u0b87\u0bb0\u0bc1\u0ba8\u0bcd\u0ba4\u0ba4\u0bc1": 1720,
  "\u2581\u0c8e\u0cb2\u0ccd\u0cb2": 1721,
  "@": 1722,
  "\u2581friend": 1723,
  "\u2581\u0cb8\u0c82\u0c97\u0ca1": 1724,
  "\u0d19\u0d4d\u0d19\u0d33": 1725,
  "\u0d3f\u0d28\u0d4d\u0d31\u0d46": 1726,
  "\u258129": 1727,
  "\u2581\u0b95\u0b9f\u0bb5\u0bc1\u0bb3\u0bcd": 1728,
  "\u0baf\u0bcb": 1729,
  "\u258114:": 1730,
  "\u2581deal": 1731,
  "\u2581\u0baa\u0baf\u0ba9\u0bcd\u0baa\u0b9f\u0bc1\u0ba4\u0bcd\u0ba4": 1732,
  "\u0c41\u0c32\u0c41": 1733,
  "\u0cb5\u0cb0\u0cc1": 1734,
  "\u2581\u0ba8\u0bae\u0b95\u0bcd\u0b95\u0bc1": 1735,
  "\u2581revealed": 1736,
  "\u2581everlasting": 1737,
  "\u2581problem": 1738,
  "\u2581Watchtower": 1739,
  "\u0ca8\u0cc7": 1740,
  "\u2581Please": 1741,
  "\u2581truly": 1742,
  "\u0ca8\u0cbe": 1743,
  "\u2581large": 1744,
  "\u25819:": 1745,
  "\u2581tree": 1746,
  "\u2581\u0c87": 1747,
  "\u2581\u0cae\u0cbe\u0ca1\u0cc1\u0cb5": 1748,
  "\u2581\u0c05\u0c32\u0c3e": 1749,
  "\u0c32\u0c3f": 1750,
  "\u0d24\u0d28\u0d4d\u0d28\u0d46": 1751,
  "\u0b95\u0bcd\u0b95\u0bc1\u0bae\u0bcd": 1752,
  "\u2581accept": 1753,
  "\u2581apostles": 1754,
  "\u258116.": 1755,
  "\u2581matters": 1756,
  "\u2581\u0cac\u0c82\u0ca6": 1757,
  "\u2581reward": 1758,
  "\u2581\u0d36\u0d3f\u0d15\u0d4d\u0d37": 1759,
  "\u2581Acts": 1760,
  "\u0c2a\u0c4d": 1761,
  "\u2581praise": 1762,
  "\u2581mouth": 1763,
  "\u2581\u0b85\u0ba4\u0bbf\u0b95": 1764,
  "\u2581principles": 1765,
  "\u2581cut": 1766,
  "\u0d3e\u0d2f\u0d3f\u0d30\u0d41\u0d28\u0d4d\u0d28\u0d41": 1767,
  "\u2581\u0ba8\u0bb2\u0bcd\u0bb2": 1768,
  "\u2581\u0cb8\u0cb9\u0cbe\u0caf": 1769,
  "\u2581signs": 1770,
  "\u2581\u0c05\u0c32\u0c3e\u0c02\u0c1f\u0c3f": 1771,
  "\u0cb6": 1772,
  "\u2581\u0b8e\u0ba9\u0bcd\u0baa\u0ba4\u0bc1": 1773,
  "\u2581K": 1774,
  "\u2581guidance": 1775,
  "\u2581sister": 1776,
  "F": 1777,
  "\u2581priests": 1778,
  "\u0d24\u0d4d\u0d24\u0d4d": 1779,
  "\u2581sight": 1780,
  "\u2581F": 1781,
  "\u0cca": 1782,
  "\u0c36": 1783,
  "\u2581\u0bb5\u0bc7\u0bb2\u0bc8": 1784,
  "\u258115.": 1785,
  "\u0d24\u0d4d\u0d30": 1786,
  "\u0ca4\u0cc6": 1787,
  "\u2581\u0c36": 1788,
  "\u0baa\u0bcb\u0ba4\u0bc1": 1789,
  "\u2581bear": 1790,
  "\u2581listen": 1791,
  "\u2581Revelation": 1792,
  "\u258117.": 1793,
  "\u0baa\u0bcd\u0baa\u0b9f\u0bcd\u0b9f\u0ba4\u0bc1": 1794,
  "\u2581Does": 1795,
  "\u0cb5\u0cbe\u0c97": 1796,
  "\u0bb2\u0bbe": 1797,
  "\u2581\u0c15\u0c40\u0c30\u0c4d\u0c24\u0c28": 1798,
  "\u2581\u0d1a\u0d46\u0d2f\u0d4d\u0d2f\u0d41\u0d02": 1799,
  "\u0ba4\u0bb1\u0bcd\u0b95\u0bc1": 1800,
  "\u0bcb\u0b9f\u0bc1": 1801,
  "\u2581rather": 1802,
  "\u2581authority": 1803,
  "\u2581\u0d2e": 1804,
  "\u2581P": 1805,
  "\u0d35\u0d28\u0d4d": 1806,
  "\u2581deeds": 1807,
  "\u2581form": 1808,
  "\u2581resurrection": 1809,
  "\u2581gold": 1810,
  "\u2581\u0ba8\u0bae\u0bcd": 1811,
  "\u2581\u0c2a\u0c47\u0c30\u0c41": 1812,
  "\u2581\u0c26\u0c3e\u0c35\u0c40\u0c26\u0c41": 1813,
  "\u0c21\u0c3f": 1814,
  "\u0bb0\u0bbf": 1815,
  "\u0bc1\u0b9f\u0ba9\u0bcd": 1816,
  "\u2581\u0c95\u0cc6\u0cb2\u0cb5\u0cc1": 1817,
  "\u2581\u0d2a\u0d31\u0d2f\u0d41\u0d15": 1818,
  "\u2581\u0c2a\u0c4d\u0c30\u0c47\u0c2e": 1819,
  "\u25816.": 1820,
  "\u2581\u0c15\u0c4a\u0c28\u0c4d\u0c28\u0c3f": 1821,
  "\u2581\u0d07\u0d35\u0d3f\u0d1f\u0d46": 1822,
  "\u2581months": 1823,
  "\u2581\u0d28\u0d3f": 1824,
  "\u2581happiness": 1825,
  "\u0bc1\u0bae\u0bcd\u0baa\u0b9f\u0bbf": 1826,
  "\u2581loved": 1827,
  "\u2581\u0b8e\u0ba9\u0bb5\u0bc7": 1828,
  "\u2581draw": 1829,
  "is": 1830,
  "\u0c26\u0c47": 1831,
  "\u2581\u0b8e\u0bb2\u0bcd\u0bb2\u0bbe": 1832,
  "\u0c35\u0c3e": 1833,
  "\u0c41\u0c21\u0c41": 1834,
  "\u0c47\u0c02\u0c26\u0c41\u0c15\u0c41": 1835,
  "\u2581\u0d24\u0d28\u0d4d\u0d31\u0d46": 1836,
  "\u0bbf\u0bb2\u0bc1\u0bae\u0bcd": 1837,
  "\u2581behind": 1838,
  "\u0cb2\u0ccd\u0caa\u0c9f\u0ccd\u0c9f": 1839,
  "\u2581\u0d1f\u0d46": 1840,
  "\u2581followers": 1841,
  "\u0ba9\u0bc8": 1842,
  "\u2581Footnote": 1843,
  "\u2581\u0c95\u0ccd\u0cb0\u0cc8\u0cb8\u0ccd\u0ca4": 1844,
  "\u2581\u0d05\u0d24\u0d3f\u0d28\u0d3e\u0d32\u0d4d": 1845,
  "\u2581doubt": 1846,
  "\u0d4a": 1847,
  "\u2581Show": 1848,
  "\u2581\u0d2f\u0d47\u0d36\u0d41": 1849,
  "\u2581born": 1850,
  "\u25819,": 1851,
  "l": 1852,
  "\u25816,": 1853,
  "it": 1854,
  "\u2581send": 1855,
  "\u2581\u0b95\u0bbe\u0b9f\u0bcd\u0b9f": 1856,
  "\u2581enough": 1857,
  "\u2581\u0c38\u0c3e": 1858,
  "\u258117:": 1859,
  "\u2581Today": 1860,
  "\u2581none": 1861,
  "\u2581\u0d1a\u0d46\u0d2f\u0d4d\u0d2f\u0d41\u0d15": 1862,
  "\u2581meet": 1863,
  "\u2581started": 1864,
  "\u0caf\u0cc1": 1865,
  "ness": 1866,
  "\u2581\u0ba4\u0bbe\u0ba9\u0bcd": 1867,
  "\u2581Romans": 1868,
  "\u2581\u0bb5\u0bbf": 1869,
  "\u2581local": 1870,
  "\u2581involved": 1871,
  "\u2581\u0c28\u0c40\u0c15\u0c41": 1872,
  "\u2581sign": 1873,
  "\u2581\u0c2a\u0c4d\u0c30": 1874,
  "\u2581\u0d1e\u0d19\u0d4d\u0d19\u0d33\u0d41\u0d1f\u0d46": 1875,
  "\u2581\u0c2f\u0c46\u0c39\u0c4b\u0c35\u0c3e\u0c15\u0c41": 1876,
  "\u0d28\u0d4d\u0d28\u0d41": 1877,
  "\u2581shows": 1878,
  "\u2581Pictures": 1879,
  "\u0b9a\u0bbf": 1880,
  "\u2581whatever": 1881,
  "\u2581According": 1882,
  "\u2581\u0baa": 1883,
  "\u0ba8\u0baa\u0bbf\u0baf\u0bc7": 1884,
  "\u2581divine": 1885,
  "\u2581action": 1886,
  "\u2581\u0baa\u0bc6\u0bb1": 1887,
  "\u2581further": 1888,
  "\u2581\u0b95\u0bca\u0ba3\u0bcd\u0b9f": 1889,
  "\u2581fall": 1890,
  "!)": 1891,
  "f": 1892,
  "\u2581\u0d07\u0d19\u0d4d\u0d19\u0d28\u0d46": 1893,
  "\u2581similar": 1894,
  "\u2581\u0c1a\u0c3f\u0c24\u0c4d\u0c30": 1895,
  "\u2581write": 1896,
  "\u2581interest": 1897,
  "\u0d1f\u0d3f": 1898,
  "\u2581concerning": 1899,
  "\u25815,": 1900,
  "\u258126": 1901,
  "\u2581Noah": 1902,
  "\u0d31\u0d4d\u0d31\u0d4d": 1903,
  "\u2581returned": 1904,
  "\u0c46": 1905,
  "\u0d3f\u0d2f": 1906,
  "\u2581fully": 1907,
  "\u2581\u0d35\u0d33\u0d30\u0d46": 1908,
  "\u2581based": 1909,
  "\u2581start": 1910,
  "\u0c3e\u0c32\u0c28\u0c41": 1911,
  "\u2581individuals": 1912,
  "\u2581material": 1913,
  "\u2581\u0c95\u0cc7\u0cb3": 1914,
  "\u2581\u0d05\u0d24\u0d3f\u0d28\u0d4d": 1915,
  "\u2581James": 1916,
  "\u2581\u0b87\u0ba4\u0bc8": 1917,
  "\u0cc1\u0ca4\u0ccd\u0ca4\u0cc7\u0cb5\u0cc6": 1918,
  "\u2581\u0c35\u0c3e\u0c1f\u0c3f\u0c28\u0c3f": 1919,
  "\u0bb1": 1920,
  "\u2581Move": 1921,
  "\u2581\u0c05\u0c28\u0c41": 1922,
  "\u2581\u0d35\u0d34\u0d3f": 1923,
  "\u2581States": 1924,
  "\u0bbf\u0b9f\u0bae\u0bcd": 1925,
  "\u0c32\u0c47": 1926,
  "\u0c35\u0c32\u0c46\u0c28\u0c41": 1927,
  "\u2581\u0c30\u0c3e": 1928,
  "\u0bb2\u0bbf": 1929,
  "en": 1930,
  "\u0c1a\u0c4d\u0c1a": 1931,
  "\u2581\u0cae": 1932,
  "\u2581\u0cae\u0cbe\u0ca1\u0cbf\u0ca6": 1933,
  "\u0bc0\u0bb0\u0bcd\u0b95\u0bb3\u0bcd": 1934,
  "\u2581\u0ba4\u0b99\u0bcd\u0b95\u0bb3\u0bcd": 1935,
  "\u2581\u0ca6\u0cca\u0ca1\u0ccd\u0ca1": 1936,
  "\u0d23\u0d4d\u0d1f": 1937,
  "\u0bbf\u0b9f": 1938,
  "\u2581evidence": 1939,
  "\u2581\u0ca8\u0cae\u0ccd\u0cae\u0ca8\u0ccd\u0ca8\u0cc1": 1940,
  "\u2581month": 1941,
  "\u0d41\u0d15\u0d2f\u0d3f\u0d32\u0d4d\u0d32": 1942,
  "\u25812,": 1943,
  "\u2581anger": 1944,
  "\u2581spiritually": 1945,
  "\u0cb5\u0cc6": 1946,
  "\u2581sisters": 1947,
  "\u2581slave": 1948,
  "\u0c3f\u0c28\u0c2a\u0c4d\u0c2a\u0c41\u0c21\u0c41": 1949,
  "\u2581NW": 1950,
  "\u2581Did": 1951,
  "\u2581Daniel": 1952,
  "\u2581enter": 1953,
  "\u0cbf\u0ca6\u0ccd\u0ca6\u0cbe\u0ca8\u0cc6": 1954,
  "h": 1955,
  "\u2581\u0caa\u0ccd\u0cb0": 1956,
  "\u2581gift": 1957,
  "\u258150": 1958,
  "\u0bc1\u0b95\u0bbf\u0bb1": 1959,
  "\u0d3f\u0d1f\u0d4d\u0d1f\u0d41\u0d23\u0d4d\u0d1f\u0d4d": 1960,
  "\u2581\u0cb8\u0ca4\u0ccd\u0caf": 1961,
  "\u0d24\u0d4d\u0d24\u0d3f\u0d28\u0d4d\u0d31\u0d46": 1962,
  "\u2581\u0c0e\u0c02\u0c24\u0c4b": 1963,
  "\u0bc1\u0bb5\u0ba4\u0bc1": 1964,
  "\u2581showed": 1965,
  "\u2581enemies": 1966,
  "\u2581\u0d28\u0d3f\u0d19\u0d4d\u0d19\u0d33": 1967,
  "\u2581\u0c95\u0cc0\u0cb0\u0ccd\u0ca4\u0ca8\u0cc6": 1968,
  "\u0c3e\u0c32\u0c28\u0c3f": 1969,
  "\u2581\u0d2a\u0d31\u0d2f\u0d41\u0d28\u0d4d\u0d28\u0d41": 1970,
  "\u2581changed": 1971,
  "\u2581\u0d35\u0d3e": 1972,
  "\u2581raised": 1973,
  "\u2581gain": 1974,
  "\u2581simply": 1975,
  "\u25814,": 1976,
  "\u2581\u0c87\u0cb0\u0cc1\u0cb5": 1977,
  "\u0d3e\u0d28\u0d41\u0d02": 1978,
  "\u2581T": 1979,
  "\u0d3f\u0d28\u0d46": 1980,
  "\u2581\u0ba8": 1981,
  "\u0d19\u0d4d\u0d19\u0d33\u0d41\u0d02": 1982,
  "\u0d31\u0d3f\u0d2f": 1983,
  "\u2581mentioned": 1984,
  "\u0caf\u0cc7": 1985,
  "\u2581Like": 1986,
  "\u2581Rather": 1987,
  "us": 1988,
  "k": 1989,
  "\u0d32\u0d3f": 1990,
  "\u2581sun": 1991,
  "\u2581\u0cb5\u0cbf": 1992,
  "\u2581wonderful": 1993,
  "\u0c2d": 1994,
  "\u2581available": 1995,
  "\u2581longer": 1996,
  "\u2581\u0cac\u0cc7\u0cb0\u0cc6": 1997,
  "\u2581\u0c2e\u0c40\u0c26": 1998,
  "\u2581clean": 1999,
  "\u2581THE": 2000,
  "\u2581blessings": 2001,
  "\u2581\u0c30\u0c46\u0c02\u0c21\u0c41": 2002,
  "\u2581\u0baa\u0bbf\u0bb1\u0b95\u0bc1": 2003,
  "\u2581\u0bae\u0bc1": 2004,
  "\u0c1a\u0c47\u0c24": 2005,
  "\u2581\u0c28\u0c3f\u0c28\u0c4d\u0c28\u0c41": 2006,
  "\u0b95\u0bc1": 2007,
  "as": 2008,
  "\u2581\u0c24\u0c3e\u0c28\u0c41": 2009,
  "\u0b9f": 2010,
  "\u2581qualities": 2011,
  "\u2581\u0ba8\u0bae\u0bcd\u0bae\u0bc1\u0b9f\u0bc8\u0baf": 2012,
  "\u2581blessing": 2013,
  "w": 2014,
  "\u0d3e\u0d24\u0d46": 2015,
  "\u2581Pharaoh": 2016,
  "\u2581\u0bae\u0bc1\u0ba4\u0bb2\u0bcd": 2017,
  "\u2581effect": 2018,
  "\u2581door": 2019,
  "\u2581percent": 2020,
  "\u2581cast": 2021,
  "\u0d3f\u0d30\u0d41\u0d28\u0d4d\u0d28\u0d41": 2022,
  "\u2581Devil": 2023,
  "\u0cac": 2024,
  "\u0cbf\u0ca8\u0cb2\u0ccd\u0cb2\u0cbf": 2025,
  "\u2581deep": 2026,
  "\u0cc1\u0cb5\u0ca8\u0cc1": 2027,
  "\u2581comfort": 2028,
  "\u2581\u0cb9": 2029,
  "\u2581Where": 2030,
  "\u2581Dur": 2031,
  "\u2581myself": 2032,
  "\u0c41\u0c32": 2033,
  "\u2581\u0bae\u0bbf\u0b95\u0bb5\u0bc1\u0bae\u0bcd": 2034,
  "\u0d28\u0d3f\u0d28\u0d4d\u0d28\u0d4d": 2035,
  "\u0d24\u0d3e\u0d23\u0d4d": 2036,
  "\u0cb7": 2037,
  "\u2581ago": 2038,
  "\u2581Would": 2039,
  "\u2581stay": 2040,
  "\u0c97\u0cb3\u0ca8\u0ccd\u0ca8\u0cc2": 2041,
  "\u2581U": 2042,
  "\u2581saith": 2043,
  "ar": 2044,
  "\u2581Just": 2045,
  "\u0bb5\u0bb0": 2046,
  "\u0b87": 2047,
  "\u2581led": 2048,
  "\u2581Well": 2049,
  "\u2581\u0c17\u0c4a\u0c2a\u0c4d\u0c2a": 2050,
  "\u2581public": 2051,
  "\u2581Name": 2052,
  "\u0d24\u0d3e": 2053,
  "\u2581\u25a1": 2054,
  "\u2581\u0d07\u0d32\u0d4d\u0d32": 2055,
  "\u2581\u0d30\u0d3f": 2056,
  "\u2581history": 2057,
  "\u0cc1\u0cb5\u0ca6\u0c95\u0ccd\u0c95\u0cc6": 2058,
  "\u2581Don": 2059,
  "\u0bb0\u0bbe": 2060,
  "\u0cbf\u0caf": 2061,
  "\u2581speaking": 2062,
  "\u0cad": 2063,
  "\u0c3e\u0c02": 2064,
  "\u0c97\u0cb3\u0cbf\u0c82\u0ca6": 2065,
  "\u0c1c\u0c4d": 2066,
  "\u2581\u0d05\u0d35\u0d30": 2067,
  "\u2581build": 2068,
  "6": 2069,
  "\u2581rule": 2070,
  "\u2581serious": 2071,
  "\u0c35\u0c47": 2072,
  "\u0bbe\u0bb3\u0bcd": 2073,
  "\u2581\u0b89\u0ba3\u0bcd\u0bae\u0bc8": 2074,
  "\u2581\u0c05\u0c35\u0c3f": 2075,
  "\u2581promised": 2076,
  "\u2581\u0ca8\u0c82\u0ca4\u0cb0": 2077,
  "\u2581\u0d0e\u0d24\u0d4d\u0d30": 2078,
  "\u2581perhaps": 2079,
  "\u2581\u0c95\u0cc8": 2080,
  "\u2581\u0cb0": 2081,
  "\u2581else": 2082,
  "\u2581obey": 2083,
  "\u0d1c": 2084,
  "\u2581prayers": 2085,
  "\u2581Babylon": 2086,
  "\u2581\u0c8f\u0c95\u0cc6": 2087,
  "\u2581takes": 2088,
  "\u0c27": 2089,
  "\u2581meeting": 2090,
  "\u2581\u0b89\u0b99\u0bcd\u0b95\u0bb3\u0bc8": 2091,
  "\u0baa\u0bcd\u0baa\u0b9f\u0bc1\u0ba4\u0bcd\u0ba4": 2092,
  "\u2581display": 2093,
  "\u2581kings": 2094,
  "\u2581\u0ca8\u0cbf\u0ca8\u0c97\u0cc6": 2095,
  "\u2581\u0c26": 2096,
  "\u2581\u0d28\u0d4d\u0d28\u0d41": 2097,
  "\u2581million": 2098,
  "\u0cb5\u0cb0": 2099,
  "\u0c40": 2100,
  "est": 2101,
  "\u2581\u0c05\u0c15\u0c4d\u0c15\u0c21": 2102,
  "\u0cb5\u0cbf": 2103,
  "\u2581\u0c30\u0c3e\u0c1c\u0c41": 2104,
  "\u2581inspired": 2105,
  "\u2581\u0c09": 2106,
  "\u2581\u0bae\u0bc1\u0b9f\u0bbf\u0baf\u0bb5\u0bbf\u0bb2\u0bcd\u0bb2\u0bc8": 2107,
  "\u2581bread": 2108,
  "\u2581\u0d1a\u0d46\u0d2f\u0d4d\u0d2f\u0d41\u0d28\u0d4d\u0d28": 2109,
  "\u2581X": 2110,
  "!\"": 2111,
  "\u0b95\u0bb3": 2112,
  "\u2581\u0d07\u0d1f": 2113,
  "\u0ca8\u0ccd\u0ca8": 2114,
  "U": 2115,
  "\u2581less": 2116,
  "\u2581blessed": 2117,
  "\u2581\u0baa\u0bc7\u0b9a": 2118,
  "\u2581\u0cb6": 2119,
  "\u2581--": 2120,
  "\u0ca8\u0ccb": 2121,
  "\u2581destroyed": 2122,
  "\u2581\u0d15\u0d3e\u0d23": 2123,
  "\u0c9f\u0ccd\u0c9f": 2124,
  "\u2581\u0d15\u0d48": 2125,
  "\u0d30\u0d41": 2126,
  "\u2581everyone": 2127,
  "\u2581\u0c26\u0c3e\u0c28\u0c3f\u0c28\u0c3f": 2128,
  "v": 2129,
  "If": 2130,
  "\u0bb0\u0bbf\u0baf": 2131,
  "\u2581fruit": 2132,
  "\u2581\u0c0e\u0c02\u0c24": 2133,
  "\u2581effort": 2134,
  "\u2581line": 2135,
  "ther": 2136,
  "\u2581least": 2137,
  "\u0ca1\u0ccd": 2138,
  "\u0c35\u0c32\u0c46": 2139,
  "\u2581\u0d38\u0d24\u0d4d\u0d2f": 2140,
  "\u2581\u0c35\u0c4d\u0c2f\u0c15\u0c4d\u0c24\u0c3f": 2141,
  "\u2581\u0c32\u0c4b": 2142,
  "\u2581common": 2143,
  "\u2581\u0bae\u0bb1\u0bcd\u0bb1": 2144,
  "\u2581families": 2145,
  "\u2581error": 2146,
  "\u0bbf\u0bb0\u0bc1\u0b95\u0bcd\u0b95\u0bc1\u0bae\u0bcd": 2147,
  "\u2581circumstances": 2148,
  "\u2581\u0d26\u0d48\u0d35\u0d02": 2149,
  "of": 2150,
  "\u2581physical": 2151,
  "\u2581\u0bae\u0bbe": 2152,
  "\u2581\u0cae\u0cbe\u0ca1\u0cbf": 2153,
  "\u2581sword": 2154,
  "\u0c35\u0c3e\u0c21\u0c41": 2155,
  "\u2581served": 2156,
  "\u2581itself": 2157,
  "\u0c1a\u0c47\u0c2f": 2158,
  "\u0cc8": 2159,
  "\u2581named": 2160,
  "\u2581caused": 2161,
  "\u0bbf\u0bb0\u0bc1\u0ba8\u0bcd\u0ba4": 2162,
  "\u2581easy": 2163,
  "\u2581\u0c8e\u0c82\u0cac\u0cc1\u0ca6\u0ca8\u0ccd\u0ca8\u0cc1": 2164,
  "\u2581Go": 2165,
  "\u2581held": 2166,
  "N": 2167,
  "\u2581window": 2168,
  "\u0c41\u0c15\u0c4a\u0c28\u0c3f": 2169,
  "\u2581half": 2170,
  "\u0c9c": 2171,
  "\u2581Jeremiah": 2172,
  "\u2581\u0c2e\u0c27\u0c4d\u0c2f": 2173,
  "\u2581area": 2174,
  "\u2581Come": 2175,
  "\u2581\u0c05\u0c02\u0c1f\u0c47": 2176,
  "\u2581believed": 2177,
  "\u2581Behold": 2178,
  "\u2581un": 2179,
  "\u2581\u0bb5\u0bbf\u0b9f": 2180,
  "\u0c82\u0ca4": 2181,
  "\u2581creation": 2182,
  "\u2581\u0c05\u0c02\u0c24": 2183,
  "\u2581position": 2184,
  "\u2581\u0c35\u0c3e\u0c1f\u0c3f": 2185,
  "\u2581Hebrews": 2186,
  "\u0c28\u0c28\u0c3f": 2187,
  "\u2581type": 2188,
  "\u2581G": 2189,
  "\u2581countries": 2190,
  "\u2581report": 2191,
  "\u2581\u0c85\u0cb2\u0ccd\u0cb2\u0cbf": 2192,
  "\u0baa\u0bbf": 2193,
  "\u2581\u0cb8\u0cbe": 2194,
  "\u0ca6\u0ccd\u0ca6\u0cc1": 2195,
  "\u2581gone": 2196,
  "\u0bbf\u0ba9": 2197,
  "\u2581carry": 2198,
  "\u2581\u0c93\u0ca6\u0cbf": 2199,
  "\u2581\u0c17\u0c3e\u0c28\u0c3f": 2200,
  "\u0c35\u0c32\u0c28": 2201,
  "\u258118.": 2202,
  "\u2581spoken": 2203,
  "\u2581Credit": 2204,
  "le": 2205,
  "\u0bc8\u0baa\u0bcd": 2206,
  "\u2581\u0caf": 2207,
  "\u2581\u0d2a\u0d4b": 2208,
  "\u2581fight": 2209,
  "God": 2210,
  "\u2581honor": 2211,
  "\u2581\u0cae\u0c82\u0ca6\u0cbf": 2212,
  "\u2581killed": 2213,
  "\u2581\u0b87\u0bb0\u0ba3\u0bcd\u0b9f\u0bc1": 2214,
  "\u2581\u0c2f": 2215,
  "\u2581\u0c85\u0ca7\u0ccd\u0caf\u0caf\u0ca8": 2216,
  "\u2581Hebrew": 2217,
  "\u2581files": 2218,
  "\u0d2e\u0d3e\u0d30\u0d4d": 2219,
  "\u2581thereof": 2220,
  "\u2581efforts": 2221,
  "\u2581\u0d0e\u0d32\u0d4d\u0d32\u0d3e\u0d02": 2222,
  "\u2581gods": 2223,
  "\u0c95\u0cb0": 2224,
  "\u0d4b\u0d1f\u0d4d": 2225,
  "\u2581powerful": 2226,
  "\u2581hast": 2227,
  "\u0c3e\u0c32\u0c4d\u0c32\u0c4b": 2228,
  "\u2581reach": 2229,
  "\u0d3f\u0d32\u0d46": 2230,
  "\u2581Line": 2231,
  "\u2581offered": 2232,
  "\u2581\u0cb8\u0cae\u0caf": 2233,
  "\u2581\u0d36": 2234,
  "\u2581\u0bae\u0bc1\u0b9f\u0bbf\u0baf\u0bc1\u0bae\u0bcd": 2235,
  "\u2581source": 2236,
  "\u2581ground": 2237,
  "\u2581\u0caa\u0ccc\u0cb2\u0ca8\u0cc1": 2238,
  "\u2581\u0baa\u0b9f\u0bae": 2239,
  "\u0d3f\u0d30\u0d3f\u0d15\u0d4d\u0d15\u0d41\u0d28\u0d4d\u0d28": 2240,
  "\u2581\u0c38\u0c47\u0c35": 2241,
  "\u2581\u0c86\u0ca6\u0cb0\u0cc2": 2242,
  "\u2581\u0caa\u0ccd\u0cb0\u0ca4\u0cbf": 2243,
  "\u2581\u0c24\u0c02\u0c21\u0c4d\u0c30\u0c3f": 2244,
  "\u0c3e\u0c30\u0c3e": 2245,
  "H": 2246,
  "\u2581\u0baa\u0bcb\u0ba9\u0bcd\u0bb1": 2247,
  "\u2581considered": 2248,
  "\u0bb1\u0bc1": 2249,
  "\u0cac\u0cb3\u0cbf\u0c97\u0cc6": 2250,
  "\u0d2f\u0d3e\u0d2f\u0d3f": 2251,
  "\u2581disc": 2252,
  "\u2581examples": 2253,
  "\u2581\u0c15\u0c4d\u0c30\u0c48\u0c38\u0c4d\u0c24\u0c35": 2254,
  "\u2581path": 2255,
  "\u0bae\u0bc1\u0bb3\u0bcd\u0bb3": 2256,
  "\u2581\u0c07\u0c2a\u0c4d\u0c2a\u0c41\u0c21\u0c41": 2257,
  "\u2581kill": 2258,
  "\u0c2e\u0c42": 2259,
  "\u2581\u0d0f\u0d31\u0d4d\u0d31\u0d35\u0d41\u0d02": 2260,
  "\u2581confidence": 2261,
  "\u258118:": 2262,
  "\u0cc1\u0cb5\u0ca6\u0cc1": 2263,
  "\u0c2e\u0c41\u0c32\u0c41": 2264,
  "\u2581passed": 2265,
  "\u2581failed": 2266,
  "\u2581\u0c06\u0c2f\u0c28\u0c28\u0c41": 2267,
  "\u0cbf\u0cb2\u0ccd\u0cb2": 2268,
  "\u2581choose": 2269,
  "\u0ca8\u0cc6\u0caf": 2270,
  "\u2581\u0d30": 2271,
  "\u0d2a\u0d4d\u0d2a\u0d4b\u0d33\u0d4d": 2272,
  "\u0d31\u0d3f": 2273,
  "\u2581\u0cac\u0cbf": 2274,
  "\u0d15\u0d33": 2275,
  "\u2581Surely": 2276,
  "\u2581\u0baa\u0bc6\u0bb0\u0bbf\u0baf": 2277,
  "\u2581Samuel": 2278,
  "\u2581wives": 2279,
  "\u2581\u0c38\u0c02": 2280,
  "\u0cb0\u0ccb": 2281,
  "\u2581\u0c95\u0ccd\u0cb0\u0cbf\u0cb8\u0ccd\u0ca4\u0ca8": 2282,
  "\u0b95\u0bc2\u0b9f": 2283,
  "\u2581accepted": 2284,
  "\u2581pay": 2285,
  "\u2581seem": 2286,
  "\u0d24\u0d4d\u0d24\u0d3f\u0d28\u0d41": 2287,
  "\u2581\u0b95\u0bcb\u0baa\u0bcd\u0baa\u0bc1": 2288,
  "\u0d3f\u0d32": 2289,
  "\u2581\u0c17": 2290,
  "\u2581\u0d09": 2291,
  "\u0d28\u0d41\u0d02": 2292,
  "\u2581\u0ca6\u0cbf\u0ca8": 2293,
  "\u0d3e\u0d7d": 2294,
  "\u2581congregations": 2295,
  "\u2581\u0c87\u0ca6\u0ca8\u0ccd\u0ca8\u0cc1": 2296,
  "\u2581\u0c24\u0c30\u0c41\u0c35\u0c3e\u0c24": 2297,
  "\u2581\u0b89": 2298,
  "\u2581\u0c2e\u0c4a\u0c26\u0c1f\u0c3f": 2299,
  "\u258160": 2300,
  "\u2581\u0ca4\u0cbf\u0cb3\u0cbf\u0cb8": 2301,
  "\u2581older": 2302,
  "\u0bbf\u0bb2\u0bbf\u0bb0\u0bc1\u0ba8\u0bcd\u0ba4\u0bc1": 2303,
  "\u0d1f\u0d4d\u0d1f\u0d3f": 2304,
  "\u0d19\u0d4d\u0d19\u0d33\u0d46": 2305,
  "\u0d1f\u0d4d\u0d1f\u0d46": 2306,
  "\u2581\u0c2f\u0c46\u0c39\u0c4b\u0c35\u0c3e\u0c28\u0c41": 2307,
  "\u2581issue": 2308,
  "\u0c24\u0c4d\u0c24": 2309,
  "\u0c2e\u0c4b": 2310,
  "\u2581\u0c15\u0c41": 2311,
  "\u0d1a\u0d4d\u0d1a\u0d41": 2312,
  "\u2581sound": 2313,
  "\u0cc1\u0ca4\u0ccd\u0ca4\u0cbf\u0ca6\u0ccd\u0ca6": 2314,
  "\u0c35\u0c3e\u0c30\u0c3f": 2315,
  "\u2581prophecy": 2316,
  "\u2581\u0b92\u0ba9\u0bcd\u0bb1\u0bc1": 2317,
  "\u2581changes": 2318,
  "\u2581key": 2319,
  "\u2581lie": 2320,
  "\u2581Genesis": 2321,
  "\u0c37\u0c4d": 2322,
  "\u2581followed": 2323,
  "\u0d2c": 2324,
  "\u2581\u0c35\u0c3f\u0c37\u0c2f\u0c02\u0c32\u0c4b": 2325,
  "\u2581\u0c85\u0c82\u0ca6\u0cb0\u0cc6": 2326,
  "\u2581\u0d1a\u0d46\u0d2f\u0d4d\u0d2f\u0d41\u0d28\u0d4d\u0d28\u0d41": 2327,
  "\u0c15\u0c40": 2328,
  "\u0caf\u0cb2\u0ccd\u0cb2\u0cbf": 2329,
  "\u258134": 2330,
  "L": 2331,
  "\u2581\u0ba8\u0bae\u0bcd\u0baa": 2332,
  "\u0bc1\u0bb5\u0ba4\u0bb1\u0bcd\u0b95\u0bc1": 2333,
  "\u2581seed": 2334,
  "\u0c32\u0c4d\u0c32\u0c4b": 2335,
  "\u0c41\u0c1f": 2336,
  "\u0cc1\u0cb5\u0ca6\u0cbf\u0cb2\u0ccd\u0cb2": 2337,
  "\u0c41\u0c26\u0c41\u0c30\u0c41": 2338,
  "\u2581rich": 2339,
  "\u2581\u0cb5\u0cbf\u0cb7\u0caf\u0ca6\u0cb2\u0ccd\u0cb2\u0cbf": 2340,
  "\u2581visit": 2341,
  "\u2581decision": 2342,
  "\u2581letter": 2343,
  "\u2581\u0ca8\u0cc0\u0ca1": 2344,
  "\u2581throughout": 2345,
  "\u2581regarding": 2346,
  "\u0bc1\u0bae\u0bcd\u0baa\u0bcb\u0ba4\u0bc1": 2347,
  "\u2581\u0caa\u0ccd\u0cb0\u0c95\u0cbe\u0cb0": 2348,
  "\u2581May": 2349,
  "\u2581\u0cae\u0c95\u0ccd\u0c95\u0cb3": 2350,
  "\u2581built": 2351,
  "\u2581\u0c87\u0ca8\u0ccd\u0ca8\u0cc2": 2352,
  "\u0cc1\u0ca4\u0ccd\u0ca4\u0cc7\u0ca8\u0cc6": 2353,
  "\u2581Mary": 2354,
  "\u2581\u0cb9\u0cc7\u0cb3\u0cbf\u0ca6\u0ca8\u0cc1": 2355,
  "8": 2356,
  "\u2581\u0c30": 2357,
  "\u2581pioneer": 2358,
  "\u2581therein": 2359,
  "\u2581maintain": 2360,
  "\u2581\u0c2c": 2361,
  "\u258114,": 2362,
  "\u2581organization": 2363,
  "\u2581mighty": 2364,
  "\u2581meaning": 2365,
  "\u2581Scriptural": 2366,
  "\u2581\u0d28\u0d3e": 2367,
  "\u0d4a\u0d30\u0d41": 2368,
  "\u0d24\u0d41\u0d02": 2369,
  "\u2581\u0c8f\u0c95\u0cc6\u0c82\u0ca6\u0cb0\u0cc6": 2370,
  "\u0c4d\u0c2f": 2371,
  "\u0d27": 2372,
  "\u2581\u0c24": 2373,
  "\u2581\u0c87\u0cb0": 2374,
  "\u2581\u0b95\u0bbf\u0bb1\u0bbf\u0bb8\u0bcd\u0ba4\u0bb5": 2375,
  "\u0d19\u0d4d\u0d19": 2376,
  "\u2581Moreover": 2377,
  "\u0c2e\u0c40": 2378,
  "\u2581create": 2379,
  "\u0ba9\u0bbf": 2380,
  "\u0d34": 2381,
  "\u2581\u0b92\u0bb5\u0bcd\u0bb5\u0bca\u0bb0\u0bc1": 2382,
  "\u2581\u0bb5\u0bc7\u0ba3\u0bcd\u0b9f\u0bbf\u0baf": 2383,
  "\u0ba4\u0bc7": 2384,
  "\u2581\u0c38": 2385,
  "\u2581salvation": 2386,
  "\u2581wait": 2387,
  "\u2581angel": 2388,
  "\u0c3f\u0c02\u0c2a": 2389,
  "\u2581continued": 2390,
  "\u0c28\u0c4b": 2391,
  "\u0d15\u0d4d\u0d15\u0d3f": 2392,
  "\u0d41\u0d15\u0d33\u0d4d": 2393,
  "\u0bbf\u0bb1\u0ba4\u0bc1": 2394,
  "\u2581standards": 2395,
  "\u2581\u0b95\u0bbe\u0bb2": 2396,
  "\u2581single": 2397,
  "\u2581\u0c1a\u0c3f\u0c28\u0c4d\u0c28": 2398,
  "\u2581\u0cae\u0cbe\u0ca1\u0cb2\u0cc1": 2399,
  "\u0bae\u0bbf": 2400,
  "\u2581stop": 2401,
  "\u0bc1\u0ba4\u0bb2\u0bcd": 2402,
  "\u0c82\u0ca1": 2403,
  "\u2581Us": 2404,
  "\u2581\u0c38\u0c4d": 2405,
  "\u2581m": 2406,
  "\u0c82": 2407,
  "\u2581promises": 2408,
  "\u0c15\u0c41\u0c02\u0c21\u0c3e": 2409,
  "\u2581complete": 2410,
  "\u2581grow": 2411,
  "\u2581\u0c2e\u0c3e\u0c24\u0c4d\u0c30\u0c2e\u0c47": 2412,
  "\u2581\u0d0f": 2413,
  "\u2581\u0ba8\u0bbf\u0bb2\u0bc8": 2414,
  "el": 2415,
  "\u2581\u0b85\u0ba4\u0bb1\u0bcd\u0b95\u0bc1": 2416,
  "\u0ba4\u0bcd\u0ba4\u0bc8\u0baf\u0bc1\u0bae\u0bcd": 2417,
  "\u2581pain": 2418,
  "color": 2419,
  "\u2581\u0c32\u0c47\u0c15": 2420,
  "\u2581apply": 2421,
  "\u2581\u0ba4\u0bb0": 2422,
  "\u0c82\u0cac": 2423,
  "\u2581couple": 2424,
  "\u2581\u0d15\u0d3e\u0d30\u0d4d\u0d2f\u0d02": 2425,
  "\u2581ready": 2426,
  "\u2581\u0cac\u0cb2": 2427,
  "\u2581L": 2428,
  "\u0bb0\u0bc1": 2429,
  "\u2581\u0d28\u0d4d": 2430,
  "\u258110,": 2431,
  "\u2581various": 2432,
  "\u0cb8\u0ccd\u0ca4": 2433,
  "\u2581Still": 2434,
  "\u2581\u0c35\u0c46\u0c33\u0c4d\u0c32": 2435,
  "\u0d47\u0d23\u0d4d\u0d1f": 2436,
  "\u2581third": 2437,
  "\u2581\u0cac\u0c82\u0ca6\u0cc1": 2438,
  "\u2581destroy": 2439,
  "\u0c4d\u0c32\u0c4b": 2440,
  "\u0ca7": 2441,
  "\u2581\u0cb8\u0cae\u0caf\u0ca6\u0cb2\u0ccd\u0cb2\u0cbf": 2442,
  "\u2581\u0bae\u0bbe\u0bb1\u0bcd\u0bb1": 2443,
  "\u2581\u0bae\u0ba9": 2444,
  "\u2581Whe": 2445,
  "\u0cc6\u0caf": 2446,
  "\u0bbf\u0bb0\u0bc1\u0b95\u0bcd\u0b95\u0bbf\u0bb1\u0ba4\u0bc1": 2447,
  "\u0cb2\u0cc6": 2448,
  "\u0c38\u0c41": 2449,
  "It": 2450,
  "\u2581several": 2451,
  "\u0c95\u0ccd\u0c95\u0cc2": 2452,
  "\u2581\u0c0e\u0c15\u0c4d\u0c15\u0c41\u0c35": 2453,
  "\u2581Aaron": 2454,
  "\u2581\u0c06\u0c2f\u0c28\u0c15\u0c41": 2455,
  "\u2581\u0c95\u0cc6\u0cb2\u0cb8": 2456,
  "\u2581\u0c2a\u0c46\u0c26\u0c4d\u0c26": 2457,
  "\u2581\u0baa\u0bcb\u0ba4\u0bc1": 2458,
  "\u2581\u0bae\u0bc1\u0b9f\u0bbf\u0baf\u0bbe\u0ba4\u0bc1": 2459,
  "\u2581government": 2460,
  "\u2581\u0d2a\u0d4b\u0d32\u0d46": 2461,
  "\u2581thoughts": 2462,
  "\u0bb5\u0bbf\u0ba9\u0bcd": 2463,
  "\u2581working": 2464,
  "\u2581church": 2465,
  "\u2581preach": 2466,
  "\u2581shown": 2467,
  "\u2581\u0b85\u0bb2\u0bcd\u0bb2\u0bbe\u0bb9\u0bcd\u0bb5\u0bbf\u0ba9\u0bcd": 2468,
  "\u2581prove": 2469,
  "\u2581dwell": 2470,
  "\u0d2e\u0d47": 2471,
  "\u0d30\u0d3e": 2472,
  "\u2581\u0b85\u0bb5\u0bc8": 2473,
  "\u2581Joshua": 2474,
  "\u2581mine": 2475,
  "\u258120:": 2476,
  "\u2581helps": 2477,
  "\u2581\u0c95\u0cca\u0c9f\u0ccd\u0c9f": 2478,
  "\u0bbf\u0ba9\u0bbe\u0bb0\u0bcd": 2479,
  "\u0d3f\u0d30\u0d41\u0d28\u0d4d\u0d28": 2480,
  "\u2581period": 2481,
  "\u2581Life": 2482,
  "\u0bb5\u0bb0\u0bc8": 2483,
  "This": 2484,
  "\u2581instance": 2485,
  "\u2581list": 2486,
  "\u0cc1\u0cb5\u0cc6\u0ca8\u0cc1": 2487,
  "\u2581branch": 2488,
  "\u2581willing": 2489,
  "\u0d3e\u0d28\u0d41\u0d33\u0d4d\u0d33": 2490,
  "\u2581justice": 2491,
  "\u2581\u0ca8\u0cbf\u0c9c": 2492,
  "\u2581\u0c85\u0ca8\u0ccd\u0ca8\u0cc1": 2493,
  "\u2581\u0cae\u0cbe\u0ca4\u0ccd\u0cb0": 2494,
  "\u2581met": 2495,
  "\u2581midst": 2496,
  "\u2581opportunity": 2497,
  "\u0cc1\u0cb5\u0cb0\u0cc1": 2498,
  "\u0d41\u0d35\u0d3e\u0d28\u0d4d": 2499,
  "\u0ba4\u0ba9\u0bcd": 2500,
  "\u0c43": 2501,
  "\u2581\u0bb5\u0bc7\u0bb1\u0bc1": 2502,
  "\u2581\u0c97": 2503,
  "\u2581\u0c05\u0c28\u0c4d\u0c28\u0c3f": 2504,
  "\u2581altar": 2505,
  "\u2581\u0d30\u0d41": 2506,
  "\u2581judge": 2507,
  "\u2581\u0bb5\u0bbf\u0b9f\u0bcd\u0b9f\u0bc1": 2508,
  "\u258122:": 2509,
  "\u2581\u0c09\u0c02\u0c1f\u0c41\u0c02\u0c26\u0c3f": 2510,
  "\u2581\u0d05\u0d24\u0d46": 2511,
  "\u0cae\u0cbe": 2512,
  "\u2581\u0ba4": 2513,
  "\u2581prepared": 2514,
  "\u2581events": 2515,
  "\u2581\u0c09\u0c02\u0c1a": 2516,
  "\u0cb5\u0cbe": 2517,
  "\u2581tried": 2518,
  "\u0bbe\u0bb2\u0bc1\u0bae\u0bcd": 2519,
  "\u0d3f\u0d1f\u0d4d\u0d1f\u0d3f\u0d32\u0d4d\u0d32": 2520,
  "\u2581looking": 2521,
  "\u2581explained": 2522,
  "\u2581\u0baa\u0bc6\u0baf\u0bb0\u0bcd": 2523,
  "\u2581Hence": 2524,
  "\u2581\u0cac": 2525,
  "\u0d28\u0d02": 2526,
  "\u2581speech": 2527,
  "\u0c15\u0c47": 2528,
  "\u2581\u0c2a\u0c46\u0c1f\u0c4d\u0c1f": 2529,
  "\u2581\u0d39": 2530,
  "\u2581daughters": 2531,
  "\u2581\u0b95\u0bc8": 2532,
  "\u0cb2\u0cbf\u0c95\u0ccd\u0c95\u0cbe\u0c97\u0cbf": 2533,
  "\u2581affect": 2534,
  "\u2581True": 2535,
  "\u2581direction": 2536,
  "\u2581filled": 2537,
  "\u2581imitate": 2538,
  "\u2581\u0b87\u0bb0\u0bc1": 2539,
  "\u0c2a\u0c1f\u0c4d\u0c32": 2540,
  "\u2581\u0bae\u0bc1\u0ba9\u0bcd": 2541,
  "\u2581delivered": 2542,
  "\u2581\u0ba8\u0ba9\u0bcd\u0bb1\u0bbf": 2543,
  "\u2581\u0cae\u0c95\u0ccd\u0c95\u0cb3\u0cc1": 2544,
  "\u0ba8": 2545,
  "\u2581pages": 2546,
  "\u0c2c\u0c21\u0c3f\u0c02\u0c26\u0c3f": 2547,
  "\u2581lot": 2548,
  "\u2581\u0d0e\u0d28\u0d3f\u0d15\u0d4d\u0d15\u0d41": 2549,
  "\u0d28\u0d3f\u0d28\u0d4d\u0d28\u0d41": 2550,
  "\u2581Instead": 2551,
  "\u2581ability": 2552,
  "\u2581stated": 2553,
  "\u2581Me": 2554,
  "\u2581\u0c2a\u0c21": 2555,
  "\u2581\u0d05\u0d32\u0d4d\u0d32\u0d3e\u0d39\u0d41\u0d35\u0d3f\u0d28\u0d4d\u0d31\u0d46": 2556,
  "\u2581\u0d15\u0d3e": 2557,
  "\u2581\u0bae\u0bc2\u0bb2\u0bae\u0bcd": 2558,
  "\u0d25": 2559,
  "\u2581Bethel": 2560,
  "\u2581\u0c2e\u0c46": 2561,
  "\u25817,": 2562,
  "\u0cbf\u0ca4\u0ccd\u0ca4\u0cc1": 2563,
  "\u258111,": 2564,
  "\u2581\u0b89\u0bb2\u0b95": 2565,
  "\u2581\u0ba4\u0bae\u0bcd": 2566,
  "\u2581violence": 2567,
  "\u2581\u0b85\u0bb5\u0bb0\u0bc1\u0b95\u0bcd\u0b95\u0bc1": 2568,
  "\u2581office": 2569,
  "\u0bb5\u0bb0\u0bcd\u0b95\u0bb3\u0bbe\u0b95": 2570,
  "\u2581loyal": 2571,
  "\u2581determined": 2572,
  "\u0d19\u0d4d\u0d15": 2573,
  "\u2581godly": 2574,
  "\u2581project": 2575,
  "\u0d2e\u0d3f": 2576,
  "\u2581vital": 2577,
  "\u2581decisions": 2578,
  "\u2581\u0d2a\u0d41\u0d24\u0d3f\u0d2f": 2579,
  "\u2581KDE": 2580,
  "\u2581\u0b9a\u0bbf": 2581,
  "\u2581suffer": 2582,
  "\u2581\u0b87\u0b9f": 2583,
  "\u2581Witness": 2584,
  "\u2581\u0bae\u0bbf\u0b95": 2585,
  "\u2581R": 2586,
  "\u2581advice": 2587,
  "\u2581\u0d15\u0d41": 2588,
  "\u2581\u0cb0\u0cc0\u0ca4\u0cbf\u0caf": 2589,
  "\u0ca8\u0cbf": 2590,
  "\u2581\u0c8e\u0cb0\u0ca1\u0cc1": 2591,
  "ation": 2592,
  "\u0c30\u0c4b": 2593,
  "\u2581thousands": 2594,
  "\u2581wants": 2595,
  "\u0c02\u0c26\u0c3f": 2596,
  "\u0b99\u0bcd": 2597,
  "\u2581Un": 2598,
  "\u0c2c\u0c21\u0c3f": 2599,
  "\u2581\u0d05\u0d32\u0d4d\u0d32": 2600,
  "and": 2601,
  "\u2581\u0baa\u0bca": 2602,
  "\u0c2f\u0c47": 2603,
  "\u2581\u0caf\u0cbe\u0cb5\u0cc1\u0ca6\u0cc7": 2604,
  "\u2581\u0d2a\u0d3e": 2605,
  "\u0d3e\u0d24\u0d4d\u0d24": 2606,
  "\u0d37\u0d4d": 2607,
  "\u0bae\u0bbe\u0baf\u0bcd": 2608,
  "\u2581\u0bae\u0ba4": 2609,
  "\u2581\u0d12": 2610,
  "\u2581First": 2611,
  "\u0c2f\u0c3f": 2612,
  "\u0d35\u0d28": 2613,
  "\u2581Holy": 2614,
  "\u2581\u0c07\u0c36\u0c4d\u0c30\u0c3e\u0c2f\u0c47\u0c32\u0c41": 2615,
  "\u2581\u0cae\u0c97\u0ca8\u0cbe\u0ca6": 2616,
  "\u2581wine": 2617,
  "\u0d28\u0d3e\u0d2f": 2618,
  "\u2581\u0ba4\u0bc7\u0bb5\u0bc8": 2619,
  "\u2581\u0cb9\u0cbe\u0c95": 2620,
  "\u2581\u0b9a\u0bca\u0ba9\u0bcd\u0ba9\u0bbe\u0bb0\u0bcd": 2621,
  "\u0c95\u0cca\u0cb3\u0ccd\u0cb3": 2622,
  "\u2581afraid": 2623,
  "\u2581fell": 2624,
  "\u0c2a\u0c21": 2625,
  "\u2581CD": 2626,
  "\u2581\u0d15\u0d32\u0d4d": 2627,
  "\u0c24\u0c4d": 2628,
  "\u2581desires": 2629,
  "\u2581happen": 2630,
  "\u2581\u0c15\u0c4d\u0c30\u0c40\u0c38\u0c4d\u0c24\u0c41": 2631,
  "\u0cbf\u0cb8\u0cbf": 2632,
  "\u2581silver": 2633,
  "\u2581privilege": 2634,
  "\u2581program": 2635,
  "\u2581\u0c89\u0ca4\u0ccd\u0ca4\u0cb0": 2636,
  "\u2581\u0c1a\u0c47\u0c38\u0c47": 2637,
  "\u2581\u0c2a\u0c4d\u0c30\u0c1c\u0c32\u0c41": 2638,
  "\u2581beyond": 2639,
  "\u2581deliver": 2640,
  "\u0cac\u0cc7\u0c95\u0cc6\u0c82\u0ca6\u0cc1": 2641,
  "\u2581\u0c1a\u0c42\u0c1a\u0c3f": 2642,
  "\u2581\u0cb9\u0ccb\u0c97\u0cbf": 2643,
  "\u2581\u0b87\u0bb0\u0bc1\u0baa\u0bcd\u0baa": 2644,
  "\u0caa\u0ca1\u0cbf\u0cb8": 2645,
  "\u0ba4\u0bcd\u0ba4\u0bc1\u0b95\u0bcd\u0b95\u0bc1": 2646,
  "\u0cc6\u0c82\u0ca6\u0cc1": 2647,
  "\u2581destruction": 2648,
  "\u2581integrity": 2649,
  "\u2581mountains": 2650,
  "\u2581\u0ca8\u0cbf": 2651,
  "\u2581\u0d05\u0d24\u0d3f\u0d32\u0d4d": 2652,
  "\u2581precious": 2653,
  "\u2581rejoice": 2654,
  "\u2581\u0c35\u0c3e\u0c21\u0c41": 2655,
  "\u2581\u0c2a\u0c4b": 2656,
  "\u2581\u0ca8\u0cbf\u0ca8\u0ccd\u0ca8\u0ca8\u0ccd\u0ca8\u0cc1": 2657,
  "\u0b9a\u0bcd\u0b9a": 2658,
  "\u2581\u0c26\u0c3e\u0c28\u0c3f\u0c15\u0c3f": 2659,
  "\u2581either": 2660,
  "\u2581opened": 2661,
  "\u25aa": 2662,
  "\u2581proved": 2663,
  "\u2581\u0c05\u0c35\u0c41\u0c28\u0c41": 2664,
  "\u2581conscience": 2665,
  "\u2581modern": 2666,
  "\u0d2a\u0d4d\u0d2a\u0d46\u0d1f": 2667,
  "\u2581actually": 2668,
  "\u2581\u0d07\u0d28\u0d3f": 2669,
  "\u0c97\u0cca\u0cb3\u0cbf\u0cb8": 2670,
  "\u2581birth": 2671,
  "\u0c05": 2672,
  "\u0c28\u0c42": 2673,
  "\u2581\u0c06\u0c27\u0c4d\u0c2f\u0c3e\u0c24\u0c4d\u0c2e\u0c3f\u0c15": 2674,
  "\u2581\u0d2e\u0d3e\u0d30\u0d4d": 2675,
  "\u2581job": 2676,
  "\u2581\u0d2a\u0d31\u0d2f\u0d41\u0d02": 2677,
  "G": 2678,
  "\u2581\u0c87\u0c82\u0ca6\u0cc1": 2679,
  "\u0c95\u0cbe\u0cb0": 2680,
  "\u2581\u0d2a\u0d47\u0d1c\u0d3f\u0d32\u0d46": 2681,
  "\u0d24\u0d3f\u0d28\u0d4d": 2682,
  "\u2581gathered": 2683,
  "\u2581alive": 2684,
  "\u258119.": 2685,
  "un": 2686,
  "\u2581\u0d35\u0d32\u0d3f\u0d2f": 2687,
  "\u2581Mark": 2688,
  "\u0c97\u0cbe\u0c97\u0cbf": 2689,
  "\u2581stood": 2690,
  "\u2581class": 2691,
  "\u0d2e\u0d4d\u0d2e": 2692,
  "\u2581\u0b85\u0ba8\u0bc7\u0b95": 2693,
  "\u2581Jewish": 2694,
  "\u2581\u0c87\u0ca6\u0cb2\u0ccd\u0cb2\u0ca6\u0cc6": 2695,
  "\u2581presence": 2696,
  "\u2581clearly": 2697,
  "\u2581\u0c05\u0c28\u0c47\u0c15": 2698,
  "\u0c2a\u0c4d\u0c30": 2699,
  "\u2581address": 2700,
  "\u2581\u0d28\u0d4d\u0d28": 2701,
  "\u0ba3\u0bcd\u0b9f": 2702,
  "\u2581\u0c85\u0ca6\u0c95\u0ccd\u0c95\u0cc6": 2703,
  "\u0ca1\u0cbf": 2704,
  "He": 2705,
  "ur": 2706,
  "\u0bbe\u0b95\u0bbf\u0baf": 2707,
  "\u0ba4\u0bbf\u0bb2\u0bcd": 2708,
  "\u0c25": 2709,
  ":%": 2710,
  "\u2581regard": 2711,
  "\u0d28\u0d40": 2712,
  "\u2581\u0cb9\u0cc6\u0c9a\u0ccd\u0c9a\u0cbf\u0ca8": 2713,
  "\u2581Good": 2714,
  "\u2581selected": 2715,
  "\u2581Roman": 2716,
  "\u0baa\u0b9f\u0bbf": 2717,
  "\u2581\u0c09\u0c28\u0c4d\u0c28\u0c3e\u0c2f\u0c3f": 2718,
  "\u2581\u0c95\u0c9f\u0ccd\u0c9f": 2719,
  "\u2581\u0cae\u0cb9\u0cbe": 2720,
  "\u2581onto": 2721,
  "\u0c2c\u0c4d": 2722,
  "\u2581\u0c87\u0ca6\u0ccd\u0ca6": 2723,
  "\u2581\u0bae\u0bc1\u0bb4\u0bc1": 2724,
  "\u2581\u25aa": 2725,
  "\u2581\u0d2a\u0d15\u0d4d\u0d37\u0d46": 2726,
  "\u0c1f\u0c4d\u0c32\u0c41": 2727,
  "\u2581students": 2728,
  "\u2581short": 2729,
  "\u258113:": 2730,
  "\u2581activities": 2731,
  "\u2581\u0baa\u0bbf\u0ba9\u0bcd\u0ba9\u0bb0\u0bcd": 2732,
  "\u2581\u0d2f\u0d41": 2733,
  "\u2581\u0b95\u0bc1": 2734,
  "\u0d15\u0d4d\u0d15\u0d41\u0d33\u0d4d\u0d33": 2735,
  "\u2581parts": 2736,
  "\u2581prison": 2737,
  "\u2581\u0c35\u0c3e\u0c28\u0c3f": 2738,
  "\u2581waters": 2739,
  "\u0d2f\u0d3f\u0d32\u0d46": 2740,
  "\u2581Take": 2741,
  "\u2581regular": 2742,
  "\u2581\u0c15\u0c4a\u0c24\u0c4d\u0c24": 2743,
  "\u0cb2\u0ccd\u0caa\u0ca1": 2744,
  "\u258120.": 2745,
  "\u0b99\u0bcd\u0b95\u0bb3\u0bbf\u0bb2\u0bcd": 2746,
  "\u2581daily": 2747,
  "\u2581state": 2748,
  "\u2581\u0b89\u0bb3\u0bcd\u0bb3\u0ba4\u0bc1": 2749,
  "\u2581\u0c85\u0ca6\u0cc7": 2750,
  "\u0cac\u0cbe\u0cb0\u0ca6\u0cc1": 2751,
  "\u0d2a\u0d4d": 2752,
  "\u2581magazine": 2753,
  "\u0cb8\u0cbf": 2754,
  "\u2581spend": 2755,
  "\u2581baptism": 2756,
  "\u2581sexual": 2757,
  "\u2581\u0cac\u0cbe": 2758,
  "\u0d35\u0d7c": 2759,
  "\u2581\u0b8e\u0ba9\u0bcd\u0ba9\u0bc8": 2760,
  "\u0bc8\u0b95\u0bcd": 2761,
  "\u0c26\u0c4d\u0c26": 2762,
  "\u0b9f\u0bcd\u0b9f\u0bbf": 2763,
  "\u2581\u0d2a\u0d32": 2764,
  "\u2581natural": 2765,
  "\u2581Box": 2766,
  "\u2581prophets": 2767,
  "\u2581explains": 2768,
  "\u0d3e\u0d28": 2769,
  "\u0d15\u0d4d\u0d15\u0d41\u0d28\u0d4d\u0d28": 2770,
  "\u2581\u0d36\u0d30\u0d3f": 2771,
  "\u0d1e\u0d4d\u0d1e": 2772,
  "\u2581animals": 2773,
  "\u0cb2\u0cbe": 2774,
  "\u2581\u0b9a\u0bb0\u0bbf": 2775,
  "\u2581saved": 2776,
  "Do": 2777,
  "\u2581\u0cb8\u0ccd\u0cb5\u0cb2\u0ccd\u0caa": 2778,
  "\u0c85": 2779,
  "at": 2780,
  "\u2581\u0d2f": 2781,
  "\u2581\u0d28\u0d47\u0d30\u0d4d": 2782,
  "\u258137": 2783,
  "\u2581art": 2784,
  "\u0cbe\u0c97\u0cbf\u0cb0\u0cc1\u0cb5": 2785,
  "\u2581hours": 2786,
  "\u0c2f\u0c02\u0c26\u0c41": 2787,
  "\u0c95\u0ccd\u0c95": 2788,
  "\u258122,": 2789,
  "\u2581appropriate": 2790,
  "\u2581\u0b87\u0ba8\u0bcd\u0ba4\u0baa\u0bcd": 2791,
  "\u0c82\u0ca5": 2792,
  "\u2581beginning": 2793,
  "\u258112,": 2794,
  "\u2581\u0cb9\u0ccc\u0ca6\u0cc1": 2795,
  "\u2581\u0b95\u0bc1\u0bb1\u0bbf\u0ba4\u0bcd\u0ba4\u0bc1": 2796,
  "\u0c35\u0c30\u0c15\u0c41": 2797,
  "\u2581\u0ca4\u0cb0": 2798,
  "\u2581\u0d09\u0d33\u0d4d\u0d33": 2799,
  "Jehovah": 2800,
  "\u2581\u0d2e\u0d41": 2801,
  "\u2581\u0b95\u0bc2\u0bb1\u0bbf\u0ba9\u0bbe\u0bb0\u0bcd": 2802,
  "\u2581activity": 2803,
  "\u2581thine": 2804,
  "\u2581J": 2805,
  "\u0c2a\u0c4b": 2806,
  "\u2581chosen": 2807,
  "\u258116,": 2808,
  "\u2581moral": 2809,
  "\u2581\u0d15\u0d23\u0d4d\u0d1f": 2810,
  "\u2581\u0c87\u0cb2\u0ccd\u0cb2\u0cb5\u0cc6": 2811,
  "\u2581H": 2812,
  "\u2581hour": 2813,
  "\u2581\u0c2f\u0c42\u0c26\u0c3e": 2814,
  "\u2581getting": 2815,
  "\u2581\u0b95\u0bca\u0b9f\u0bc1\u0ba4\u0bcd\u0ba4": 2816,
  "\u2581Keep": 2817,
  "\u2581\u0c9c\u0cc0\u0cb5": 2818,
  "\u2581Messenger": 2819,
  "\u2581ransom": 2820,
  "\u2581\u0c28\u0c47\u0c21\u0c41": 2821,
  "\u2581\u0d15\u0d3e\u0d30\u0d23\u0d02": 2822,
  "\u2581freedom": 2823,
  "\u0c17\u0c4d": 2824,
  "\u2581\u0caf\u0cbe\u0c95\u0c82\u0ca6\u0cb0\u0cc6": 2825,
  "\u2581lands": 2826,
  "\u2581influence": 2827,
  "\u2581role": 2828,
  "\u2581subject": 2829,
  "\u2581\u0c85\u0cb5\u0cb3\u0cc1": 2830,
  "\u0c15\u0c4b": 2831,
  "\u0bb3\u0bcd\u0bb3": 2832,
  "\u2581former": 2833,
  "\u2581forgive": 2834,
  "\u0d37": 2835,
  "\u2581appreciation": 2836,
  "\u2581disease": 2837,
  "\u2581!": 2838,
  "\u2581break": 2839,
  "\u2581guide": 2840,
  "\u2581\u0d2b\u0d2f\u0d32": 2841,
  "\u2581\u0baf\u0bbe\u0bb0\u0bcd": 2842,
  "\u0b95\u0bbe": 2843,
  "\u0cbf\u0ca6\u0ccd\u0ca6\u0cc7\u0ca8\u0cc6": 2844,
  "\u0c30\u0c47": 2845,
  "\u2581\u0b8f": 2846,
  "\u2581\u0baa\u0bb1\u0bcd\u0bb1\u0bbf\u0baf": 2847,
  "\u2581\u0c2f\u0c46": 2848,
  "\u0d15\u0d33\u0d46": 2849,
  "\u0d41\u0d2e\u0d4d\u0d2a\u0d4b\u0d7e": 2850,
  "\u2581\u0b8e\u0bb5\u0bcd\u0bb5\u0bbe\u0bb1\u0bc1": 2851,
  "\u2581\u0d30\u0d23\u0d4d\u0d1f\u0d41": 2852,
  "\u2581p": 2853,
  "\u2581psalmist": 2854,
  "\u0d19\u0d4d\u0d19\u0d33\u0d41\u0d1f\u0d46": 2855,
  "\u2581laws": 2856,
  "\u2581lay": 2857,
  "\u2581concern": 2858,
  "\u0b95\u0bb3\u0bbe\u0b95": 2859,
  "\u2581eye": 2860,
  "\u2581\u0b9a\u0bc6\u0bb2\u0bc1\u0ba4\u0bcd\u0ba4": 2861,
  "\u0cbf\u0c97\u0cbe\u0c97\u0cbf": 2862,
  "\u2581beautiful": 2863,
  "\u0d07": 2864,
  "\u2581\u0bae\u0bc1\u0bb1\u0bc8": 2865,
  "\u2581\u0ca6\u0cc7\u0cb5\u0cb0\u0cbe\u0ca6": 2866,
  "\u0c4c": 2867,
  "\u2581\u0d38\u0d24\u0d4d\u0d2f\u0d02": 2868,
  "\u2581spread": 2869,
  "\u2581increase": 2870,
  "\u2581\u0ba4\u0bb5\u0bbf\u0bb0": 2871,
  "\u2581acts": 2872,
  "What": 2873,
  "\u2581wilderness": 2874,
  "\u0d3f\u0d32\u0d47\u0d15\u0d4d\u0d15\u0d4d": 2875,
  "\u2581\u0b85\u0bb5\u0bb0\u0bc8": 2876,
  "\u2581\u0ca8\u0ccd\u0caf\u0cbe\u0caf": 2877,
  "\u2581play": 2878,
  "\u2581\u0c8e\u0cb7\u0ccd\u0c9f\u0cc1": 2879,
  "\u0cb5\u0ca8\u0cc1": 2880,
  "\u0c02\u0c21": 2881,
  "\u0c2e\u0c02\u0c26\u0c41": 2882,
  "\u0c82\u0ca6\u0cc1": 2883,
  "\u2581brings": 2884,
  "\u0d26": 2885,
  "\u0bb4\u0bbf": 2886,
  "\u2581results": 2887,
  "\u2581\u0d0f\u0d31\u0d46": 2888,
  "\u0c32\u0c4b\u0c28\u0c41\u0c02\u0c21\u0c3f": 2889,
  "\u2581\u0c06\u0c24\u0c4d\u0c2e": 2890,
  "\u2581battle": 2891,
  "\u2581\u0d28\u0d3f\u0d28\u0d4d\u0d28\u0d41\u0d02": 2892,
  "\u0d3e\u0d23\u0d4b": 2893,
  "\u2581names": 2894,
  "\u2581\u0ca8\u0cbf\u0cae\u0ccd\u0cae\u0ca8\u0ccd\u0ca8\u0cc1": 2895,
  "\u2581\u0baa\u0bb5\u0bc1\u0bb2\u0bcd": 2896,
  "\u2581\u0caa\u0cbe\u0caa": 2897,
  "\u2581building": 2898,
  "\u2581empty": 2899,
  "\u2581Thou": 2900,
  "\u2581\u0d38\u0d15\u0d32": 2901,
  "\u2581\u0cad\u0cc2\u0cae\u0cbf\u0caf": 2902,
  "\u0c15\u0c41\u0c02\u0c21": 2903,
  "\u0c32\u0c40": 2904,
  "\u0cb5\u0cbe\u0c97\u0cbf\u0ca4\u0ccd\u0ca4\u0cc1": 2905,
  "\u2581\u0bae": 2906,
  "\u0d2f\u0d3f": 2907,
  "\u2581earlier": 2908,
  "\u2581published": 2909,
  "\u0bc6": 2910,
  "\u2581force": 2911,
  "\u2581\u0c2e\u0c02\u0c26\u0c3f": 2912,
  "\u2581\u0c85\u0cb2\u0ccd\u0cb2": 2913,
  "\u2581almost": 2914,
  "\u2581term": 2915,
  "\u258121.": 2916,
  "\u2581\u0d15\u0d3e\u0d30\u0d4d\u0d2f": 2917,
  "\u2581\u0c95\u0cc2\u0ca1": 2918,
  "\u0bbf\u0bb0\u0bc1\u0baa\u0bcd\u0baa": 2919,
  "\u2581described": 2920,
  "\u0cc0\u0caf": 2921,
  "\u0d15\u0d33\u0d41\u0d02": 2922,
  "\u258170": 2923,
  "\u2581current": 2924,
  "\u0c41\u0c28\u0c1f\u0c4d\u0c32\u0c41": 2925,
  "\u2581books": 2926,
  "\u2581\u0d05\u0d24": 2927,
  "\u0cb8\u0cbe": 2928,
  "\u2581favor": 2929,
  "\u2581miles": 2930,
  "\u2581actions": 2931,
  "\u2581Another": 2932,
  "\u2581experienced": 2933,
  "\u2581worldwide": 2934,
  "\u0bb5\u0bcb": 2935,
  "\u0c32\u0c47\u0c28\u0c3f": 2936,
  "\u2581seeking": 2937,
  "\u0bb4\u0bc1": 2938,
  "\u2581\u0caf\u0cc6\u0cb9\u0ccb\u0cb5\u0ca8\u0cbf\u0c97\u0cc6": 2939,
  "\u0d19\u0d4d\u0d19\u0d33\u0d3f\u0d7d": 2940,
  "\u258113,": 2941,
  "\u0cbf\u0ca6\u0ccd\u0ca6\u0cc1": 2942,
  "\u2581\u0b92\u0bb0\u0bc1\u0bb5\u0bb0\u0bcd": 2943,
  "\u2581recorded": 2944,
  "\u2581\u0c35\u0c1a\u0c4d\u0c1a\u0c3f\u0c28": 2945,
  "\u0c24\u0c4d\u0c30": 2946,
  "\u2581Watch": 2947,
  "\u2581\u0b87\u0baa\u0bcd\u0baa\u0bcb\u0ba4\u0bc1": 2948,
  "\u2581eight": 2949,
  "\u2581\u0b87\u0ba9\u0bcd\u0bb1\u0bc1": 2950,
  "\u2581entire": 2951,
  "\u2581\u0c87\u0ca6\u0cc6": 2952,
  "\u0bb3\u0bcd": 2953,
  "\u2581\u0b86\u0bae\u0bcd": 2954,
  "\u2581\u0bb5\u0bb0\u0bc8": 2955,
  "\u2581\u0b8e\u0bb4\u0bc1\u0ba4": 2956,
  "\u2581\u0c05\u0c35\u0c38\u0c30\u0c02": 2957,
  "\u0bbf\u0b95\u0bcd": 2958,
  "\u0bca": 2959,
  "\u2581reports": 2960,
  "\u0c1a\u0c3f": 2961,
  "\u2581provides": 2962,
  "\u2581week": 2963,
  "\u0baf\u0bc8\u0baf\u0bc1\u0bae\u0bcd": 2964,
  "\u0bcb\u0bb0\u0bcd": 2965,
  "\u2581test": 2966,
  "\u2581Here": 2967,
  "\u2581\u0baa\u0bc6\u0bb1\u0bcd\u0bb1": 2968,
  "\u2581\u0b95\u0bca\u0bb3\u0bcd\u0bb3": 2969,
  "\u2581\u0d1a\u0d3f\u0d24\u0d4d\u0d30": 2970,
  "\u2581Africa": 2971,
  "\u2581added": 2972,
  "et": 2973,
  "\u2581millions": 2974,
  "\u2581firm": 2975,
  "\u2581responsibility": 2976,
  "\u2581\u0d15\u0d47\u0d33\u0d4d": 2977,
  "\u0bb5\u0ba9": 2978,
  "\u2581fulfilled": 2979,
  "\u2581\u0c95\u0cbe\u0cb2": 2980,
  "\u0d47\u0d15\u0d4d\u0d15\u0d3e\u0d02": 2981,
  "\u2581\u0c1a\u0c47\u0c38\u0c3f": 2982,
  "\u2581Select": 2983,
  "\u0cbf\u0ca6\u0ccd\u0ca6\u0cb0\u0cc1": 2984,
  "\u2581\u0ca6\u0cc7\u0cb5\u0cb0\u0cbf\u0c97\u0cc6": 2985,
  "\u0bbf\u0ba9\u0bbe\u0bb2\u0bcd": 2986,
  "\u2581\u0c2e\u0c4b\u0c37\u0c47": 2987,
  "\u2581\u0ca4\u0c82\u0ca6\u0cc6\u0caf": 2988,
  "\u2581develop": 2989,
  "\u0b95\u0bb3\u0bc8\u0baa\u0bcd": 2990,
  "\u0c95\u0ccd\u0cb7": 2991,
  "\u2581Awake": 2992,
  "\u0d28\u0d46": 2993,
  "\u2581established": 2994,
  "\u2581\u0b95\u0bbe": 2995,
  "\u2581\u0d2a\u0d15\u0d4d\u0d37\u0d47": 2996,
  "\u2581warning": 2997,
  "\u2581mountain": 2998,
  "\u2581oil": 2999,
  "\u2581\u0c05\u0c24\u0c28\u0c3f\u0c15\u0c3f": 3000,
  "\u2581\u0ba8\u0ba9\u0bcd\u0bae\u0bc8": 3001,
  "\u2581100": 3002,
  "\u2581\u0c85\u0ca4\u0cbf": 3003,
  "\u2581protect": 3004,
  "\u2581\u0d28\u0d3e\u0d2e": 3005,
  "\u2581\u0bae\u0bc1\u0baf\u0bb1\u0bcd\u0b9a\u0bbf": 3006,
  "\u2581decided": 3007,
  "\u0c32\u0c32\u0c4b": 3008,
  "\u2581\u0c95\u0ca1\u0cc6\u0c97\u0cc6": 3009,
  "\u2581army": 3010,
  "\u2581darkness": 3011,
  "\u0d3f\u0d2a\u0d4d\u0d2a\u0d3f\u0d15\u0d4d\u0d15": 3012,
  "\u2581proper": 3013,
  "\u0c2e\u0c48": 3014,
  "\u258135": 3015,
  "\u0caa\u0ccd": 3016,
  "\u2581Only": 3017,
  "\u2581instead": 3018,
  "\u0cbf\u0ca6\u0cbe\u0c97": 3019,
  "\u2581\u0cb0\u0cbe\u0c9c\u0ccd\u0caf": 3020,
  "\u2581\u0c86\u0ca6\u0cc1\u0ca6\u0cb0\u0cbf\u0c82\u0ca6": 3021,
  "\u2581run": 3022,
  "\u2581prayed": 3023,
  "\u0cb5\u0cc6\u0c82\u0ca6\u0cc1": 3024,
  "\u0c3f\u0c02\u0c1a\u0c3f": 3025,
  "\u2581Remember": 3026,
  "\u2581lies": 3027,
  "\u2581\u0ca8\u0c82\u0cac": 3028,
  "\u2581allowed": 3029,
  "\u2581\u0b95\u0bca\u0ba3\u0bcd\u0b9f\u0bbf\u0bb0\u0bc1\u0ba8\u0bcd\u0ba4": 3030,
  "\u2581attend": 3031,
  "\u2581chief": 3032,
  "\u2581laid": 3033,
  "\u0d31\u0d41": 3034,
  "\u2581learning": 3035,
  "\u2581\u0cb0\u0cc0\u0ca4\u0cbf\u0caf\u0cb2\u0ccd\u0cb2\u0cbf": 3036,
  "\u2581\u0d26\u0d3f\u0d35\u0d38\u0d02": 3037,
  "\u2581\u0c15\u0c47\u0c35\u0c32\u0c02": 3038,
  "\u2581boy": 3039,
  "\u2581expression": 3040,
  "\u2581tongue": 3041,
  "\u2581\u0c1c": 3042,
  "\u0cca\u0cb3\u0c97\u0cc6": 3043,
  "\u2581wealth": 3044,
  "\u2581\u0c9c\u0ccd\u0c9e\u0cbe\u0ca8\u0ccb\u0c95\u0ccd\u0ca4\u0cbf": 3045,
  "\u2581\u0d38\u0d3f": 3046,
  "\u0d2e\u0d4d\u0d2a": 3047,
  "all": 3048,
  "\u2581\u0d0e\u0d28\u0d4d\u0d28\u0d3f\u0d1f\u0d4d\u0d1f\u0d4d": 3049,
  "\u2581record": 3050,
  "\u0bbf\u0bb0\u0bc1\u0b95\u0bcd\u0b95": 3051,
  "\u2581\u0ba4\u0bca\u0b9f\u0bb0\u0bcd\u0ba8\u0bcd\u0ba4\u0bc1": 3052,
  "\u2581endure": 3053,
  "\u2581reasons": 3054,
  "\u2581\u0baa\u0bbe\u0bb0\u0bcd\u0b95\u0bcd\u0b95": 3055,
  "\u2581\u0c38\u0c3e\u0c2e\u0c46\u0c24\u0c32\u0c41": 3056,
  "\u2581\u0baa\u0bbf\u0ba9\u0bcd": 3057,
  "\u2581forgiveness": 3058,
  "\u0cb0\u0cbe": 3059,
  "\u2581\u0bb5\u0bbe\u0bb0\u0bcd\u0ba4\u0bcd\u0ba4\u0bc8": 3060,
  "\u2581teachings": 3061,
  "\u0d28\u0d41": 3062,
  "\u2581carried": 3063,
  "\u2581\u0d05\u0d1f\u0d41\u0d24\u0d4d\u0d24": 3064,
  "\u2581\u0d07\u0d24\u0d41": 3065,
  "\u2581\u0cb9\u0cca\u0c82\u0ca6": 3066,
  "\u2581Before": 3067,
  "z": 3068,
  "\u2581trees": 3069,
  "\u2581\u0cb9\u0cbf\u0c82\u0ca6\u0cc6": 3070,
  "\u2581g": 3071,
  "\u0d41\u0d2e\u0d4d\u0d2a\u0d4b\u0d33\u0d4d": 3072,
  "\u2581\u0cb5\u0cb0\u0cc6\u0c97\u0cc6": 3073,
  "\u2581girl": 3074,
  "\u2581respond": 3075,
  "\u2581\u0d35\u0d28\u0d4d\u0d28": 3076,
  "\u2581\u0ba4\u0bbf": 3077,
  "\u0d3e\u0d32\u0d41\u0d02": 3078,
  "\u0cc1\u0ca4\u0ccd\u0ca4\u0cbf\u0cb0\u0cc1\u0cb5": 3079,
  "\u0c2c": 3080,
  "\u2581answers": 3081,
  "\u2581helping": 3082,
  "\u2581\u0cb8\u0cbe\u0c95\u0ccd\u0cb7\u0cbf\u0c97\u0cb3": 3083,
  "ion": 3084,
  "\u2581\u0c9a": 3085,
  "\u2581\u0d15\u0d34\u0d3f\u0d1e\u0d4d\u0d1e": 3086,
  "\u0ca6\u0c82\u0ca4\u0cc6": 3087,
  "\u2581Spirit": 3088,
  "\u0c33": 3089,
  "\u2581Great": 3090,
  "\u2581earthly": 3091,
  "\u2581OF": 3092,
  "\u0d15\u0d3e\u0d30": 3093,
  "\u2581\u0c1a\u0c46\u0c2a\u0c4d\u0c2a\u0c46\u0c28\u0c41": 3094,
  "\u2581\u0d24\u0d4d\u0d24\u0d3f": 3095,
  "\u2581seems": 3096,
  "\u2581x": 3097,
  "ri": 3098,
  "\u0bbf\u0baf\u0ba4\u0bc1": 3099,
  "\u0c2f\u0c4b": 3100,
  "\u2581W": 3101,
  "\u2581god": 3102,
  "\u2581enemy": 3103,
  "\u2581appreciate": 3104,
  "\u2581regularly": 3105,
  "\u0d41\u0d15\u0d7e": 3106,
  "\u2581\u0ca4": 3107,
  "\u2581inhabitants": 3108,
  "\u2581\u0c09\u0c2a\u0c2f\u0c4b\u0c17\u0c3f\u0c02\u0c1a": 3109,
  "\u2581condition": 3110,
  "\u2581training": 3111,
  "\u0bb5\u0bbf\u0bb2\u0bcd": 3112,
  "\u0c1f\u0c41": 3113,
  "\u0d28\u0d3e": 3114,
  "\u2581accurate": 3115,
  "\u2581\u0d05\u0d24\u0d3f\u0d28\u0d46": 3116,
  "\u2581room": 3117,
  "\u2581sick": 3118,
  "\u2581burnt": 3119,
  "\u0ba4\u0bcd\u0ba4\u0bbf\u0bb2\u0bbf\u0bb0\u0bc1\u0ba8\u0bcd\u0ba4\u0bc1": 3120,
  "\u2581English": 3121,
  "\u2581\u0c87\u0c82\u0ca5": 3122,
  "\u0d16": 3123,
  "\u2581chapter": 3124,
  "\u0bc0\u0bb0\u0bcd\u0b95\u0bb3\u0bbe": 3125,
  "\u2581harmony": 3126,
  "\u2581\u0ca8\u0ca1\u0cc6\u0caf": 3127,
  "\u2581evening": 3128,
  "\u2581quickly": 3129,
  "\u2581trying": 3130,
  "\u2581Though": 3131,
  "\u2581realize": 3132,
  "ro": 3133,
  "\u2581\u0c1a\u0c46\u0c2a\u0c4d\u0c2a\u0c3e\u0c21\u0c41": 3134,
  "\u0ca8\u0cb2\u0ccd\u0cb2\u0cbf": 3135,
  "\u2581discipline": 3136,
  "\u2581occasion": 3137,
  "\u2581outside": 3138,
  "\u2581worked": 3139,
  "\u2581Paradise": 3140,
  "\u2581\u0c85\u0cb5\u0cb3": 3141,
  "\u0d7e": 3142,
  "\u2581positive": 3143,
  "\u0c95\u0cc6": 3144,
  "\u2581strengthen": 3145,
  "\u2581\u0d13": 3146,
  "\u2581\u0c1a": 3147,
  "\u2581\u0ba8\u0bbf": 3148,
  "\u0ccb\u0ca3": 3149,
  "\u2581\u0b85\u0ba4\u0bbf\u0bb2\u0bcd": 3150,
  "\u2581\u0d05\u0d31\u0d3f\u0d2f": 3151,
  "\u2581\u0d17": 3152,
  "\u0bbf\u0bb2\u0bc1\u0bb3\u0bcd\u0bb3": 3153,
  "\u0d28\u0d4b": 3154,
  "\u2581cry": 3155,
  "\u2581\u0d28\u0d2e\u0d4d\u0d2e\u0d46": 3156,
  "\u0baf\u0bc1\u0bb3\u0bcd\u0bb3": 3157,
  "\u2581\u0b95\u0bbe\u0ba3": 3158,
  "\u2581\u0cb8\u0c82": 3159,
  "\u2581\u0b8e\u0ba9\u0bcd\u0bb1\u0bc1\u0bae\u0bcd": 3160,
  "\u2581\u0d35\u0d28\u0d4d\u0d28\u0d41": 3161,
  "\u0bb7": 3162,
  "\u0ca8\u0cbe\u0ca6": 3163,
  "\u2581guard": 3164,
  "\u2581Nevertheless": 3165,
  "\u2581Eve": 3166,
  "\u2581\u0d2a\u0d3f": 3167,
  "\u0d3e\u0d2f\u0d3f\u0d30\u0d3f\u0d15\u0d4d\u0d15\u0d41\u0d02": 3168,
  "My": 3169,
  "\u0baf\u0bc1": 3170,
  "\u2581Hall": 3171,
  "\u2581\u0c2e\u0c3e\u0c1f\u0c32\u0c41": 3172,
  "\u0c2c\u0c3e": 3173,
  "\u2581aware": 3174,
  "\u0b95\u0bc8": 3175,
  "\u2581\u0cac\u0cb3\u0cb8": 3176,
  "\u0d35\u0d47": 3177,
  "\u2581search": 3178,
  "\u0d46\u0d19\u0d4d\u0d15\u0d3f\u0d32\u0d4d": 3179,
  "\u0d17\u0d4d": 3180,
  "\u2581looked": 3181,
  "\u2581\u0c30\u0c3e\u0c1c\u0c4d\u0c2f": 3182,
  "\u2581forget": 3183,
  "\u2581\u0baa\u0bbf": 3184,
  "\u0cb2\u0cbe\u0c97\u0cbf\u0ca6\u0cc6": 3185,
  "\u2581\u0c85\u0cb0\u0cb8\u0ca8": 3186,
  "\u2581addition": 3187,
  "\u0b95\u0bb3\u0bc8\u0b95\u0bcd": 3188,
  "\u0ca6\u0cb2\u0ccd\u0cb2\u0cbf\u0cb0\u0cc1\u0cb5": 3189,
  "\u2581\u0b85\u0bb2\u0bcd\u0bb2": 3190,
  "\u0b8e": 3191,
  "\u2581\u0d1e\u0d3e\u0d28": 3192,
  "\u2581\u0c38\u0c3f": 3193,
  "\u2581manner": 3194,
  "\u2581\u0c2e\u0c41": 3195,
  "\u2581exercise": 3196,
  "\u0c3f\u0c24": 3197,
  "\u2581humble": 3198,
  "\u2581\u0b9a\u0bbf\u0bb2\u0bb0\u0bcd": 3199,
  "\u0b9f\u0bcd\u0b9f\u0bc1": 3200,
  "\u0c2f\u0c4a\u0c15\u0c4d\u0c15": 3201,
  "\u2581standing": 3202,
  "\u2581\u0c15\u0c41\u0c2e\u0c3e\u0c30\u0c41\u0c21\u0c48\u0c28": 3203,
  "\u2581File": 3204,
  "\u2581sleep": 3205,
  "\u0d2a\u0d4b\u0d32\u0d46": 3206,
  "\u2581watch": 3207,
  "\u2581\u0b95\u0bc2\u0bb1": 3208,
  "\u0ca6\u0cc7": 3209,
  "\u258123.": 3210,
  "\u2581knowing": 3211,
  "\u2581\u0b9a\u0bc6\u0baf\u0bcd\u0baf\u0bc1\u0bae\u0bcd": 3212,
  "\u2581encouraged": 3213,
  "\u0d1f\u0d4d\u0d1f\u0d4d": 3214,
  "\u0d2a\u0d4d\u0d2a\u0d46\u0d1f\u0d41\u0d24\u0d4d\u0d24": 3215,
  "\u2581\u0d36\u0d47\u0d37\u0d02": 3216,
  "\u2581\u0c24\u0c46\u0c32\u0c41\u0c38\u0c41": 3217,
  "\u0c2e\u0c46": 3218,
  "\u2581white": 3219,
  "\u0d2f\u0d3f\u0d32\u0d4d\u0d32": 3220,
  "\u2581\u0c13": 3221,
  "\u2581\u0c89\u0caa\u0caf\u0ccb\u0c97\u0cbf\u0cb8": 3222,
  "\u0d32\u0d4d\u0d32\u0d4b": 3223,
  "\u2581practice": 3224,
  "\u2581pure": 3225,
  "\u2581include": 3226,
  "\u2581\u0b87\u0bb0\u0bc1\u0ba8\u0bcd\u0ba4\u0bc1": 3227,
  "\u2581languages": 3228,
  "\u2581\u0b8e\u0ba3\u0bcd\u0ba3": 3229,
  "\u2581\u0c07\u0c24\u0c30": 3230,
  "\u0d2a\u0d4d\u0d2a\u0d4b\u0d7e": 3231,
  "\u2581inheritance": 3232,
  "\u2581convention": 3233,
  "\u2581\u0d1c\u0d28": 3234,
  "\u2581walking": 3235,
  "\u2581\u0c15\u0c32\u0c3f\u0c17\u0c3f": 3236,
  "\u2581\u0c26\u0c47\u0c35\u0c41\u0c28\u0c3f\u0c15\u0c3f": 3237,
  "\u2581\u0c86\u0ca7\u0ccd\u0caf\u0cbe\u0ca4\u0ccd\u0cae\u0cbf\u0c95": 3238,
  "\u2581\u0d06\u0d23\u0d4d": 3239,
  "\u2581\u0b95\u0ba3\u0bcd\u0b9f": 3240,
  "\u2581\u0d2a\u0d3f\u0d28\u0d4d\u0d28\u0d40\u0d1f\u0d4d": 3241,
  "\u2581assignment": 3242,
  "\u2581c": 3243,
  "\u2581\u0b9a\u0bc6": 3244,
  "\u0cb2\u0cc7": 3245,
  "\u2581\u0b87\u0ba8\u0bcd\u0ba4\u0b95\u0bcd": 3246,
  "\u0baa\u0bcd\u0baa\u0b9f\u0bc1\u0b95\u0bbf\u0bb1\u0ba4\u0bc1": 3247,
  "\u2581greatest": 3248,
  "ia": 3249,
  "\u2581\u0c2f\u0c4b\u0c39\u0c3e\u0c28\u0c41": 3250,
  "ch": 3251,
  "\u2581\u0d13\u0d30\u0d4b": 3252,
  "\u2581\u0caa\u0cc2\u0cb0\u0ccd\u0ca3": 3253,
  "9": 3254,
  "\u258136": 3255,
  "\u0d33\u0d4d": 3256,
  "\u2581car": 3257,
  "\u2581lack": 3258,
  "\u2581\u0d2f\u0d41\u0d02": 3259,
  "\u2581Use": 3260,
  "\u2581forward": 3261,
  "\u2581\u0ca8\u0ca1\u0cc6\u0cb8": 3262,
  "\u2581\u0c95\u0cb7\u0ccd\u0c9f": 3263,
  "\u2581\u0cae\u0cbe\u0ca4\u0cbe\u0ca1": 3264,
  "\u0cb0\u0cbf\u0caf": 3265,
  "\u0d3f\u0d15\u0d4d\u0d15\u0d41\u0d28\u0d4d\u0d28": 3266,
  "\u2581\u0c2e\u0c41\u0c02\u0c26\u0c41": 3267,
  "\u2581\u0c35\u0c46": 3268,
  "\u0bbe\u0ba4\u0bc1": 3269,
  "\u0d15\u0d3f": 3270,
  "\u2581\u0baa\u0bbf\u0ba9\u0bcd\u0baa\u0bb1\u0bcd\u0bb1": 3271,
  "\u2581invited": 3272,
  "\u2581reflect": 3273,
  "li": 3274,
  "\u0cbf\u0cb8\u0cc1\u0cb5": 3275,
  "\u0d38\u0d4d\u0d31\u0d4d\u0d31": 3276,
  "\u2581\u0c89": 3277,
  "\u2581\u0c2a\u0c4d\u0c30\u0c1c\u0c32": 3278,
  "\u2581\u0b86\u0b95": 3279,
  "\u2581\u0caa\u0cb0\u0cbf\u0cb6\u0cc1\u0ca6\u0ccd\u0ca7": 3280,
  "\u2581\u0cac\u0cc6": 3281,
  "\u0bc8\u0baf\u0bbf\u0bb2\u0bcd": 3282,
  "\u2581\u0b85\u0bb3\u0bb5\u0bc1": 3283,
  "\u0d2e\u0d41\u0d23\u0d4d\u0d1f\u0d4d": 3284,
  "\u2581\u0cb5\u0cb0\u0ccd\u0cb7": 3285,
  "\u0c28\u0c41\u0c28\u0c4d\u0c28": 3286,
  "\u0d35\u0d30\u0d41\u0d1f\u0d46": 3287,
  "\u0c2f\u0c4a\u0c26\u0c4d\u0c26\u0c15\u0c41": 3288,
  "\u2581\u0b9a\u0bbe": 3289,
  "\u2581trials": 3290,
  "\u2581\u0c87\u0cb8\u0ccd\u0cb0\u0cbe\u0caf\u0cc7\u0cb2\u0cbf\u0ca8": 3291,
  "\u2581\u0bb5": 3292,
  "\u2581\u0c87\u0c97\u0ccb": 3293,
  "\u0ba9\u0bbe": 3294,
  "\u2581courage": 3295,
  "\u0c3f\u0c15": 3296,
  "\u2581practical": 3297,
  "\u2581wish": 3298,
  "\u2581\u0d2d\u0d42\u0d2e\u0d3f\u0d2f\u0d3f\u0d32": 3299,
  "\u0ba4\u0bbe\u0bb2\u0bcd": 3300,
  "\u0d36\u0d4d": 3301,
  "\u2581verily": 3302,
  "\u2581Brother": 3303,
  "\u2581Look": 3304,
  "\u2581\u0bae\u0b95\u0bcd\u0b95\u0bb3\u0bcd": 3305,
  "\u2581\u0d15\u0d42\u0d1f\u0d46": 3306,
  "\u2581\u0bb5\u0bb0\u0bc1\u0bae\u0bcd": 3307,
  "\u0d2f\u0d3e\u0d2f": 3308,
  "\u2581measure": 3309,
  "\u2581\u0cad\u0cbe\u0c97": 3310,
  "\u0c41\u0c1a\u0c41\u0c28\u0c4d\u0c28": 3311,
  "\u2581More": 3312,
  "\u2581necessary": 3313,
  "\u2581required": 3314,
  "\u0c97\u0cb3\u0cc2": 3315,
  "\u0d3f\u0d32\u0d41\u0d02": 3316,
  "\u0cc1\u0cb5\u0cc1\u0ca6\u0ca8\u0ccd\u0ca8\u0cc1": 3317,
  "\u0bc1\u0b95\u0bcd\u0b95\u0bc1\u0bae\u0bcd": 3318,
  "\u2581elder": 3319,
  "\u2581Others": 3320,
  "\u2581spent": 3321,
  "\u2581\u0d28\u0d3f\u0d28\u0d15\u0d4d\u0d15\u0d41": 3322,
  "V": 3323,
  "\u2581challenge": 3324,
  "\u2581paradise": 3325,
  "\u2581showing": 3326,
  "\u2581Later": 3327,
  "\u2581parent": 3328,
  "\u2581goes": 3329,
  "\u2581\u0c2a\u0c4d\u0c30\u0c3e\u0c30\u0c4d\u0c25\u0c28": 3330,
  "\u0bc1\u0b95\u0bbf\u0bb1\u0bbe\u0bb0\u0bcd\u0b95\u0bb3\u0bcd": 3331,
  "\u2581rain": 3332,
  "\u0d31\u0d4d\u0d31\u0d3f": 3333,
  "\u2581wonder": 3334,
  "\u2581sometimes": 3335,
  "\u2581\u0c26\u0c47\u0c35\u0c41\u0c21\u0c48\u0c28": 3336,
  "\u2581individual": 3337,
  "\u2581\u0d0e\u0d28\u0d4d\u0d24\u0d4d": 3338,
  "\u0c15\u0c42\u0c21\u0c26\u0c41": 3339,
  "\u2581town": 3340,
  "\u2581\u0c93": 3341,
  "\u2581education": 3342,
  "\u2581usually": 3343,
  "\u2581\u0d35\u0d47\u0d23\u0d4d\u0d1f": 3344,
  "\u0c35\u0c32\u0c46\u0c28\u0c28\u0c3f": 3345,
  "\u2581\u0d05\u0d35\u0d28": 3346,
  "\u2581\u0cb9\u0cc6\u0cb8\u0cb0\u0cc1": 3347,
  "\u0d23\u0d3f": 3348,
  "\u2581\u0cb8\u0ccd\u0ca5\u0cb3": 3349,
  "for": 3350,
  "\u0d46\u0d2f\u0d41\u0d02": 3351,
  "\u2581\u0baa\u0bbf\u0bb0": 3352,
  "\u2581\u0c2c\u0c3e": 3353,
  "\u2581\u0d32\u0d46": 3354,
  "\u0d24\u0d4d\u0d24\u0d3f\u0d32": 3355,
  "\u2581\u0c15\u0c3e\u0c2a\u0c3e\u0c21": 3356,
  "\u0c02\u0c1f\u0c3f": 3357,
  "\u2581;": 3358,
  "\u0cc1\u0ca4\u0ccd\u0ca4": 3359,
  "\u0c15\u0c30": 3360,
  "\u2581mate": 3361,
  "\u2581\u0c92\u0cb3\u0ccd\u0cb3\u0cc7": 3362,
  "\u0c3f\u0c38\u0c4d\u0c24\u0c41\u0c28\u0c4d\u0c28": 3363,
  "\u2581benefits": 3364,
  "\u2581interested": 3365,
  "\u2581becoming": 3366,
  "\u2581\u0bb5\u0bbe": 3367,
  "\u2581\u0b87\u0bb1\u0bc8\u0bb5\u0ba9\u0bcd": 3368,
  "\u2581seeing": 3369,
  "\u0c82\u0ca6": 3370,
  "\u2581won": 3371,
  "\u2581foretold": 3372,
  "\u2581\u0caa\u0ccd\u0cb0\u0cc0\u0ca4\u0cbf": 3373,
  "\u2581pressure": 3374,
  "\u2581vision": 3375,
  "\u2581Europe": 3376,
  "\u2581N": 3377,
  "\u0d23\u0d4d": 3378,
  "\u2581\u0c1a\u0c42\u0c21": 3379,
  "\u2581\u0d7d": 3380,
  "\u258117,": 3381,
  "\u0ba4\u0bcd\u0ba4\u0bc8\u0b95\u0bcd": 3382,
  "\u2581\u0caa\u0ccd\u0cb0\u0caf\u0ccb\u0c9c\u0ca8": 3383,
  "\u0d41\u0d28\u0d4d\u0d28\u0d24\u0d3e\u0d23\u0d4d": 3384,
  "\u2581\u0c05\u0c24\u0c28\u0c41": 3385,
  "\u2581\u0d35\u0d30\u0d4d": 3386,
  "\u0d41\u0d28\u0d4d\u0d28\u0d24\u0d3f\u0d28\u0d4d": 3387,
  "\u2581\u0b89\u0b99\u0bcd\u0b95\u0bb3\u0bc1\u0b9f\u0bc8\u0baf": 3388,
  "\u2581\u0c15\u0c32\u0c3f\u0c38\u0c3f": 3389,
  "\u2581\u0c26\u0c3e\u0c26\u0c3e\u0c2a\u0c41": 3390,
  "\u2581\u0d24\u0d28\u0d4d\u0d28\u0d46\u0d2f\u0d3e\u0d23\u0d4d": 3391,
  "\u0d24\u0d3e\u0d2f\u0d3f": 3392,
  "\u2581\u0bb5\u0bc6\u0bb1\u0bcd\u0bb1\u0bbf": 3393,
  "\u2581Love": 3394,
  "\u2581expect": 3395,
  "\u2581York": 3396,
  "\u2581quality": 3397,
  "\u2581\u0baa\u0bbf\u0bb4\u0bc8": 3398,
  "\u2581\u0c95\u0cc1": 3399,
  "\u2581Gilead": 3400,
  "\u0cb2\u0cc2": 3401,
  "\u2581manifest": 3402,
  "\u2581\u0b92\u0bb0\u0bc7": 3403,
  "\u2581\u0b87\u0bb0\u0bc1\u0b95\u0bcd\u0b95\u0bbf\u0ba9\u0bcd\u0bb1\u0ba9": 3404,
  "\u2581\u0c9c\u0ca8\u0cb0\u0cbf\u0c97\u0cc6": 3405,
  "\u2581success": 3406,
  "\u0c2a\u0c46\u0c1f\u0c4d\u0c1f": 3407,
  "\u0c15\u0c4a": 3408,
  "\u0d21\u0d3f": 3409,
  "\u0cb8\u0cc1": 3410,
  "\u2581\u0d2e\u0d46": 3411,
  "\u0d15\u0d4d\u0d15\u0d4b": 3412,
  "\u0d48": 3413,
  "\u2581\u0d0e\u0d28\u0d4d\u0d24\u0d3e\u0d23\u0d4d": 3414,
  "\u2581court": 3415,
  "\u2581\u0c1a\u0c42\u0c21\u0c02\u0c21\u0c3f": 3416,
  "\u2581Ask": 3417,
  "\u2581patient": 3418,
  "\u2581\u0c2e\u0c30\u0c3f": 3419,
  "\u0cac\u0ccd": 3420,
  "\u0cbf\u0cb5\u0cc6": 3421,
  "\u2581simple": 3422,
  "\u2581\u0cac\u0cb0\u0cc1\u0cb5": 3423,
  "\u2581choice": 3424,
  "\u2581crowd": 3425,
  "\u2581stone": 3426,
  "\u0c2f\u0c48\u0c28": 3427,
  "\u2581houses": 3428,
  "\u2581centuries": 3429,
  "\u2581\u0c2e\u0c3f": 3430,
  "\u2581youths": 3431,
  "\u2581\u0baa\u0bca\u0baf\u0bcd": 3432,
  "\u0d38\u0d3e": 3433,
  "\u2581About": 3434,
  "\u0d2d": 3435,
  "\u2581\u0cb8\u0c82\u0ca6\u0cc7\u0cb6": 3436,
  "\u258119,": 3437,
  "\u2581\u0ba8\u0bae\u0bcd\u0bae\u0bc8": 3438,
  "\u0d2e\u0d3f\u0d32\u0d4d\u0d32": 3439,
  "\u2581harm": 3440,
  "\u2581\u0ba4\u0bc7\u0bb0\u0bcd\u0bb5\u0bc1": 3441,
  "\u2581Re": 3442,
  "\u2581sacrifices": 3443,
  "\u0d4d\u0d2f": 3444,
  "\u2581flock": 3445,
  "\u0ca8\u0cc6\u0c82\u0ca6\u0cc1": 3446,
  "\u2581game": 3447,
  "\u2581\u0d32": 3448,
  "\u0d41\u0d2e\u0d4b": 3449,
  "\u2581observe": 3450,
  "\u2581Children": 3451,
  "\u2581km": 3452,
  "\u2581\u0c85\u0cb5\u0cc1": 3453,
  "\u2581\u0cb8\u0cbe\u0cb0": 3454,
  "no": 3455,
  "\u2581\u0c95\u0cbe\u0cb0\u0ccd\u0caf": 3456,
  "\u0d24\u0d4d\u0d24\u0d3f\u0d32\u0d46": 3457,
  "\u2581\u0c1a\u0c47\u0c2f\u0c21\u0c3e\u0c28\u0c3f\u0c15\u0c3f": 3458,
  "\u2581\u0d2a\u0d30\u0d3f": 3459,
  "\u0caa\u0ccd\u0cb0": 3460,
  "\u0bb5\u0bbf\u0b9f\u0bcd\u0b9f\u0bc1": 3461,
  "\u0d46\u0d28\u0d4d\u0d28\u0d4d": 3462,
  "\u2581\u0d24\u0d30": 3463,
  "\u0d32\u0d3e": 3464,
  "\u2581\u0cae\u0cc2\u0cb2": 3465,
  "\u2581steps": 3466,
  "\u0cb2\u0ccd\u0cb2\u0cbf\u0cb0\u0cc1\u0cb5": 3467,
  "\u0c39\u0c3e": 3468,
  "\u0d2c\u0d4d": 3469,
  "\u2581fulfillment": 3470,
  "\u2581\u0d2e\u0d3f": 3471,
  "\u0c41\u0c15\u0c4b\u0c35\u0c21\u0c02": 3472,
  "\u2581ahead": 3473,
  "\u2581contact": 3474,
  "\u0c41\u0c24\u0c41\u0c28\u0c4d\u0c28": 3475,
  "\u258122.": 3476,
  "\u2581\u0d05\u0d35\u0d33\u0d4d": 3477,
  "\u2581Verily": 3478,
  "\u2581\u0b9a\u0bbf\u0bb1\u0bc1": 3479,
  "\u0c32\u0c47\u0c15": 3480,
  "\u2581\u0d0e\u0d28\u0d3f\u0d15\u0d4d\u0d15": 3481,
  "\u2581\u0d2a\u0d31\u0d2f": 3482,
  "\u2581\u0d2a\u0d4b\u0d2f\u0d3f": 3483,
  "\u2581\u0ba4\u0bbf\u0bb0\u0bc1\u0bae\u0bcd\u0baa": 3484,
  "\u2581sky": 3485,
  "\u2581tribe": 3486,
  "\u2581youth": 3487,
  "\u2581\u0c35\u0c3e\u0c30\u0c3f\u0c24\u0c4b": 3488,
  "\u2581\u0c89\u0ca6\u0ccd\u0ca6\u0cc7\u0cb6": 3489,
  "\u2581\u0cb9\u0cc7\u0cb3\u0cbf\u0ca6\u0ccd\u0ca6\u0cc1": 3490,
  "\u2581\u0d28\u0d3f\u0d32": 3491,
  "\u2581\u0c9c\u0cca\u0ca4\u0cc6": 3492,
  "\u0cc1\u0ca4\u0ccd\u0ca4\u0cbf\u0ca6\u0ccd\u0ca6\u0cb0\u0cc1": 3493,
  "\u2581\u0caa": 3494,
  "\u2581\u0d2a\u0d4d\u0d30\u0d3e\u0d30\u0d4d": 3495,
  "\u0ba4\u0bbf\u0bb2\u0bcd\u0bb2\u0bc8": 3496,
  "\u2581\u0d1c\u0d4b\u0d32\u0d3f": 3497,
  "\u0c9c\u0ccd": 3498,
  "\u0c26\u0c4b": 3499,
  "\u0bc1\u0bb5": 3500,
  "\u2581\u0c35\u0c3f\u0c28": 3501,
  "\u2581\u0d2a\u0d4b\u0d15": 3502,
  "\u0c26\u0c28\u0c3f": 3503,
  "\u2581Get": 3504,
  "\u0baa\u0bc1": 3505,
  "\u2581\u0d24\u0d3f": 3506,
  "\u2581\u0b88\u0bae\u0bbe\u0ba9\u0bcd": 3507,
  "\u2581basis": 3508,
  "\u2581\u0c2d\u0c3e\u0c30\u0c4d\u0c2f": 3509,
  "\u0bbe\u0ba4\u0bc0\u0bb0\u0bcd\u0b95\u0bb3\u0bcd": 3510,
  "\u2581\u0d0e\u0d28\u0d4d\u0d24\u0d3e": 3511,
  "\u2581appear": 3512,
  "\u2581blind": 3513,
  "\u2581missionary": 3514,
  "\u2581wind": 3515,
  "\u0bbf\u0bb1\u0bcd\u0b95\u0bc1": 3516,
  "\u2581commandments": 3517,
  "\u2581\u0d24\u0d32": 3518,
  "\u2581\u0b85\u0bb5\u0bb3\u0bcd": 3519,
  "\u0ca6\u0ca8\u0ccd\u0ca8\u0cc1": 3520,
  "\u0caf\u0ccb": 3521,
  "\u0cc1\u0cb5\u0c82\u0ca5": 3522,
  "\u2581\u0c87\u0cb7\u0ccd\u0c9f": 3523,
  "\u2581\u0b89\u0bb0\u0bc1\u0bb5\u0bbe\u0b95\u0bcd\u0b95": 3524,
  "\u2581interests": 3525,
  "\u2581homes": 3526,
  "\u2581master": 3527,
  "\u0baf\u0bbf\u0bb2\u0bbf\u0bb0\u0bc1\u0ba8\u0bcd\u0ba4\u0bc1": 3528,
  "\u0bae\u0bc0\u0ba4\u0bc1": 3529,
  "\u0cb2\u0cbe\u0caf\u0cbf\u0ca4\u0cc1": 3530,
  "\u0bae\u0bc1": 3531,
  "\u0c4d\u0c28\u0c3f": 3532,
  "\u2581\u0c07\u0c36\u0c4d\u0c30\u0c3e\u0c2f\u0c47\u0c32\u0c40\u0c2f\u0c41\u0c32": 3533,
  "\u2581\u0c2e\u0c3e\u0c1f\u0c4d\u0c32\u0c3e\u0c21": 3534,
  "\u2581Make": 3535,
  "\u2581\u0c35\u0c3f\u0c27\u0c02\u0c17\u0c3e": 3536,
  "\u2581doesn": 3537,
  "\u0ca8\u0ccd\u0ca8\u0cc7": 3538,
  "\u0d3f\u0d30\u0d3f\u0d15\u0d4d\u0d15\u0d41\u0d28\u0d4d\u0d28\u0d24\u0d4d": 3539,
  "\u2581\u0cae\u0ca8\u0cc6": 3540,
  "In": 3541,
  "\u2581\u0d35\u0d30\u0d46": 3542,
  "\u2581\u0c26\u0c17\u0c4d\u0c17\u0c30": 3543,
  "\u2581\u0d1e\u0d19\u0d4d\u0d19\u0d7e": 3544,
  "\u2581\u0d2e\u0d31\u0d4d\u0d31\u0d41": 3545,
  "\u0d41\u0d2e\u0d3e\u0d2f\u0d3f": 3546,
  "\u2581\u0c2f\u0c3e\u0c15\u0c4b\u0c2c\u0c41": 3547,
  "\u2581approach": 3548,
  "\u2581due": 3549,
  "\u2581\u0b9a\u0bc6\u0baf\u0bcd\u0ba4\u0bbf": 3550,
  "\u2581\u0c1a\u0c47\u0c2f\u0c21\u0c02": 3551,
  "\u0cbf\u0c95\u0cc6": 3552,
  "\u2581Also": 3553,
  "\u0cb8\u0cbe\u0ca7\u0ccd\u0caf\u0cb5\u0cbf\u0ca6\u0cc6": 3554,
  "\u2581America": 3555,
  "\u2581\u0d35\u0d32\u0d4d\u0d32": 3556,
  "\u0d2a\u0d4d\u0d30": 3557,
  "\u2581leaders": 3558,
  "\u2581security": 3559,
  "\u2581\u0c39": 3560,
  "W": 3561,
  "\u0ccc": 3562,
  "\u2581\u0c24\u0c3e\u0c2e\u0c41": 3563,
  "\u0b9a\u0bbe": 3564,
  "\u2581\u0cac\u0cb9\u0cb3": 3565,
  "\u2581assigned": 3566,
  "\u0d1e\u0d4d\u0d1a": 3567,
  "\u2581\u0caf\u0cbe\u0cb0": 3568,
  "\u2581Perhaps": 3569,
  "\u2581areas": 3570,
  "\u2581inside": 3571,
  "\u2581camp": 3572,
  "\u2581\u0cb8\u0c82\u0ca4\u0ccb\u0cb7": 3573,
  "\u2581completely": 3574,
  "\u2581\u0d2e\u0d47\u0d32\u0d4d": 3575,
  "\u2581\u0b87\u0bb5\u0bb0\u0bcd\u0b95\u0bb3\u0bcd": 3576,
  "\u2581entered": 3577,
  "\u2581\u0d15\u0d4a": 3578,
  "\u2581copy": 3579,
  "\u2581\u0b8e\u0ba9\u0bbf\u0ba9\u0bc1\u0bae\u0bcd": 3580,
  "\u0cbf\u0c95": 3581,
  "\u2581\u0d38\u0d30\u0d4d": 3582,
  "\u2581wrath": 3583,
  "\u2581\u0c0e\u0c32\u0c3e\u0c02\u0c1f\u0c3f": 3584,
  "\u2581\u0c2f\u0c46\u0c37\u0c2f\u0c3e": 3585,
  "\u0c2c\u0c41": 3586,
  "\u0cb6\u0ccd": 3587,
  "\u2581immediately": 3588,
  "\u2581\u0d06\u0d30\u0d4d": 3589,
  "\u0c38\u0c46": 3590,
  "\u2581War": 3591,
  "\u2581\u0d05\u0d35\u0d30\u0d3f\u0d32\u0d4d": 3592,
  "\u2581Catholic": 3593,
  "\u2581\u0d15\u0d33\u0d3f": 3594,
  "\u2581Remove": 3595,
  "\u2581\u0c1a\u0c3e\u0c32\u0c3e\u0c2e\u0c02\u0c26\u0c3f": 3596,
  "\u2581\u0baa\u0bc1": 3597,
  "\u2581\u0c2a\u0c47\u0c24\u0c41\u0c30\u0c41": 3598,
  "\u2581\u0bb5\u0bc7\u0ba4\u0ba9\u0bc8": 3599,
  "\u2581\u0baa\u0bcb\u0bb2": 3600,
  "\u2581\u0c38\u0c3e\u0c24\u0c3e\u0c28\u0c41": 3601,
  "\u0ba4\u0bb1\u0bcd\u0b95\u0bbe\u0b95": 3602,
  "\u0bb4": 3603,
  "\u2581\u0cb9\u0cbe\u0c97\u0cc6\u0caf\u0cc7": 3604,
  "\u2581\u0c15\u0c4a\u0c02\u0c26\u0c30\u0c41": 3605,
  "\u0d15\u0d30": 3606,
  "\u2581\u0c2c\u0c3f": 3607,
  "ate": 3608,
  "\u2581progress": 3609,
  "\u0cb5\u0cbe\u0c97\u0cbf\u0cb0\u0cc1\u0cb5": 3610,
  "\u2581\u0c9c": 3611,
  "\u2581\u0c1a\u0c47\u0c2f\u0c41": 3612,
  "\u0c2e\u0c41\u0c32": 3613,
  "\u2581active": 3614,
  "\u2581conditions": 3615,
  "\u2581\u0d24\u0d41": 3616,
  "Let": 3617,
  "\u0d26\u0d4d\u0d27": 3618,
  "\u0ca4\u0cc6\u0caf": 3619,
  "\u2581\u0b85\u0ba9\u0bcd\u0bb1\u0bbf\u0baf\u0bc1\u0bae\u0bcd": 3620,
  "\u2581\u0c85\u0cb0\u0ccd\u0ca5": 3621,
  "\u0cb2\u0ccd\u0cb2\u0cbf\u0caf\u0cc2": 3622,
  "\u0d15\u0d4a\u0d23\u0d4d\u0d1f\u0d4d": 3623,
  "\u2581Oh": 3624,
  "\u0d19\u0d4d\u0d19\u0d33\u0d3f\u0d32\u0d4d": 3625,
  "\u2581sacred": 3626,
  "\u2581goal": 3627,
  "\u2581Add": 3628,
  "\u2581secret": 3629,
  "man": 3630,
  "\u2581offerings": 3631,
  "\u0c15\u0c41\u0c28\u0c41": 3632,
  "\u2581produce": 3633,
  "\u2581\u0caa\u0ccd\u0cb0\u0cc0\u0ca4\u0cbf\u0cb8": 3634,
  "\u25811)": 3635,
  "\u2581\u0c24\u0c40\u0c38\u0c3f\u0c15\u0c4a\u0c28\u0c3f": 3636,
  "\u2581\u0c2e\u0c30\u0c3f\u0c02\u0c24": 3637,
  "\u2581\u0c0e\u0c02\u0c26\u0c41\u0c15\u0c02\u0c1f\u0c47": 3638,
  "\u0baa\u0bcd\u0baa\u0b9f\u0bcd\u0b9f\u0bc1": 3639,
  "\u25811914": 3640,
  "\u2581\u0d2f\u0d3e\u0d24\u0d4a\u0d30\u0d41": 3641,
  "\u2581enjoyed": 3642,
  "\u2581tells": 3643,
  "\u0c2a\u0c30\u0c1a": 3644,
  "\u25810": 3645,
  "\u2581related": 3646,
  "\u0c46\u0c26\u0c28\u0c41": 3647,
  "\u0b99\u0bcd\u0b95\u0bb3": 3648,
  "\u2581\u0c38\u0c02\u0c16\u0c4d\u0c2f": 3649,
  "\u2581\u0cb5\u0cbf\u0cb7\u0caf": 3650,
  "\u2581deny": 3651,
  "\u2581\u0b95\u0bca": 3652,
  "\u2581\u0c09\u0c26\u0c3e\u0c39\u0c30\u0c23\u0c15\u0c41": 3653,
  "\u2581Lo": 3654,
  "\u2581literature": 3655,
  "\u2581\u0d05\u0d32\u0d4d\u0d32\u0d3e\u0d39\u0d41\u0d35\u0d46": 3656,
  "\u2581feeling": 3657,
  "\u2581nature": 3658,
  "\u2581\u0bae\u0ba4\u0bcd\u0ba4\u0bc7\u0baf\u0bc1": 3659,
  "\u2581neighbor": 3660,
  "\u2581\u0c95\u0cc6\u0cb2\u0cb5\u0cb0\u0cc1": 3661,
  "\u2581Yeah": 3662,
  "\u2581Isaac": 3663,
  "\u0baf\u0bc8\u0b95\u0bcd": 3664,
  "\u258138": 3665,
  "\u2581\u0d2e\u0d3e\u0d24\u0d4d\u0d30\u0d02": 3666,
  "\u2581fail": 3667,
  "\u0d2f\u0d3f\u0d32": 3668,
  "\u2581size": 3669,
  "\u2581\u0c05\u0c30\u0c4d\u0c25\u0c02": 3670,
  "\u0cbf\u0ca6\u0ccd\u0ca6\u0ca8\u0cc1": 3671,
  "\u2581Ephesians": 3672,
  "\u258124.": 3673,
  "\u0c82\u0c97": 3674,
  "\u2581\u0bb5\u0b95\u0bc8": 3675,
  "\u0bb1\u0bbf": 3676,
  "\u2581begin": 3677,
  "\u2581keeping": 3678,
  "\u25812)": 3679,
  "\u2581\u0b8e\u0ba9\u0bcd\u0ba9\u0bc1\u0b9f\u0bc8\u0baf": 3680,
  "\u2581throne": 3681,
  "\u2581\u0c87\u0cb8\u0ccd\u0cb0\u0cbe\u0caf\u0cc7\u0cb2\u0ccd": 3682,
  "\u2581\u0ca4\u0cbe\u0ca8\u0cc1": 3683,
  "\u2581\u0c2e\u0c47": 3684,
  "\u2581idea": 3685,
  "\u2581business": 3686,
  "\u2581persecution": 3687,
  "\u2581\u0c28\u0c3f\u0c1c\u0c02\u0c17\u0c3e": 3688,
  "\u2581ark": 3689,
  "\u0cb0\u0cbf\u0c97\u0cc6": 3690,
  "\u2581final": 3691,
  "\u2581\u0cb9\u0cca\u0cb0": 3692,
  "\u258124:": 3693,
  "\u2581remained": 3694,
  "\u0bae\u0bcd\u0baa": 3695,
  "\u0cb0\u0cc0": 3696,
  "\u2581\u0c1a\u0c02\u0c2a": 3697,
  "\u0d47\u0d23\u0d02": 3698,
  "\u0d15\u0d4d\u0d15\u0d41\u0d28\u0d4d\u0d28\u0d41": 3699,
  "\u2581\u0c95\u0cc7\u0cb5\u0cb2": 3700,
  "\u2581\u0b95\u0bca\u0b9f\u0bc1\u0b95\u0bcd\u0b95": 3701,
  "\u2581\u0c2c\u0c39\u0c41": 3702,
  "K": 3703,
  "\u2581calls": 3704,
  "\u0c24\u0c3e": 3705,
  "\u2581(%": 3706,
  "\u0cbf\u0ca8\u0cbf\u0c82\u0ca6": 3707,
  "\u2581\u0bb5\u0bbe\u0bb4\u0bcd\u0b95\u0bcd\u0b95\u0bc8": 3708,
  "\u2581teacher": 3709,
  "\u0c2e\u0c41\u0c32\u0c28\u0c41": 3710,
  "\u0d33\u0d3f": 3711,
  "\u0c41\u0c1a\u0c41\u0c28\u0c4d\u0c28\u0c3e\u0c28\u0c41": 3712,
  "\u2581\u0cae\u0ca8\u0cc6\u0caf": 3713,
  "\u2581guided": 3714,
  "\u2581\u0cae\u0ca4\u0ccd\u0ca4\u0cbe\u0caf": 3715,
  "\u2581\u0cb8\u0cc1\u0cae\u0cbe\u0cb0\u0cc1": 3716,
  "\u2581\u0b9a\u0bc6\u0bb2\u0bcd\u0bb2": 3717,
  "\u0d4b\u0d1f\u0d41": 3718,
  "\u2581Should": 3719,
  "\u0c38\u0c3e": 3720,
  "\u2581\u0c95\u0cbe": 3721,
  "\u2581broken": 3722,
  "\u2581\u0d12\u0d28\u0d4d\u0d28": 3723,
  "\u2581pleasure": 3724,
  "\u2581\u0d2e\u0d41\u0d2e\u0d4d\u0d2a\u0d4d": 3725,
  "\u2581whoever": 3726,
  "\u0c41\u0c15\u0c4a\u0c28": 3727,
  "\u2581fill": 3728,
  "\u2581\u0d2a\u0d3f\u0d28\u0d4d": 3729,
  "\u2581explain": 3730,
  "\u0cc1\u0cb3\u0ccd\u0cb3": 3731,
  "he": 3732,
  "\u0c35\u0c3e\u0c30\u0c3f\u0c28\u0c3f": 3733,
  "\u2581household": 3734,
  "\u2581\u0ca4\u0caa\u0ccd\u0caa": 3735,
  "\u2581IN": 3736,
  "\u2581Give": 3737,
  "\u2581arrived": 3738,
  "\u2581\u0c05\u0c32\u0c3e\u0c17\u0c47": 3739,
  "\u0d24\u0d3f\u0d32\u0d4d": 3740,
  "\u2581delight": 3741,
  "\u2581\u0c07\u0c02\u0c15\u0c3e": 3742,
  "\u0c95\u0ccb": 3743,
  "\u2581\u0c15\u0c4a\u0c28": 3744,
  "\u2581medical": 3745,
  "\u2581studying": 3746,
  "\u2581\u0c05\u0c26\u0c47": 3747,
  "\u2581\u0d05\u0d26\u0d4d\u0d26\u0d47\u0d39\u0d24\u0d4d\u0d24\u0d3f\u0d28\u0d4d": 3748,
  "\u2581\u0c89\u0ca6\u0cbe\u0cb9\u0cb0\u0ca3\u0cc6\u0c97\u0cc6": 3749,
  "\u2581personality": 3750,
  "\u2581\u0c05\u0c28\u0c4d\u0c28\u0c3e\u0c21\u0c41": 3751,
  "\u2581\u0d26\u0d48\u0d35\u0d24\u0d4d\u0d24\u0d3f\u0d28\u0d4d": 3752,
  "\u2581imperfect": 3753,
  "\u2581\u0d05\u0d28\u0d41": 3754,
  "\u258145": 3755,
  "\u2581devotion": 3756,
  "\u2581\u0c1a\u0c42\u0c2a": 3757,
  "\u0c24\u0c4b\u0c28\u0c41": 3758,
  "\u0c2e\u0c4d\u0c2e": 3759,
  "\u0cb9\u0ccb\u0c97": 3760,
  "\u2581air": 3761,
  "\u2581\u0cac\u0cbf\u0ca1": 3762,
  "\u2581\u0d1e\u0d19\u0d4d\u0d19\u0d33\u0d46": 3763,
  "\u2581minister": 3764,
  "\u2581protection": 3765,
  "\u0c15\u0c4a\u0c30\u0c15\u0c41": 3766,
  "\u2581\u0baa\u0bcb\u0bb0\u0bcd": 3767,
  "\u2581\u0cb9\u0cc1\u0ca1\u0cc1\u0c95": 3768,
  "\u2581Mount": 3769,
  "\u0d28\u0d4d\u0d28\u0d4d": 3770,
  "\u2581loss": 3771,
  "\u0c41\u0c1f\u0c15\u0c48": 3772,
  "\u2581\u0caf\u0cbe\u0cb0\u0cc1": 3773,
  "\u2581big": 3774,
  "\u2581\u0b85\u0baa\u0bcd\u0baa\u0bcb\u0ba4\u0bc1": 3775,
  "\u2581front": 3776,
  "\u2581\u0c15\u0c28\u0c2c\u0c21": 3777,
  "\u2581encouragement": 3778,
  "\u2581\u0c9c\u0cc0\u0cb5\u0ca8": 3779,
  "\u2581negative": 3780,
  "\u2581\u0cb8\u0cad\u0cc6\u0caf": 3781,
  "\u2581\u0c86\u0ca4\u0ca8\u0ca8\u0ccd\u0ca8\u0cc1": 3782,
  "\u2581option": 3783,
  "\u0bc1\u0b95\u0bcd\u0b95\u0bbe\u0b95": 3784,
  "\u0ca1\u0cc6": 3785,
  "\u0d15\u0d4a\u0d23\u0d4d\u0d1f\u0d41": 3786,
  "\u2581\u0c2e\u0c3e\u0c15\u0c41": 3787,
  "\u2581groups": 3788,
  "\u2581sit": 3789,
  "\u2581\u0c87\u0ca8\u0ccd\u0ca8\u0cca\u0c82\u0ca6\u0cc1": 3790,
  "\u2581\u0caf\u0cbe\u0cb5\u0cbe\u0c97\u0cb2\u0cc2": 3791,
  "\u2581deeply": 3792,
  "\u2581express": 3793,
  "\u2581lose": 3794,
  "\u2581\u0cae\u0cc2\u0cb0\u0cc1": 3795,
  "\u2581encourage": 3796,
  "\u2581\u0b85\u0bb5\u0ba9\u0bc1\u0b9f\u0bc8\u0baf": 3797,
  "\u2581gate": 3798,
  "\u2581\u0c86\u0ca6\u0ca6\u0cb0\u0cbf\u0c82\u0ca6": 3799,
  "\u0bbf\u0bb1": 3800,
  "\u2581\u0cb9\u0cc7\u0cb3\u0cc1\u0cb5\u0cc1\u0ca6\u0cc1": 3801,
  "\u2581Soon": 3802,
  "\u2581\u0c2e\u0c42\u0c21\u0c41": 3803,
  "\u2581\u0c06\u0c1c\u0c4d\u0c1e": 3804,
  "\u2581\u0d2e\u0d4b": 3805,
  "\u2581\u0d28\u0d46": 3806,
  "\u2581picture": 3807,
  "\u2581\u0c35\u0c3e": 3808,
  "\u2581articles": 3809,
  "\u0c41\u0c15\u0c4b": 3810,
  "\u2581\u0c2e\u0c3f\u0c2e\u0c4d\u0c2e\u0c41\u0c28\u0c41": 3811,
  "\u0b95\u0bcd\u0b95\u0bc2\u0b9f\u0bbf\u0baf": 3812,
  "\u2581\u0b8e\u0b99\u0bcd\u0b95\u0bb3\u0bcd": 3813,
  "\u2581behalf": 3814,
  "\u2581torment": 3815,
  "\u2581\u0bb5\u0bc6\u0bb3\u0bbf": 3816,
  "\u0d24\u0d3f\u0d28\u0d46": 3817,
  "\u0bc0": 3818,
  "\u2581\u0d24\u0d28\u0d4d\u0d28\u0d47": 3819,
  "\u2581Y": 3820,
  "\u2581\u0c86\u0ca4\u0ccd\u0cae": 3821,
  "\u0c41\u0c24\u0c41\u0c02\u0c26\u0c3f": 3822,
  "\u2581\u0c92": 3823,
  "\u2581causes": 3824,
  "\u0bb5\u0bb1\u0bcd\u0bb1\u0bc8": 3825,
  "\u0bb8": 3826,
  "\u0bc1\u0b95\u0bbf\u0ba9\u0bcd\u0bb1\u0ba9": 3827,
  "\u2581add": 3828,
  "\u0c26\u0c4d": 3829,
  "\u2581\u0d28\u0d3f\u0d2f\u0d2e": 3830,
  "\u2581\u0c1a\u0c46\u0c2c\u0c41\u0c24\u0c4b\u0c02\u0c26\u0c3f": 3831,
  "\u2581\u0d15\u0d3e\u0d32": 3832,
  "\u0baa\u0bbe": 3833,
  "\u2581\u0d15\u0d42\u0d1f\u0d3f": 3834,
  "\u0d15\u0d41": 3835,
  "\u0d31\u0d46\u0d2f\u0d41\u0d02": 3836,
  "\u2581dedicated": 3837,
  "\u2581\u0c26\u0c3e\u0c28\u0c4d\u0c28\u0c3f": 3838,
  "\u0ca8\u0ccd\u0ca8\u0cc6\u0cb2\u0ccd\u0cb2\u0cbe": 3839,
  "\u0d3f\u0d28\u0d41": 3840,
  "\u2581\u0c15\u0c4a": 3841,
  "\u2581re": 3842,
  "\u2581\u0c85\u0caa\u0cca\u0cb8\u0ccd\u0ca4\u0cb2": 3843,
  "\u0caa\u0ccd\u0caa": 3844,
  "\u2581\u0baa\u0b95\u0bc1\u0ba4\u0bbf": 3845,
  "\u2581\u0b9a\u0bc6\u0ba9\u0bcd\u0bb1": 3846,
  "\u0b95\u0bbf": 3847,
  "\u0d41\u0d2e\u0d3e\u0d2f\u0d3f\u0d30\u0d41\u0d28\u0d4d\u0d28\u0d41": 3848,
  "\u2581\u0c2d\u0c42\u0c2e\u0c3f": 3849,
  "\u2581de": 3850,
  "\u2581fast": 3851,
  "\u2581\u0b95\u0bc1\u0b9f\u0bc1\u0bae\u0bcd\u0baa": 3852,
  "\u0ba4\u0bcd\u0ba4\u0bc8\u0baa\u0bcd": 3853,
  "\u258118,": 3854,
  "\u2581\u0c35\u0c47\u0c2f": 3855,
  "\u0d15\u0d4d\u0d37": 3856,
  "\u2581equal": 3857,
  "\u2581\u0bae\u0bc7\u0bb2\u0bcd": 3858,
  "\u2581\u0b9a\u0b99\u0bcd\u0b95\u0bc0\u0ba4\u0bae\u0bcd": 3859,
  "\u2581hurt": 3860,
  "\u2581\u0c2f\u0c3e": 3861,
  "\u0ca4\u0ccd\u0ca4\u0cc1": 3862,
  "\u2581political": 3863,
  "\u2581\u0d2a\u0d42\u0d30\u0d4d": 3864,
  "\u0c15\u0c42": 3865,
  "\u2581\u0d38\u0d3e": 3866,
  "\u0cc1\u0cb5\u0cc1\u0ca6\u0cb0\u0cb2\u0ccd\u0cb2\u0cbf": 3867,
  "\u2581recent": 3868,
  "\u2581\u0cb8\u0cc7\u0cb5\u0cc6": 3869,
  "\u2581\u0ba4\u0bae\u0bcd\u0bae\u0bc1\u0b9f\u0bc8\u0baf": 3870,
  "\u2581\u0d2c": 3871,
  "\u2581TO": 3872,
  "\u0bb5\u0bb0\u0bcd\u0b95\u0bb3\u0bc8": 3873,
  "\u2581remove": 3874,
  "ra": 3875,
  "\u2581\u0bb5\u0bbf\u0bb3\u0b95\u0bcd\u0b95": 3876,
  "\u2581member": 3877,
  "\u2581cover": 3878,
  "\u0cb2\u0cbe\u0ca6": 3879,
  "\u2581astray": 3880,
  "\u2581date": 3881,
  "\u2581\u0ba4\u0bbe": 3882,
  "\u2581\u0baa\u0ba3\u0bbf": 3883,
  "\u2581\u0c35\u0c3f\u0c28\u0c3f": 3884,
  "\u258120,": 3885,
  "\u2581Time": 3886,
  "\u2581\u0b95\u0bc2\u0b9f\u0bcd\u0b9f": 3887,
  "\u0c32\u0c4b\u0c28\u0c41": 3888,
  "\u2581\u0d28\u0d2e\u0d41\u0d15\u0d4d\u0d15\u0d41": 3889,
  "\u2581belongs": 3890,
  "\u2581eventually": 3891,
  "\u2581lesson": 3892,
  "\u0caa\u0ca1": 3893,
  "\u2581\u0d38\u0d2e": 3894,
  "\u2581\u0cae\u0cbe\u0cb0\u0ccd\u0c97": 3895,
  "\u2581\u0d28\u0d3f\u0d28\u0d4d\u0d28\u0d41\u0d33\u0d4d\u0d33": 3896,
  "\u2581ears": 3897,
  "\u2581\u0d38\u0d4d\u0d35\u0d30\u0d4d": 3898,
  "\u0c2a\u0c4d\u0c2a": 3899,
  "\u0bc1\u0b95\u0bbf\u0bb1\u0bbe\u0bb0\u0bcd": 3900,
  "\u2581glad": 3901,
  "\u2581\u0d05\u0d1f\u0d41\u0d24\u0d4d\u0d24\u0d4d": 3902,
  "\u0c35\u0c41\u0c28\u0c4d\u0c28": 3903,
  "\u2581Help": 3904,
  "\u2581original": 3905,
  "\u2581Over": 3906,
  "\u0d24\u0d4b": 3907,
  "\u2581male": 3908,
  "format": 3909,
  "\u0ba4\u0bcd\u0ba4\u0bbf\u0bb2\u0bc1\u0bae\u0bcd": 3910,
  "\u0d7a": 3911,
  "\u2581Through": 3912,
  "\u2581hearing": 3913,
  "\u0d3f\u0d1f": 3914,
  "\u0d2a\u0d3f": 3915,
  "\u2581contrast": 3916,
  "\u2581riches": 3917,
  "\u2581\u0d13\u0d30\u0d4d": 3918,
  "\u2581aside": 3919,
  "\u2581step": 3920,
  "\u2581\u0c85\u0cb5\u0cc1\u0c97\u0cb3": 3921,
  "\u2581Fire": 3922,
  "\u2581\u0c9a\u0cbf\u0c95\u0ccd\u0c95": 3923,
  "\u0ca4\u0ca8": 3924,
  "\u0baf\u0bbf\u0bb2\u0bc1\u0bae\u0bcd": 3925,
  "\u2581\u0c9c\u0ca8\u0cb0\u0ca8\u0ccd\u0ca8\u0cc1": 3926,
  "\u2581patience": 3927,
  "\u2581process": 3928,
  "\u2581recognize": 3929,
  "\u2581Levites": 3930,
  "\u0d41\u0d2e\u0d46\u0d28\u0d4d\u0d28\u0d4d": 3931,
  "\u2581declared": 3932,
  "\u0cbf\u0ca1": 3933,
  "\u2581\u0c1a\u0c46\u0c2a\u0c4d\u0c2a\u0c3f\u0c28": 3934,
  "\u2581\u0d2f\u0d3e": 3935,
  "\u2581reached": 3936,
  "\u2581\u0b95\u0bc7": 3937,
  "\u0bb2\u0bcd\u0bb2": 3938,
  "\u0bb5\u0bb0\u0bcd\u0b95\u0bb3\u0bc1\u0b95\u0bcd\u0b95\u0bc1": 3939,
  "\u2581\u0d35\u0d3f\u0d32": 3940,
  "\u2581company": 3941,
  "\u0b9a\u0bcd\u0b9a\u0bbf": 3942,
  "\u2581traveling": 3943,
  "\u0d15\u0d33\u0d41\u0d1f\u0d46": 3944,
  "\u0c02\u0c2a": 3945,
  "\u2581\u0c85\u0c82\u0ca4": 3946,
  "\u2581\u0c85\u0c82\u0ca5": 3947,
  "\u0caf\u0cbf\u0c82\u0ca6": 3948,
  "\u0d17\u0d24\u0d4d\u0d24\u0d3f\u0d32": 3949,
  "\u2581check": 3950,
  "\u2581noted": 3951,
  "\u2581\u0c85\u0c97\u0ca4\u0ccd\u0caf": 3952,
  "\u2581\u0c2a\u0c3f\u0c32\u0c4d\u0c32\u0c32\u0c41": 3953,
  "\u0d06": 3954,
  "\u2581\u0bb5\u0ba8\u0bcd\u0ba4\u0bc1": 3955,
  "\u2581\u0d2e\u0d31\u0d4d\u0d31\u0d4a\u0d30\u0d41": 3956,
  "\u2581\u0c35\u0c3e\u0c33\u0c4d\u0c32\u0c41": 3957,
  "\u2581struck": 3958,
  "\u2581\u0cae\u0cc1\u0c96\u0ccd\u0caf": 3959,
  "\u2581suffered": 3960,
  "\u2581\u0bae\u0ba9\u0bbf\u0ba4": 3961,
  "\u2581greatly": 3962,
  "\u2581social": 3963,
  "\u2581\u0bae\u0bc1\u0ba9\u0bcd\u0ba9": 3964,
  "\u2581\u0d15\u0d23\u0d4d\u0d1f\u0d41": 3965,
  "\u2581although": 3966,
  "\u2581rise": 3967,
  "\u2581\u0cb9\u0cc7\u0cb3\u0cbf\u0ca6": 3968,
  "\u0b95\u0bcd\u0b95\u0bbe\u0b95": 3969,
  "\u2581cases": 3970,
  "\u2581\u0bae\u0b9f\u0bcd\u0b9f\u0bc1\u0bae\u0bc7": 3971,
  "\u2581\u0c35\u0c46\u0c33\u0c4d\u0c33": 3972,
  "\u0c15\u0c02\u0c1f\u0c46": 3973,
  "\u2581\u0cac\u0caf\u0cb8": 3974,
  "espite": 3975,
  "\u2581\u0b9a\u0bc7\u0bb0\u0bcd\u0ba8\u0bcd\u0ba4": 3976,
  "\u0c97\u0cc2": 3977,
  "\u0ca8\u0cbf\u0c97\u0cc6": 3978,
  "\u2581\u0ca6\u0cbe\u0cb5\u0cc0\u0ca6\u0ca8\u0cc1": 3979,
  "\u0c2e\u0c41\u0c28\u0c15\u0c41": 3980,
  "\u2581refuge": 3981,
  "\u2581sort": 3982,
  "\u2581\u0b8e\u0ba9\u0bcd\u0baa\u0ba4\u0bbe\u0b95": 3983,
  "de": 3984,
  "il": 3985,
  "\u2581Dr": 3986,
  "\u2581rejected": 3987,
  "\u0c35\u0c32\u0c38\u0c3f\u0c28": 3988,
  "\u2581\u0b9a\u0bc6\u0baf\u0bcd\u0baf\u0baa\u0bcd\u0baa\u0b9f\u0bcd\u0b9f": 3989,
  "\u2581sake": 3990,
  "\u2581\u0ca6\u0cc2\u0cb0": 3991,
  "\u2581prepare": 3992,
  "\u2581box": 3993,
  "\u2581burning": 3994,
  "\u2581prevent": 3995,
  "\u2581..": 3996,
  "\u2581\u0d05\u0d32\u0d4d\u0d32\u0d46\u0d19\u0d4d\u0d15\u0d3f\u0d32\u0d4d": 3997,
  "\u0c38\u0c4d\u0c24\u0c41\u0c02\u0c26\u0c3f": 3998,
  "\u0cb5\u0ca8": 3999,
  "\u2581\u0d05\u0d24\u0d3f\u0d28\u0d4d\u0d31\u0d46": 4000,
  "\u0cae\u0cbe\u0ca8": 4001,
  "\u2581sought": 4002,
  "\u2581\u0caf\u0cbe\u0c95\u0cc6": 4003,
  "\u0c2a\u0c3e": 4004,
  "\u2581\u0d2e\u0d24\u0d3f": 4005,
  "\u2581\u0c1a\u0c47\u0c38\u0c4d\u0c24\u0c41\u0c02\u0c26\u0c3f": 4006,
  "\u2581Set": 4007,
  "\u2581Open": 4008,
  "\u2581studies": 4009,
  "\u2581top": 4010,
  "\u0c30\u0c46": 4011,
  "\u0d24\u0d4d\u0d24\u0d4b\u0d1f\u0d46": 4012,
  "\u2581\u0b95\u0bbe\u0bb0\u0ba3\u0bae\u0bbe\u0b95": 4013,
  "\u0c28\u0c02\u0c26\u0c41": 4014,
  "\u0d15\u0d3f\u0d2f": 4015,
  "\u2581mental": 4016,
  "\u2581observed": 4017,
  "\u2581\u0b9a\u0bca\u0bb2\u0bcd\u0b95\u0bbf\u0bb1\u0ba4\u0bc1": 4018,
  "\u0ba4\u0bcd\u0ba4\u0bbf": 4019,
  "\u2581creatures": 4020,
  "\u2581story": 4021,
  "00": 4022,
  "\u2581Similarly": 4023,
  "\u2581drive": 4024,
  "\u0b9a\u0bc1": 4025,
  "\u0cb2\u0ccb": 4026,
  "\u2581\u0b95\u0b9f\u0bcd\u0b9f": 4027,
  "\u0c2f\u0c4d\u0c2f": 4028,
  "\u2581becomes": 4029,
  "\u2581faced": 4030,
  "\u2581\u0c07\u0c15\u0c4d\u0c15\u0c21": 4031,
  "\u2581\u0cac\u0ca6\u0cb2\u0cbe\u0c97\u0cbf": 4032,
  "\u2581\u0d15\u0d42\u0d1f\u0d4d\u0d1f\u0d24\u0d4d\u0d24\u0d3f\u0d32": 4033,
  "\u0d46\u0d19\u0d4d\u0d15\u0d3f\u0d32\u0d41\u0d02": 4034,
  "\u2581\u0b9a\u0baa\u0bc8": 4035,
  "\u2581\u0d2c\u0d3e": 4036,
  "\u0cbf\u0c97": 4037,
  "\u2581\u0b87\u0bb0\u0bc1\u0ba8\u0bcd\u0ba4\u0bbe\u0bb2\u0bcd": 4038,
  "\u2581twenty": 4039,
  "\u2581\u0d15\u0d3e\u0d30\u0d4d\u0d2f\u0d24\u0d4d\u0d24\u0d3f\u0d32": 4040,
  "\u2581\u0c38\u0c2e\u0c2f\u0c02": 4041,
  "\u2581tabernacle": 4042,
  "\u2581event": 4043,
  "\u2581nine": 4044,
  "\u2581\u0c1c\u0c40\u0c35": 4045,
  "\u0c41\u0c35\u0c3e\u0c21\u0c41": 4046,
  "\u2581grateful": 4047,
  "\u0c21\u0c3e": 4048,
  "\u2581general": 4049,
  "\u0d24\u0d30": 4050,
  "\u2581expressed": 4051,
  "\u2581raise": 4052,
  "\u2581\u0b85\u0ba9\u0bcd\u0baa\u0bc1": 4053,
  "\u2581trouble": 4054,
  "\u2581wall": 4055,
  "\u2581\u0bae\u0bc0\u0ba3\u0bcd\u0b9f\u0bc1\u0bae\u0bcd": 4056,
  "\u2581\u0c2e\u0c24\u0c4d\u0c24\u0c2f\u0c3f": 4057,
  "\u2581\u0cb8\u0cc1": 4058,
  "\u2581Messiah": 4059,
  "\u2581\u0ba8\u0bbe\u0bb3\u0bcd": 4060,
  "\u2581\u0d05\u0d1f\u0d41\u0d15\u0d4d\u0d15\u0d32": 4061,
  "\u2581\u0c15\u0c4d\u0c30\u0c48\u0c38\u0c4d\u0c24\u0c35\u0c41\u0c32\u0c41": 4062,
  "\u2581meant": 4063,
  "\u2581\u0b8e\u0bb5\u0bcd\u0bb5\u0bb3\u0bb5\u0bc1": 4064,
  "\u0ba4\u0bcd\u0ba4\u0bbe\u0ba9\u0bcd": 4065,
  "\u2581warned": 4066,
  "\u2581\u0d38\u0d02\u0d38\u0d3e\u0d30\u0d3f\u0d15\u0d4d\u0d15": 4067,
  "\u2581dedication": 4068,
  "\u2581\u0b9a\u0bc7\u0bb5\u0bc8": 4069,
  "\u2581\u0bb5\u0bbf\u0bb0\u0bc1\u0bae\u0bcd\u0baa": 4070,
  "\u2581\u0c38\u0c02\u0c35\u0c24\u0c4d\u0c38\u0c30\u0c3e\u0c32": 4071,
  "\u2581\u0c85\u0ca8\u0cc1\u0cad\u0cb5\u0cbf\u0cb8": 4072,
  "\u2581\u0ba8\u0bc0\u0b95\u0bcd\u0b95": 4073,
  "\u2581\u0c35\u0c46\u0c33\u0c4d\u0c32\u0c3f": 4074,
  "\u2581\u0d2f\u0d4b": 4075,
  "\u2581\u0b87\u0bb5\u0bc8": 4076,
  "\u2581\u0ba4\u0ba9\u0bcd\u0ba9\u0bc1\u0b9f\u0bc8\u0baf": 4077,
  "\u2581focus": 4078,
  "\u2581\u0c2e\u0c30\u0c4b": 4079,
  "\u2581\u0d15\u0d4a\u0d32\u0d4d\u0d32": 4080,
  "\u2581\u0c15\u0c42\u0c21": 4081,
  "\u2581\u0cb0\u0cbe\u0c9c\u0ccd\u0caf\u0ca6": 4082,
  "\u0d35\u0d30\u0d41\u0d02": 4083,
  "\u2581\u0c2a\u0c46": 4084,
  "\u2581strive": 4085,
  "\u2581committed": 4086,
  "\u2581hell": 4087,
  "\u0d24\u0d4d\u0d24\u0d28\u0d4d\u0d28\u0d46": 4088,
  "\u2581\u0c24\u0c28\u0c15\u0c41": 4089,
  "\u2581\u0c2e\u0c24": 4090,
  "\u2581\u0d2c\u0d3f": 4091,
  "\u0c47\u0c32\u0c3e": 4092,
  "\u2581\u0cae\u0cc6": 4093,
  "\u0c15\u0c30\u0c2e\u0c48\u0c28": 4094,
  "\u2581cultivate": 4095,
  "\u2581Elijah": 4096,
  "\u2581unclean": 4097,
  "\u2581\u0baf\u0bcb\u0bb5\u0bbe\u0ba9\u0bcd": 4098,
  "\u0c32\u0c4b\u0c28\u0c3f\u0c15\u0c3f": 4099,
  "\u0cb8\u0ccd\u0ca5": 4100,
  "\u0b99\u0bcd\u0b95\u0bb3\u0bc1\u0b95\u0bcd\u0b95\u0bc1": 4101,
  "\u2581\u0c2a\u0c4d\u0c30\u0c47\u0c2e\u0c3f\u0c02\u0c1a": 4102,
  "\u0cbf\u0ca6\u0cb0\u0cc6": 4103,
  "\u2581\u0b85\u0ba8\u0bcd\u0ba4\u0baa\u0bcd": 4104,
  "\u2581\u0d12\u0d28\u0d4d\u0d28\u0d41\u0d02": 4105,
  "\u2581\u0cb2\u0ccb\u0c95\u0ca6": 4106,
  "\u2581\u0d15\u0d41\u0d1f\u0d41\u0d02\u0d2c": 4107,
  "\u0c86": 4108,
  "\u2581\u0d05\u0d2e\u0d4d\u0d2e": 4109,
  "\u2581\u0caa\u0ccd\u0cb0\u0caf\u0ca4\u0ccd\u0ca8\u0cbf\u0cb8": 4110,
  "\u0d27\u0d3f": 4111,
  "\u2581\u0d38\u0d46": 4112,
  "\u2581\u0ca8\u0c82\u0cac\u0cbf\u0c97\u0cb8\u0ccd\u0ca4": 4113,
  "\u0c41\u0c21\u0c48\u0c28": 4114,
  "\u2581gather": 4115,
  "\u2581talking": 4116,
  "\u2581souls": 4117,
  "\u2581\u0ca8\u0cbe": 4118,
  "\u2581\u0cae\u0cbe\u0ca1\u0cbf\u0ca6\u0ca8\u0cc1": 4119,
  "\u2581\u0cb8\u0cbf": 4120,
  "\u2581asking": 4121,
  "\u2581waiting": 4122,
  "\u2581\u0b9a\u0bc1\u0bae\u0bbe\u0bb0\u0bcd": 4123,
  "\u0ba4\u0bcb": 4124,
  "\u2581\u0cb5\u0cbf\u0cb7\u0caf\u0c97\u0cb3": 4125,
  "\u2581\u0c2a\u0c42": 4126,
  "\u0cbe\u0ca6\u0cb0\u0cc2": 4127,
  "\u0c1f\u0c4d\u0c1f\u0c41": 4128,
  "\u2581@": 4129,
  "\u0bb1\u0bcd": 4130,
  "\u2581High": 4131,
  "\u0c41\u0c1a\u0c41\u0c28\u0c4d\u0c28\u0c26\u0c3f": 4132,
  "\u2581\u0c17\u0c41\u0c30\u0c3f\u0c02\u0c1a\u0c3f\u0c28": 4133,
  "\u2581\u0c86\u0ca4\u0ca8\u0cbf\u0c97\u0cc6": 4134,
  "\u0bb0\u0bc7": 4135,
  "\u2581\u0d15\u0d4a\u0d1f\u0d41\u0d15\u0d4d\u0d15": 4136,
  "\u0c1f\u0c40": 4137,
  "\u2581birds": 4138,
  "ity": 4139,
  "\u2581Her": 4140,
  "\u2581overcome": 4141,
  "\u2581\u0c35\u0c30\u0c15\u0c41": 4142,
  "\u2581baby": 4143,
  "\u2581despite": 4144,
  "\u2581unbelievers": 4145,
  "\u2581\u0ba4\u0b99\u0bcd\u0b95\u0bb3\u0bc1\u0b9f\u0bc8\u0baf": 4146,
  "\u0b89": 4147,
  "\u2581Each": 4148,
  "\u2581\u0bae\u0bc2\u0ba9\u0bcd\u0bb1\u0bc1": 4149,
  "\u0d15\u0d4d\u0d15\u0d3e": 4150,
  "\u2581data": 4151,
  "\u2581tribulation": 4152,
  "\u2581\u0baa\u0bcb\u0bb2\u0bcd": 4153,
  "\u2581\u0caf\u0cc1\u0cb5": 4154,
  "\u2581visited": 4155,
  "\u0baf\u0bc8\u0baa\u0bcd": 4156,
  "\u0c28\u0c48\u0c28\u0c28\u0c41": 4157,
  "\u0d41\u0d15\u0d2f\u0d4b": 4158,
  "\u0bae\u0bc1\u0bb1\u0bc8": 4159,
  "\u2581Society": 4160,
  "\u2581\u0c32\u0c47": 4161,
  "\u2581\u0d38\u0d2e\u0d2f\u0d02": 4162,
  "\u2581goals": 4163,
  "\u2581obedience": 4164,
  "\u2581dust": 4165,
  "\u2581reported": 4166,
  "ment": 4167,
  "\u2581heed": 4168,
  "\u2581humility": 4169,
  "\u2581straight": 4170,
  "\u2581values": 4171,
  "\u2581\u0cac\u0cb3\u0cbf\u0c95": 4172,
  "\u2581\u0d15\u0d3e\u0d23\u0d3f\u0d15\u0d4d\u0d15": 4173,
  "\u2581beliefs": 4174,
  "\u2581\u0c09\u0c02\u0c21\u0c47": 4175,
  "\u2581refused": 4176,
  "\u2581importance": 4177,
  "\u2581\u0c2f\u0c40": 4178,
  "\u2581<": 4179,
  "\u2581\u0b8f\u0ba9\u0bc6\u0ba9\u0bcd\u0bb1\u0bbe\u0bb2\u0bcd": 4180,
  "\u2581cried": 4181,
  "less": 4182,
  "\u0baa\u0bcd\u0baa\u0bbf": 4183,
  "\u2581\u0d28\u0d28\u0d4d\u0d26\u0d3f": 4184,
  "\u0cbf\u0c95\u0cc6\u0caf": 4185,
  "\u2581Man": 4186,
  "\u2581placed": 4187,
  "\u0cb5\u0cbf\u0ca6\u0cc6": 4188,
  "\u2581thanks": 4189,
  "\u2581\u0d15\u0d42\u0d1f\u0d4d\u0d1f": 4190,
  "\u2581major": 4191,
  "\u2581\u0ba4\u0bc7\u0b9f": 4192,
  "\u2581\u0c95\u0cb3\u0cc1\u0cb9\u0cbf\u0cb8": 4193,
  "\u2581\u0d2e\u0d3e\u0d24\u0d4d\u0d30\u0d2e\u0d3e\u0d23\u0d4d": 4194,
  "\u2581garden": 4195,
  "\u2581\u0b9a\u0bbe\u0b9f\u0bcd\u0b9a\u0bbf\u0b95\u0bb3\u0bcd": 4196,
  "\u2581South": 4197,
  "\u2581\u0caa\u0cc1\u0ca8\u0c83": 4198,
  "\u2581\u0ba8\u0bc7\u0bb0": 4199,
  "\u2581lord": 4200,
  "\u2581\u0ca6\u0cc7\u0cb5\u0cb0\u0ca8\u0ccd\u0ca8\u0cc1": 4201,
  "\u2581\u0c2c\u0c3e\u0c27": 4202,
  "\u0c02\u0c26": 4203,
  "\u2581reveal": 4204,
  "\u2581\u0bae\u0ba4\u0bbf\u0baa\u0bcd\u0baa\u0bc1": 4205,
  "\u2581\u0c2e\u0c28\u0c32\u0c4d\u0c28\u0c3f": 4206,
  "\u2581\u0d28\u0d4b\u0d15\u0d4d\u0d15": 4207,
  "\u2581workers": 4208,
  "\u2581\u0cb5\u0cb0\u0ccd\u0cb7\u0c97\u0cb3": 4209,
  "\u2581\u0cb8\u0cb9\u0ccb\u0ca6\u0cb0": 4210,
  "\u0d24\u0d4d\u0d24\u0d3f\u0d32\u0d41\u0d02": 4211,
  "\u2581\u0d05\u0d24\u0d41\u0d15\u0d4a\u0d23\u0d4d\u0d1f\u0d4d": 4212,
  "\u0d2b\u0d4d": 4213,
  "\u2581seemed": 4214,
  "\u2581points": 4215,
  "\u2581\u0c2a\u0c3e\u0c2a\u0c2e\u0c41": 4216,
  "\u2581\u0b85\u0ba4\u0ba9\u0bbe\u0bb2\u0bcd": 4217,
  "\u2581\u0c17\u0c3e\u0c15": 4218,
  "\u0c32\u0c24\u0c4b": 4219,
  "\u2581\u0baa\u0bbe\u0bb0\u0bcd\u0ba4\u0bcd\u0ba4": 4220,
  "\u0c41\u0c15\u0c4b\u0c35\u0c21\u0c3e\u0c28\u0c3f\u0c15\u0c3f": 4221,
  "\u0d28\u0d47": 4222,
  "\u2581writing": 4223,
  "\u2581\u0ca8\u0c82\u0cac\u0cbf\u0c95\u0cc6": 4224,
  "\u0c9a\u0ccd\u0c9a": 4225,
  "\u0d2a\u0d4d\u0d2a\u0d4d": 4226,
  "\u0c1a\u0c47": 4227,
  "\u2581severe": 4228,
  "\u0cb7\u0ccd": 4229,
  "\u2581Germany": 4230,
  "\u2581multitude": 4231,
  "\u0d46\u0d1f\u0d41\u0d15\u0d4d\u0d15": 4232,
  "\u2581\u0d1f\u0d41": 4233,
  "\u2581\u0d39\u0d3e": 4234,
  "\u2581\u0d2a\u0d47\u0d30\u0d4d": 4235,
  "\u2581publications": 4236,
  "\u2581quite": 4237,
  "\u2581sex": 4238,
  "\u0d30\u0d3e\u0d2f": 4239,
  "\u2581late": 4240,
  "\u2581\u0b9a\u0bc1": 4241,
  "When": 4242,
  "\u2581\u0c1a\u0c42\u0c2a\u0c3f\u0c02\u0c1a": 4243,
  "\u2581closer": 4244,
  "\u0c28\u0c41\u0c2c\u0c1f\u0c4d\u0c1f\u0c3f": 4245,
  "\u2581\u0d2a\u0d4a": 4246,
  "\u0cbe\u0c97\u0cb2\u0cbf": 4247,
  "\u2581\u0c28\u0c40\u0c24\u0c3f": 4248,
  "\u2581\u0b89\u0ba3\u0bcd\u0bae\u0bc8\u0baf\u0bbf\u0bb2\u0bcd": 4249,
  "\u0cbf\u0cb0": 4250,
  "\u2581teachers": 4251,
  "\u2581\u0c05\u0c28\u0c17\u0c3e": 4252,
  "\u2581\u0c95\u0cb2\u0cbf\u0cb8": 4253,
  "\u2581\u0baa\u0bbe": 4254,
  "\u2581river": 4255,
  "\u258125.": 4256,
  "\u0c3f\u0c28\u0c2f\u0c46\u0c21\u0c32": 4257,
  "\u2581Every": 4258,
  "\u2581animal": 4259,
  "\u0cb7\u0ccd\u0c9f\u0cc1": 4260,
  "\u2581\u0c93\u0ca6": 4261,
  "\u0d23\u0d4d\u0d23": 4262,
  "\u2581[\u201c": 4263,
  "\u2581\u0baa\u0bc6\u0ba3\u0bcd": 4264,
  "\u0c3e\u0c2e\u0c41": 4265,
  "\u2581\u0c2e\u0c3e\u0c28\u0c35": 4266,
  "\u2581\u0bb5\u0bc8\u0b95\u0bcd\u0b95": 4267,
  "\u2581bless": 4268,
  "\u0cae\u0cc6": 4269,
  "\u0cb0\u0cc7": 4270,
  "\u0cbf\u0c95\u0cca\u0c82\u0ca1": 4271,
  "\u2581affection": 4272,
  "\u0d2e\u0d32\u0d4d\u0d32": 4273,
  "\u2581genuine": 4274,
  "\u2581\u0bb5\u0baf\u0ba4\u0bc1": 4275,
  "\u2581appeared": 4276,
  "\u2581brethren": 4277,
  "\u2581\u0c95\u0cc1\u0c9f\u0cc1\u0c82\u0cac": 4278,
  "\u2581\u0d24\u0d3e": 4279,
  "\u2581Church": 4280,
  "\u2581specific": 4281,
  "\u2581\u0c07\u0c35\u0c4d\u0c35": 4282,
  "\u0d3f\u0d15": 4283,
  "\u2581developed": 4284,
  "\u2581\u0cac\u0cbf\u0c9f\u0ccd\u0c9f\u0cc1": 4285,
  "\u2581\u0d28\u0d47\u0d30\u0d46": 4286,
  "\u2581relatives": 4287,
  "\u0baf\u0bcd": 4288,
  "\u2581accounts": 4289,
  "\u2581lest": 4290,
  "\u0c2e\u0c02\u0c26\u0c3f": 4291,
  "\u2581table": 4292,
  "\u2581\u0cb6\u0cc1\u0ca6\u0ccd\u0ca7": 4293,
  "\u2581\u0d0f\u0d24\u0d41": 4294,
  "\u2581\u0b87\u0ba4\u0bb1\u0bcd\u0b95\u0bc1": 4295,
  "\u258124,": 4296,
  "\u2581\u0cae\u0cbe\u0ca8\u0cb5": 4297,
  "\u2581\u0d2a\u0d41": 4298,
  "\u2581\u0ba8\u0bbe": 4299,
  "\u0c35\u0c28\u0c3f": 4300,
  "\u2581clubs": 4301,
  "\u2581\u0b9a\u0bca\u0ba8\u0bcd\u0ba4": 4302,
  "\u2581\u0c05\u0c2a\u0c4a\u0c38\u0c4d\u0c24\u0c32\u0c41\u0c21": 4303,
  "\u2581\u0c28\u0c2e\u0c4d\u0c2e": 4304,
  "\u2581\u0c2c\u0c4b\u0c27\u0c3f\u0c02\u0c1a": 4305,
  "\u0d2e\u0d41": 4306,
  "\u2581unity": 4307,
  "\u2581request": 4308,
  "\u2581\u0b87\u0bb0\u0bc1\u0b95\u0bcd\u0b95\u0bbf\u0ba9\u0bcd\u0bb1\u0bbe\u0ba9\u0bcd": 4309,
  "\u2581\u0b95\u0bbf": 4310,
  "ul": 4311,
  "\u2581V": 4312,
  "\u0d38\u0d02": 4313,
  "\u2581Philistines": 4314,
  "\u2581stones": 4315,
  "\u2581\u0b85\u0b99\u0bcd\u0b95\u0bc1": 4316,
  "\u2581\u0c38\u0c02\u0c1a\u0c2f\u0c02": 4317,
  "\u0c2f\u0c4a\u0c26\u0c4d\u0c26": 4318,
  "\u2581\u0c35\u0c3f\u0c37\u0c2f\u0c02": 4319,
  "\u2581\u0caf\u0cc6\u0cb9\u0ccb\u0cb5\u0ca8\u0ca8\u0ccd\u0ca8\u0cc1": 4320,
  "\u0d32\u0d4d\u0d32\u0d3e\u0d24\u0d46": 4321,
  "\u0bc1\u0b95\u0bcd": 4322,
  "\u2581illustration": 4323,
  "\u2581\u0d35\u0d4d\u0d2f\u0d15\u0d4d\u0d24\u0d2e\u0d3e\u0d2f": 4324,
  "\u0d3e\u0d30": 4325,
  "\u2581persons": 4326,
  "\u2581principle": 4327,
  "\u0bb5\u0bb0\u0bbe\u0b95": 4328,
  "\u258121:": 4329,
  "\u2581\u0baa\u0b95\u0bcd\u0b95": 4330,
  "\u2581carefully": 4331,
  "\u2581\u0b95\u0bb0\u0bc1\u0ba4": 4332,
  "\u2581\u0c35\u0c1a\u0c4d\u0c1a\u0c3f\u0c02\u0c26\u0c3f": 4333,
  "\u2581princes": 4334,
  "\u2581DVD": 4335,
  "\u2581treatment": 4336,
  "\u2581putt": 4337,
  "\u2581basic": 4338,
  "\u2581compassion": 4339,
  "\u2581examine": 4340,
  "\u2581\u0b85\u0ba4\u0bc7": 4341,
  "\u0c32\u0c41\u0c28\u0c41": 4342,
  "\u2581included": 4343,
  "\u0ca1\u0cbf\u0caf": 4344,
  "\u2581\u0c0f\u0c2e\u0c3f\u0c1f\u0c3f": 4345,
  "ist": 4346,
  "\u2581School": 4347,
  "\u2581foot": 4348,
  "\u2581\u0b8f\u0bb1\u0bcd\u0bb1": 4349,
  "\u0d24\u0d4d\u0d30\u0d46": 4350,
  "\u25814;": 4351,
  "\u2581sovereignty": 4352,
  "\u2581\u0b9a\u0bbf\u0bb1\u0ba8\u0bcd\u0ba4": 4353,
  "\u2581\u0d2e\u0d30\u0d23": 4354,
  "\u2581\u0cb8\u0ccd\u0cb5\u0c82\u0ca4": 4355,
  "\u0d15\u0d4d\u0d15\u0d3e\u0d2f\u0d3f": 4356,
  "\u258190": 4357,
  "\u2581music": 4358,
  "\u2581consequences": 4359,
  "\u2581\u0d28\u0d1f\u0d24\u0d4d\u0d24": 4360,
  "\u0cb5\u0cbe\u0caf\u0cbf\u0ca4\u0cc1": 4361,
  "\u2581escape": 4362,
  "\u2581involves": 4363,
  "\u2581realized": 4364,
  "\u2581shepherd": 4365,
  "\u2581\u0cac\u0cb9\u0cc1": 4366,
  "\u2581painful": 4367,
  "\u2581\u0b85\u0b9f\u0bc8\u0bb5\u0bc1": 4368,
  "\u2581\u0c05\u0c02\u0c26\u0c41\u0c15\u0c41": 4369,
  "\u0c35\u0c3e\u0c30\u0c3f\u0c15\u0c3f": 4370,
  "\u2581amount": 4371,
  "\u2581emotional": 4372,
  "\u2581\u0b87\u0baf\u0bc7\u0b9a\u0bc1\u0bb5\u0bbf\u0ba9\u0bcd": 4373,
  "ol": 4374,
  "\u2581\u0c8e\u0c82\u0cac\u0cc1\u0ca6\u0cc1": 4375,
  "\u0d35\u0d4d": 4376,
  "\u2581\u0caf\u0ccb\u0cb9\u0cbe\u0ca8": 4377,
  "\u2581\u0d0e\u0d35\u0d3f\u0d1f\u0d46": 4378,
  "\u2581\u0d1a\u0d47\u0d30\u0d4d": 4379,
  "\u0d21": 4380,
  "\u2581\u0d05\u0d35\u0d30\u0d4b\u0d1f\u0d4d": 4381,
  "\u2581main": 4382,
  "\u2581\u0bae\u0bc1\u0b95\u0bcd\u0b95\u0bbf\u0baf": 4383,
  "\u2581\u0c2a\u0c02\u0c2a": 4384,
  "\u2581\u0d38\u0d28\u0d4d\u0d26\u0d30\u0d4d": 4385,
  "\u2581Error": 4386,
  "\u2581\u0c85\u0cb5\u0cc1\u0c97\u0cb3\u0ca8\u0ccd\u0ca8\u0cc1": 4387,
  "\u0c82\u0c9a": 4388,
  "\u0d32\u0d4b": 4389,
  "\u2581\u0d38\u0d4d\u0d35\u0d40\u0d15\u0d30\u0d3f\u0d15\u0d4d\u0d15": 4390,
  "\u2581\u0caf\u0cbe\u0cb5\u0cc1\u0ca6\u0cc1": 4391,
  "\u2581Rome": 4392,
  "\u2581\u0c97\u0cc6": 4393,
  "\u2581\u0cae\u0cc1\u0c82\u0c9a\u0cc6": 4394,
  "\u2581\u0cae\u0ca8\u0cc1\u0cb7\u0ccd\u0caf\u0ca8": 4395,
  "\u2581\u0d35\u0d3f\u0d36\u0d4d\u0d35\u0d3e\u0d38": 4396,
  "\u0bb0\u0bcb": 4397,
  "org": 4398,
  "\u0c4d\u0c2f\u0c2e\u0c41": 4399,
  "\u2581burn": 4400,
  "\u2581sincere": 4401,
  "\u2581\u0d2e\u0d24": 4402,
  "\u2581eating": 4403,
  "\u2581\u0cae\u0cca\u0ca6\u0cb2\u0cc1": 4404,
  "\u2581increased": 4405,
  "\u2581\u0cb8\u0cb9\u0cbe\u0caf\u0cae\u0cbe\u0ca1": 4406,
  "\u2581\u0caf\u0cc6\u0cb9\u0ccb\u0cb5": 4407,
  "\u0ca8\u0cbe\u0ca8\u0cc1": 4408,
  "\u2581disciple": 4409,
  "\u2581Tower": 4410,
  "\u2581\u0d15\u0d34\u0d3f\u0d2f\u0d41\u0d02": 4411,
  "\u2581\u0b85\u0bb1\u0bbf\u0bb5": 4412,
  "\u2581danger": 4413,
  "\u2581faces": 4414,
  "\u2581\u0cb9\u0cca\u0cb0\u0c97\u0cc6": 4415,
  "\u2581\u0baa\u0bbe\u0bb5": 4416,
  "\u2581\u0c87\u0ca4\u0cb0": 4417,
  "\u0cb0\u0ca8\u0ccd\u0ca8\u0cc1": 4418,
  "\u2581>": 4419,
  "\u2581diamonds": 4420,
  "\u2581\u0d2a\u0d15\u0d4d\u0d37\u0d02": 4421,
  "\u0d30\u0d46": 4422,
  "\u0c1c\u0c3e": 4423,
  "\u0cbf\u0c82\u0ca6\u0cb2\u0cc2": 4424,
  "\u0b9e\u0bcd\u0b9a": 4425,
  "\u0d20": 4426,
  "\u2581\u0b87\u0bb0\u0bc1\u0ba8\u0bcd\u0ba4\u0bbe\u0bb2\u0bc1\u0bae\u0bcd": 4427,
  "\u2581\u0b9a\u0b95\u0bcd\u0ba4\u0bbf": 4428,
  "\u0c38\u0c30": 4429,
  "\u2581\u0b95\u0bcb": 4430,
  "am": 4431,
  "\u2581\u0d35\u0d40\u0d23\u0d4d\u0d1f\u0d41\u0d02": 4432,
  "\u2581police": 4433,
  "\u0bbf\u0b95\u0bcd\u0b95": 4434,
  "\u0c97\u0cca\u0c82\u0ca1": 4435,
  "\u2581yes": 4436,
  "\u2581requires": 4437,
  "\u2581\u0c2f\u0c46\u0c30\u0c42\u0c37\u0c32\u0c47\u0c2e\u0c41": 4438,
  "\u2581arrangement": 4439,
  "\u2581Right": 4440,
  "\u2581\u0ba8\u0b9f\u0ba4\u0bcd\u0ba4": 4441,
  "\u2581\u0bb0\u0bbe\u0b9c\u0bcd\u0baf": 4442,
  "Y": 4443,
  "\u0b86": 4444,
  "\u2581assembly": 4445,
  "\u2581\u0c12\u0c15\u0c21\u0c41": 4446,
  "\u0d2f\u0d41\u0d23\u0d4d\u0d1f\u0d4d": 4447,
  "\u2581Jordan": 4448,
  "\u2581\u0b85\u0b9f\u0bc1\u0ba4\u0bcd\u0ba4": 4449,
  "\u2581resurrected": 4450,
  "\u2581obedient": 4451,
  "\u2581application": 4452,
  "\u2581verses": 4453,
  "lo": 4454,
  "\u2581\u0bae\u0bbf\u0b95\u0bcd\u0b95": 4455,
  "\u25818)": 4456,
  "\u2581\u0baa\u0bbe\u0bb0\u0bc1\u0b99\u0bcd\u0b95\u0bb3\u0bcd": 4457,
  "\u2581\u0c1a\u0c47\u0c30": 4458,
  "\u2581\u0c26\u0c2f": 4459,
  "\u0d28\u0d3f\u0d19\u0d4d\u0d19\u0d33\u0d4d": 4460,
  "\u2581responsible": 4461,
  "\u2581\u0b85\u0bb5\u0bb1\u0bcd\u0bb1\u0bc8": 4462,
  "\u2581bed": 4463,
  "\u2581\u0ca8\u0cbf\u0c9c\u0cb5\u0cbe\u0c97\u0cbf\u0caf\u0cc2": 4464,
  "\u2581\u0baa\u0bb0\u0bbf\u0b9a\u0bc1\u0ba4\u0bcd\u0ba4": 4465,
  "\u2581gonna": 4466,
  "\u2581\u0d2a\u0d4d\u0d30\u0d24\u0d3f\u0d2b\u0d32\u0d02": 4467,
  "\u0ba3\u0bbf": 4468,
  "\u2581\u0baa\u0b9f": 4469,
  "\u2581\u0d35\u0d4d\u0d2f\u0d15\u0d4d\u0d24\u0d3f": 4470,
  "\u2581pursue": 4471,
  "\u2581\u0b86\u0b95\u0bc1\u0bae\u0bcd": 4472,
  "se": 4473,
  "\u2581\u0bae\u0bc0\u0ba4\u0bc1\u0bae\u0bcd": 4474,
  "\u0c21\u0c02\u0c32\u0c4b": 4475,
  "\u2581contains": 4476,
  "\u2581\u0caa\u0ccd\u0cb0\u0cbe\u0cb0\u0ccd\u0ca5\u0cbf\u0cb8": 4477,
  "\u0c17\u0c3e\u0c28\u0c3f": 4478,
  "\u2581\u0c2f\u0c47\u0c38\u0c41\u0c15\u0c4d\u0c30\u0c40\u0c38\u0c4d\u0c24\u0c41": 4479,
  "\u2581\u0c85\u0ca6\u0cb0\u0cb2\u0ccd\u0cb2\u0cbf": 4480,
  "\u0ca4\u0ccd\u0caf": 4481,
  "\u2581\u0baa\u0bc6\u0bb0\u0bc1\u0bae\u0bcd": 4482,
  "\u2581\u0c8e\u0c82\u0ca6": 4483,
  "\u2581\u0cb9\u0cbe": 4484,
  "\u0d41\u0d28\u0d4d\u0d28\u0d3f\u0d32\u0d4d\u0d32": 4485,
  "\u2581opposition": 4486,
  "\u0c21\u0c3e\u0c28\u0c4d\u0c28\u0c3f": 4487,
  "\u2581\u0ba4\u0bb2\u0bc8": 4488,
  "\u2581\u0c38\u0c46": 4489,
  "\u2581\u0cb8\u0cc2\u0c9a\u0cbf\u0cb8": 4490,
  "\u2581\u0c89\u0ca4\u0ccd\u0ca4\u0cae": 4491,
  "\u2581\u0cb5\u0cbf\u0cb7\u0caf\u0c97\u0cb3\u0ca8\u0ccd\u0ca8\u0cc1": 4492,
  "\u2581Prophet": 4493,
  "\u0c32\u0c4d\u0c32": 4494,
  "\u2581\u0d15\u0d30\u0d4d": 4495,
  "\u2581loves": 4496,
  "\u2581society": 4497,
  "\u0bb5\u0bc0": 4498,
  "\u2581personally": 4499,
  "\u2581\u0caa\u0ca1\u0cc6\u0caf": 4500,
  "\u2581\u0d28\u0d3f\u0d28\u0d4d\u0d28\u0d41": 4501,
  "\u2581e": 4502,
  "be": 4503,
  "\u2581\u0b9a\u0bc6\u0baf\u0bb2\u0bcd": 4504,
  "\u0c35\u0c4d\u0c35": 4505,
  "\u2581loyalty": 4506,
  "\u0c1c\u0c3f": 4507,
  "\u2581\u0ba4\u0bc2\u0ba3\u0bcd\u0b9f": 4508,
  "\u2581spake": 4509,
  "\u2581\u0ca6\u0cc1\u0c83\u0c96": 4510,
  "\u0bc1\u0bb5\u0ba4\u0bc8": 4511,
  "\u2581road": 4512,
  "\u2581\u0c2a\u0c30\u0c3f\u0c36\u0c41\u0c26\u0c4d\u0c27": 4513,
  "\u2581Clearly": 4514,
  "\u2581truths": 4515,
  "\u2581\u0b87\u0bb0\u0bc1\u0b95\u0bcd\u0b95\u0bbf\u0bb1": 4516,
  "\u2581\u0d0e\u0d28\u0d4d\u0d24\u0d41\u0d15\u0d4a\u0d23\u0d4d\u0d1f\u0d4d": 4517,
  "\u2581\u0d15\u0d1f": 4518,
  "\u2581II": 4519,
  "\u2581urged": 4520,
  "\u2581weeks": 4521,
  "\u2581\u0c38\u0c24\u0c4d\u0c2f": 4522,
  "\u0c1f\u0c30\u0c4d": 4523,
  "\u2581\u0c95\u0ccd\u0cb0\u0cc8\u0cb8\u0ccd\u0ca4\u0cb0\u0cc1": 4524,
  "\u2581\u0caf\u0ccb\u0c9a\u0cbf\u0cb8": 4525,
  "\u2581\u0cb5\u0cb0\u0cc6\u0c97\u0cc2": 4526,
  "\u2581\u0cb5\u0cbf\u0ca7": 4527,
  "\u0bb5\u0ba9\u0bbe\u0b95": 4528,
  "\u2581sat": 4529,
  "\u2581\u0c06\u0c26\u0c3f\u0c15\u0c3e\u0c02\u0c21\u0c2e\u0c41": 4530,
  "\u0d3e\u0d35": 4531,
  "\u0c24\u0c4b\u0c2a\u0c3e\u0c1f\u0c41": 4532,
  "\u2581continues": 4533,
  "\u2581disbelieve": 4534,
  "\u2581\u0c2a\u0c4d\u0c30\u0c15\u0c1f\u0c3f\u0c02\u0c1a": 4535,
  "\u2581\u0c95\u0cc0\u0cb0\u0ccd\u0ca4": 4536,
  "\u2581besides": 4537,
  "\u2581\u0c1c\u0c30\u0c3f\u0c17\u0c3f\u0c28": 4538,
  "\u0c28\u0c47\u0c28\u0c41": 4539,
  "\u2581Merciful": 4540,
  "\u2581delete": 4541,
  "\u2581\u0b8e\u0ba3\u0bcd\u0ba3\u0bbf\u0b95\u0bcd\u0b95\u0bc8": 4542,
  "\u2581generation": 4543,
  "\u0bc1\u0b95\u0bbf\u0ba9\u0bcd\u0bb1\u0ba9\u0bb0\u0bcd": 4544,
  "\u2581wickedness": 4545,
  "\u0d4a\u0d15\u0d4d\u0d15\u0d46": 4546,
  "\u2581Young": 4547,
  "\u2581response": 4548,
  "\u2581\u0c92\u0c82\u0ca6": 4549,
  "\u2581concerned": 4550,
  "\u2581hate": 4551,
  "\u2581\u0d26": 4552,
  "\u0d2e\u0d3e\u0d7c": 4553,
  "\u2581\u0c35\u0c3e\u0c33\u0c4d\u0c32": 4554,
  ",\"": 4555,
  "\u2581effective": 4556,
  "\u2581\u0cb5\u0cbf\u0cb0\u0ccb\u0ca7\u0cb5\u0cbe\u0c97\u0cbf": 4557,
  "\u2581\u0c85\u0cb0\u0cb8\u0ca8\u0cbe\u0ca6": 4558,
  "\u0d17\u0d02": 4559,
  "ian": 4560,
  "\u0bbe\u0b95\u0bb5\u0bc1\u0bae\u0bcd": 4561,
  "\u2581covered": 4562,
  "\u2581hidden": 4563,
  "\u2581ruler": 4564,
  "\u2581\u0c38\u0c30\u0c4d\u0c35": 4565,
  "\u2581Two": 4566,
  "\u2581fish": 4567,
  "\u2581\u0c95\u0cbe\u0ca3": 4568,
  "\u2581\u0d30\u0d3e": 4569,
  "\u0cc1\u0cb5\u0cc1\u0ca6\u0cb0": 4570,
  "\u2581finally": 4571,
  "\u2581reign": 4572,
  "\u0c02\u0c26\u0c41\u0c15\u0c41": 4573,
  "\u0d3f\u0d1f\u0d4d\u0d1f\u0d41": 4574,
  "\u2581\u0bae\u0bb0": 4575,
  "\u2581\u0c15\u0c32\u0c3f\u0c17\u0c3f\u0c28": 4576,
  "\u0c82\u0c9f": 4577,
  "\u258129.": 4578,
  "\u2581beloved": 4579,
  "\u2581\u0cae\u0cb0": 4580,
  "\u0c41\u0c28\u0c4d\u0c28": 4581,
  "\u2581\u0d1c\u0d28\u0d24": 4582,
  "\u2581experiences": 4583,
  "\u2581\u0cac\u0ca6\u0cc1\u0c95": 4584,
  "\u2581\u0d06\u0d2f\u0d3f\u0d30\u0d41\u0d28\u0d4d\u0d28\u0d41": 4585,
  "\u258148": 4586,
  "\u2581\u0c87\u0ca6\u0cb0": 4587,
  "\u2581\u0d15\u0d4b": 4588,
  "\u2581\u0bae\u0bc1\u0b9f\u0bbf\u0bb5\u0bc1": 4589,
  "\u2581\u0c15\u0c41\u0c1f\u0c41\u0c02\u0c2c": 4590,
  "\u2581harvest": 4591,
  "\u2581\u0c30\u0c3e\u0c1c\u0c48\u0c28": 4592,
  "\u2581\u0ca6\u0ccb\u0cb7": 4593,
  "\u2581\u0d28\u0d4d\u0d28\u0d24\u0d4d": 4594,
  "\u2581preached": 4595,
  "\u258180": 4596,
  "\u2581listening": 4597,
  "\u2581moving": 4598,
  "\u0d15\u0d4d\u0d15\u0d3e\u0d30": 4599,
  "\u2581opening": 4600,
  "\u2581space": 4601,
  "\u2581\u0c2f\u0c47": 4602,
  "\u0ba4\u0bc1\u0bae\u0bcd": 4603,
  "\u0c3e\u0c30\u0c4d\u0c25": 4604,
  "\u2581\u0cb9\u0ca4\u0ccd\u0ca4\u0cbf\u0cb0": 4605,
  "\u0c2f\u0c46\u0c21\u0c32": 4606,
  "\u2581View": 4607,
  "\u0c2f\u0c02": 4608,
  "\u0c95\u0cbe": 4609,
  "\u2581careful": 4610,
  "\u0b99\u0bcd\u0b95\u0bb3\u0bc1\u0bae\u0bcd": 4611,
  "\u0d41\u0d15\u0d2f\u0d3e\u0d23\u0d46\u0d19\u0d4d\u0d15\u0d3f\u0d32\u0d4d": 4612,
  "\u2581behavior": 4613,
  "\u2581\u0c09\u0c02\u0c21\u0c21\u0c02": 4614,
  "\u2581Save": 4615,
  "\u2581foreign": 4616,
  "\u258116:": 4617,
  "\u2581\u0c1a\u0c47\u0c36\u0c3e\u0c21\u0c41": 4618,
  "\u2581\u0ca4\u0cb0\u0cc1\u0cb5\u0cbe\u0caf": 4619,
  "\u2581chose": 4620,
  "\u0c4a": 4621,
  "\u2581offspring": 4622,
  "\u2581walked": 4623,
  "\u2581\u0d07\u0d24": 4624,
  "\u2581cope": 4625,
  "\u2581\u0cac\u0cc8\u0cac\u0cb2\u0cbf\u0ca8": 4626,
  "\u2581\u0b95\u0bc0\u0bb4\u0bcd": 4627,
  "\u2581\u0c36\u0c15\u0c4d\u0c24\u0c3f": 4628,
  "\u2581root": 4629,
  "\u2581\u0b8e\u0ba4\u0bc1": 4630,
  "\u2581provision": 4631,
  "\u2581meal": 4632,
  "\u2581\u0c2d\u0c42": 4633,
  "\u0d2b": 4634,
  "\u2581distress": 4635,
  "\u2581\u0c15\u0c46": 4636,
  "\u2581\u0caf\u0cc6\u0cb6\u0cbe\u0caf": 4637,
  "\u2581\u0b9a\u0bc6\u0bb2\u0bcd\u0bb5": 4638,
  "\u2581\u0b85\u0bb5\u0ba9\u0bc8": 4639,
  "\u2581border": 4640,
  "ce": 4641,
  "\u2581presented": 4642,
  "\u2581\u0c09\u0c28\u0c4d\u0c28\u0c3e\u0c30\u0c41": 4643,
  "\u0c87": 4644,
  "\u2581buy": 4645,
  "um": 4646,
  "\u2581overseer": 4647,
  "\u2581Truth": 4648,
  "\u2581spades": 4649,
  "\u0bc1\u0b95": 4650,
  "\u0bb8\u0bbf": 4651,
  "\u2581doctor": 4652,
  "\u2581bringing": 4653,
  "\u2581setting": 4654,
  "\u2581\u0baa\u0bc7\u0bb0": 4655,
  "\u2581\u0c1c\u0c28\u0c41\u0c32\u0c41": 4656,
  "\u0bbf\u0bb0\u0bc1\u0b95\u0bcd\u0b95\u0bbf\u0bb1\u0bbe\u0bb0\u0bcd\u0b95\u0bb3\u0bcd": 4657,
  "\u2581apart": 4658,
  "\u2581\u0baa\u0bbf\u0ba9\u0bcd\u0baa\u0bc1": 4659,
  "\u2581valuable": 4660,
  "\u2581\u0cac\u0cb0\u0cc6\u0ca6": 4661,
  "\u2581commandment": 4662,
  "\u2581heavy": 4663,
  "\u2581\u0c9c\u0ca8": 4664,
  "\u0cca\u0c82\u0ca6\u0cc1": 4665,
  "\u2581\u0b95\u0bc6\u0b9f\u0bcd\u0b9f": 4666,
  "\u2581note": 4667,
  "\u2581running": 4668,
  "\u0cca\u0cb3\u0c97\u0cbf\u0c82\u0ca6": 4669,
  "\u2581Was": 4670,
  "\u2581\u0d35\u0d30\u0d41\u0d24\u0d4d\u0d24": 4671,
  "\u2581card": 4672,
  "\u2581gifts": 4673,
  "\u2581relief": 4674,
  "\u2581missionaries": 4675,
  "\u2581\u0b85\u0bb5\u0bb0\u0bcd\u0b95\u0bb3\u0bbf\u0bb2\u0bcd": 4676,
  "\u2581\u0ca6\u0cc7\u0cb6\u0ca6": 4677,
  "\u2581\u0d2a\u0d4d\u0d30\u0d24\u0d3f": 4678,
  "\u2581Asia": 4679,
  "\u0d3f\u0d1f\u0d4d\u0d1f\u0d4d": 4680,
  "\u2581sharing": 4681,
  "\u2581\u0b85\u0ba4\u0bbe\u0bb5\u0ba4\u0bc1": 4682,
  "\u2581\u0baa\u0bc2": 4683,
  "\u2581\u0c95\u0cca\u0ca1\u0cc1\u0cb5": 4684,
  "\u0cc1\u0cb5\u0cb5\u0ca8\u0cc1": 4685,
  "\u0d4b\u0d1f\u0d4a\u0d2a\u0d4d\u0d2a\u0d02": 4686,
  "\u2581\u0baa\u0bc2\u0bae\u0bbf\u0baf\u0bbf\u0bb2\u0bcd": 4687,
  "\u2581\u0cb0\u0cbe\u0c9c": 4688,
  "\u0d3f\u0d1f\u0d4d\u0d1f\u0d41\u0d33\u0d4d\u0d33": 4689,
  "\u2581\u0b9f\u0bbf": 4690,
  "\u2581\u0c09\u0c02\u0c21\u0c35\u0c1a\u0c4d\u0c1a\u0c41": 4691,
  "\u0bc0\u0bb0\u0bcd": 4692,
  "ah": 4693,
  "\u2581\u0c2a\u0c3f": 4694,
  "\u2581possess": 4695,
  "\u2581pleased": 4696,
  "\u2581pride": 4697,
  "la": 4698,
  "\u2581upright": 4699,
  "\u25815;": 4700,
  "\u2581\u0cb8\u0cc7\u0cb0": 4701,
  "\u2581\u0ba8\u0b95\u0bb0": 4702,
  "do": 4703,
  "\u2581low": 4704,
  "\u2581Once": 4705,
  "\u2581removed": 4706,
  "\u2581\u0cb0\u0c95\u0ccd\u0ca4": 4707,
  "\u2581portion": 4708,
  "\u2581\u0c38\u0c41\u0c35\u0c3e\u0c30\u0c4d\u0c24": 4709,
  "\u2581\u0c2f\u0c4b\u0c2c\u0c41": 4710,
  "\u0bc8\u0ba4\u0bcd": 4711,
  "\u0c26\u0c40": 4712,
  "\u2581pioneers": 4713,
  "\u2581association": 4714,
  "\u2581\u0c2a\u0c4d\u0c30\u0c2d\u0c41\u0c35\u0c41": 4715,
  "\u2581existence": 4716,
  "\u0ca4\u0ccd\u0cb0": 4717,
  "\u201d": 4718,
  "\u2581easily": 4719,
  "\u2581\u0d05\u0d24\u0d47": 4720,
  "\u2581\u0c38\u0c4c\u0c32\u0c41": 4721,
  "\u0c1a\u0c47\u0c38\u0c3f": 4722,
  "\u2581round": 4723,
  "\u2581\u0cb9\u0cc7\u0cb3\u0cc1\u0ca4\u0ccd\u0ca4\u0cbe\u0ca8\u0cc6": 4724,
  "\u2581\u0cb5": 4725,
  "\u0d39\u0d3e": 4726,
  "\u2581train": 4727,
  "\u0cb7\u0ccd\u0c9f": 4728,
  "\u258131.": 4729,
  "\u2581challenges": 4730,
  "\u2581\u0caa\u0ccd\u0cb0\u0cbe\u0cb0\u0ccd\u0ca5\u0ca8\u0cc6": 4731,
  "\u2581\u0d2a\u0d4b\u0d2f": 4732,
  "\u2581\u0ba8\u0bc7\u0bb0\u0bae\u0bcd": 4733,
  "\u2581\u0cb8\u0cc8\u0ca4\u0cbe\u0ca8\u0ca8": 4734,
  "\u0b95\u0bbe\u0bb0": 4735,
  "\u2581\u0c28\u0c3f\u0c1c\u0c2e\u0c48\u0c28": 4736,
  "\u2581join": 4737,
  "\u2581length": 4738,
  "\u2581abundance": 4739,
  "\u2581\u0d28\u0d3f\u0d32\u0d4d": 4740,
  "\u2581reject": 4741,
  "\u2581\u0d38\u0d02\u0d2c\u0d28\u0d4d\u0d27\u0d3f\u0d1a\u0d4d\u0d1a": 4742,
  "\u2581Other": 4743,
  "\u2581\u0c15\u0c4a\u0c30\u0c15\u0c41": 4744,
  "\u0b99\u0bcd\u0b95\u0bb3\u0bc8\u0baf\u0bc1\u0bae\u0bcd": 4745,
  "\u2581\u0b85\u0bb1\u0bbf\u0b95\u0bcd\u0b95\u0bc8": 4746,
  "\u0d35\u0d41": 4747,
  "\u2581\u0c2a\u0c3e\u0c2a": 4748,
  "\u0c2f\u0c41\u0c28\u0c4d\u0c28": 4749,
  "\u2581goodness": 4750,
  "\u2581perform": 4751,
  "\u2581produced": 4752,
  "\u2581\u0cb9\u0cc3\u0ca6\u0caf": 4753,
  "\u0c16": 4754,
  "\u0c38\u0c02": 4755,
  "\u0c3f\u0c02\u0c1a\u0c41": 4756,
  "\u2581Sea": 4757,
  "\u2581\u0c24\u0c40\u0c30\u0c4d\u0c1a": 4758,
  "\u2581weak": 4759,
  "\u2581\u0c15\u0c41\u0c2e\u0c3e\u0c30\u0c41\u0c21\u0c41": 4760,
  "\u2581\u0cae\u0cbe\u0ca4\u0cc1": 4761,
  "\u2581\u0baa\u0bca\u0bb0\u0bc1\u0bb3\u0bcd": 4762,
  "\u2581\u0d32\u0d3e": 4763,
  "\u0d2a\u0d4d\u0d2a\u0d46\u0d1f\u0d41\u0d28\u0d4d\u0d28": 4764,
  "\u0bb2\u0bcb": 4765,
  "\u0c3f\u0c02\u0c1a\u0c3f\u0c28": 4766,
  "\u2581\u0c36\u0c4d\u0c30\u0c2e": 4767,
  "\u2581grew": 4768,
  "\u0bb1\u0bcd\u0bb1\u0bc1": 4769,
  "\u0c17\u0c3e\u0c28\u0c41": 4770,
  "\u258144": 4771,
  "\u2581\u0c2e\u0c3e\u0c30\u0c4d\u0c1a": 4772,
  "\u0d35\u0d4b": 4773,
  "\u2581understood": 4774,
  "\u0c17\u0c4b": 4775,
  "\u2581\u0c1a\u0c46\u0c02\u0c26\u0c3f\u0c28": 4776,
  "\u2581\u0cb8\u0cae\u0cb8\u0ccd\u0ca4": 4777,
  "\u2581\u0d2a\u0d31\u0d2f\u0d41\u0d28\u0d4d\u0d28": 4778,
  "\u2581\u0d1a\u0d46": 4779,
  "\u2581\u0d28\u0d3f\u0d28\u0d4d\u0d28": 4780,
  "\u2581acceptable": 4781,
  "\u2581student": 4782,
  "\u2581\u0c38\u0c30\u0c48\u0c28": 4783,
  "\u2581\u0d07\u0d28\u0d4d\u0d28\u0d4d": 4784,
  "\u2581claim": 4785,
  "\u2581successful": 4786,
  "\u2581till": 4787,
  "\u2581\u0cb8\u0c82\u0cac\u0c82\u0ca7": 4788,
  "\u0d24\u0d4d\u0d24\u0d3f\u0d2f": 4789,
  "\u2581non": 4790,
  "\u2581Window": 4791,
  "\u0c1a\u0c41": 4792,
  "\u0c3f\u0c38\u0c4d\u0c24\u0c42": 4793,
  "\u0d26\u0d3e": 4794,
  "\u0d3f\u0d30\u0d3f\u0d15\u0d4d\u0d15": 4795,
  "\u2581affected": 4796,
  "\u2581\u0cae\u0c95\u0ccd\u0c95\u0cb3\u0cbf\u0c97\u0cc6": 4797,
  "\u2581\u0c05\u0c27\u0c4d\u0c2f\u0c2f\u0c28\u0c02": 4798,
  "\u2581\u0c2a\u0c48": 4799,
  "\u0c41\u0c17\u0c3e": 4800,
  "\u0d26\u0d4d": 4801,
  "\u0d38\u0d4d\u0d38": 4802,
  "\u2581attack": 4803,
  "\u2581Among": 4804,
  "\u2581bound": 4805,
  "\u2581\u0c17\u0c3e": 4806,
  "\u0c82\u0ca4\u0cc6\u0caf\u0cc7": 4807,
  "\u0c2f\u0c46\u0c39\u0c4b\u0c35\u0c3e": 4808,
  "\u2581limited": 4809,
  "\u2581\u0d35\u0d3f\u0d36\u0d4d\u0d35\u0d38\u0d4d": 4810,
  "\u2581\u0b95\u0bc1\u0bb1\u0bbf\u0baa\u0bcd\u0baa\u0bbf\u0b9f\u0bcd\u0b9f": 4811,
  "\u2581\u0c35\u0c3f\u0c32\u0c41\u0c35": 4812,
  "\u0d2f\u0d47": 4813,
  "\u2581Muhammad": 4814,
  "\u0c3e\u0c21\u0c28\u0c3f": 4815,
  "\u2581\u0c8f\u0cb3\u0cc1": 4816,
  "+": 4817,
  "ry": 4818,
  "\u2581exist": 4819,
  "\u2581risk": 4820,
  "\u2581\u0cad\u0caf": 4821,
  "\u0d1a\u0d4d\u0d1a\u0d4d": 4822,
  "\u2581worth": 4823,
  "\u2581commit": 4824,
  "\u0b9f\u0bc8": 4825,
  "\u0cb2\u0ccd\u0cb2\u0cc7": 4826,
  "\u2581\u0b89\u0ba4\u0bb5": 4827,
  "\u2581\u0c24\u0c2a\u0c4d\u0c2a": 4828,
  "\u2581\u0b86\u0bb5\u0bbf\u0b95\u0bcd\u0b95\u0bc1\u0bb0\u0bbf\u0baf": 4829,
  "\u2581drawn": 4830,
  "\u2581\u0b95\u0bc7\u0b9f\u0bcd\u0b9f": 4831,
  "\u0b9c": 4832,
  "ism": 4833,
  "\u2581attended": 4834,
  "\u2581Faith": 4835,
  "\u2581granted": 4836,
  "\u2581\u0b87\u0bb0\u0bc1\u0b95\u0bcd\u0b95\u0bb2\u0bbe\u0bae\u0bcd": 4837,
  "\u0c37\u0c41": 4838,
  "\u0baf\u0bc1\u0b9f\u0bc8\u0baf": 4839,
  "\u2581\u0c95\u0cc6\u0c9f\u0ccd\u0c9f": 4840,
  "\u2581\u0c95\u0cc7\u0cb3\u0cbf": 4841,
  "\u2581\u0ca6\u0cc0\u0c95\u0ccd\u0cb7\u0cbe\u0cb8\u0ccd\u0ca8\u0cbe\u0ca8": 4842,
  "\u2581Note": 4843,
  "\u2581\u0d2a\u0d47\u0d30\u0d3f\u0d32\u0d4d": 4844,
  "\u2581troubled": 4845,
  "\u2581\u0c35\u0c02\u0c1f\u0c3f": 4846,
  "\u258119:": 4847,
  "\u0cc6\u0ca8\u0cc1": 4848,
  "\u2581\u0c15\u0c4b\u0c30": 4849,
  "\u0c02\u0c1f\u0c47": 4850,
  "\u2581\u0c35\u0c3e\u0c30\u0c3f\u0c32\u0c4b": 4851,
  "\u2581\u0cae\u0cc1\u0c82\u0ca6\u0cbf\u0ca8": 4852,
  "\u0d15\u0d4d\u0d15\u0d3e\u0d28\u0d4d": 4853,
  "\u2581\u0b85\u0bb1\u0bbf\u0baf": 4854,
  "\u2581\u0c15\u0c4d\u0c30\u0c4a\u0c24\u0c4d\u0c24": 4855,
  "\u2581connection": 4856,
  "\u2581treat": 4857,
  "\u2581\u0ca6\u0cbe\u0cb5\u0cc0\u0ca6\u0ca8": 4858,
  "\u2581\u0c87\u0ca6\u0cc7": 4859,
  "\u2581\u0c2a\u0c41": 4860,
  "\u0cc1\u0ca4\u0ccd\u0ca4\u0cbf\u0ca4\u0ccd\u0ca4\u0cc1": 4861,
  "\u0b95\u0bcb": 4862,
  "\u0ba8\u0bc0\u0b99\u0bcd\u0b95\u0bb3\u0bcd": 4863,
  "\u2581\u0cb9\u0ca3": 4864,
  "\u2581heads": 4865,
  "\u2581reasonable": 4866,
  "\u2581\u0d24\u0d3f\u0d30\u0d3f\u0d1a\u0d4d\u0d1a\u0d41": 4867,
  "\u2581rivers": 4868,
  "\u2581tears": 4869,
  "\u2581\u0cb8\u0ccd\u0cb5": 4870,
  "im": 4871,
  "ive": 4872,
  "\u2581associated": 4873,
  "\u0c15\u0c41\u0c32\u0c41": 4874,
  "\u2581Which": 4875,
  "\u0d41\u0d28\u0d4d\u0d28\u0d24\u0d41\u0d02": 4876,
  "\u2581black": 4877,
  "\u2581lying": 4878,
  "\u2581normal": 4879,
  "\u2581situations": 4880,
  "\u0c36\u0c4d": 4881,
  "\u2581adds": 4882,
  "\u0c3f\u0c02\u0c17\u0c4d": 4883,
  "\u2581\u0cb8\u0cbe\u0cb0\u0cc1\u0cb5": 4884,
  "\u2581agree": 4885,
  "\u2581\u0c2c\u0c46": 4886,
  "\u2581\u0bae\u0bcd": 4887,
  "\u2581\u0c05\u0c2a\u0c4a\u0c38\u0c4d\u0c24\u0c32\u0c41\u0c32": 4888,
  "\u2581imagine": 4889,
  "\u2581welcome": 4890,
  "\u2581\u0d07\u0d2a\u0d4d\u0d2a\u0d4b\u0d7e": 4891,
  "\u2581\u0c24\u0c32\u0c4d\u0c32\u0c3f": 4892,
  "\u2581north": 4893,
  "\u2581ill": 4894,
  "\u2581\u0c05\u0c2e\u0c4d\u0c2e": 4895,
  "\u2581\u0d2a\u0d31\u0d2f\u0d41\u0d28\u0d4d\u0d28\u0d24\u0d4d": 4896,
  "New": 4897,
  "\u2581\u0d06\u0d35\u0d36\u0d4d\u0d2f": 4898,
  "ies": 4899,
  "There": 4900,
  "\u2581\u0b85\u0b9f\u0bbf": 4901,
  "\u2581\u0baa\u0bc7\u0ba4\u0bc1\u0bb0\u0bc1": 4902,
  "\u0c26\u0c4d\u0c30": 4903,
  "\u2581dear": 4904,
  "\u2581improve": 4905,
  "\u0baf\u0bbe\u0bb2\u0bcd": 4906,
  "\u2581\u0d24\u0d40": 4907,
  "\u2581\u0d28\u0d40\u0d24\u0d3f": 4908,
  "\u2581moon": 4909,
  "\u2581likewise": 4910,
  "\u2581friendship": 4911,
  "\u2581\u0c92\u0c82\u0ca6\u0cc7": 4912,
  "\u258121,": 4913,
  "\u2581Has": 4914,
  "\u2581\u0cae\u0cca": 4915,
  "\u0c0e": 4916,
  "\u0c2e\u0c41\u0c32\u0c4b": 4917,
  "\u0d2a\u0d4d\u0d2a\u0d46\u0d1f\u0d4d\u0d1f\u0d41": 4918,
  "\u2581journey": 4919,
  "\u2581notes": 4920,
  "\u0cbe\u0caa": 4921,
  "\u2581\u0c24\u0c3f\u0c28": 4922,
  "\u2581relative": 4923,
  "\u258142": 4924,
  "\u2581\u0c0e\u0c15\u0c4d\u0c15\u0c41\u0c35\u0c17\u0c3e": 4925,
  "\u2581\u0c95\u0cbf": 4926,
  "\u2581\u0d15\u0d42\u0d1f\u0d41\u0d24\u0d32\u0d4d": 4927,
  "\u2581\u0d38\u0d02": 4928,
  "\u2581\u0c36\u0c4d\u0c30\u0c26\u0c4d\u0c27": 4929,
  "\u2581\u0d05\u0d35\u0d7e": 4930,
  "\u2581\u0d15\u0d47\u0d1f\u0d4d\u0d1f": 4931,
  "\u2581France": 4932,
  "\u0d35\u0d28\u0d46": 4933,
  "\u0d3f\u0d24": 4934,
  "\u2581Z": 4935,
  "\u2581\u0b87\u0bb2\u0bcd\u0bb2\u0bbe\u0ba4": 4936,
  "\u0d3f\u0d28\u0d46\u0d2f\u0d41\u0d02": 4937,
  "\u0cae\u0cbe\u0ca1\u0cbf": 4938,
  "\u2581meat": 4939,
  "\u0d4b\u0d1f": 4940,
  "\u2581\u0b89\u0ba9\u0bcd": 4941,
  "\u0d28\u0d47\u0d39": 4942,
  "\u2581messages": 4943,
  "\u2581\u0d32\u0d4b\u0d15": 4944,
  "\u0d15\u0d3e": 4945,
  "\u2581images": 4946,
  "\u2581\u0ca4\u0cbe": 4947,
  "co": 4948,
  "\u0bb5\u0bbe\u0ba9": 4949,
  "\u0d35\u0d4d\u0d35": 4950,
  "\u2581\u0c86\u0cb0\u0c82\u0cad\u0cbf\u0cb8": 4951,
  "\u2581\u0c95\u0cb0\u0cc6\u0caf": 4952,
  "\u2581associate": 4953,
  "\u2581universe": 4954,
  "\u2581\u0b85\u0bb5\u0bb0\u0bcd\u0b95\u0bb3\u0bbf\u0b9f\u0bae\u0bcd": 4955,
  "\u0cb3\u0cc6": 4956,
  "\u2581Chile": 4957,
  "\u2581level": 4958,
  "\u2581\u0ba4\u0bc7\u0bb0\u0bcd\u0ba8\u0bcd\u0ba4\u0bc6\u0b9f\u0bc1\u0b95\u0bcd\u0b95": 4959,
  "\u2581\u0c2f\u0c46\u0c39\u0c4b\u0c35\u0c3e\u0c38\u0c3e\u0c15\u0c4d\u0c37\u0c41\u0c32": 4960,
  "\u2581\u0c87\u0ca8\u0ccd\u0ca8\u0cc1": 4961,
  "\u2581\u0d38\u0d39": 4962,
  "\u2581\u0b95\u0bc7\u0b9f\u0bcd\u0b95": 4963,
  "\u2581attending": 4964,
  "\u2581hair": 4965,
  "like": 4966,
  "\u2581host": 4967,
  "\u2581\u0c38\u0c02\u0c2c\u0c02\u0c27\u0c3f\u0c02\u0c1a\u0c3f\u0c28": 4968,
  "?\u201d": 4969,
  "\u2581particularly": 4970,
  "\u2581t": 4971,
  "\u2581probably": 4972,
  "\u2581\u0d38\u0d4d\u0d35": 4973,
  "\u0ca4\u0cbf": 4974,
  "\u2581includes": 4975,
  "\u0cc1\u0cb5\u0cc1\u0ca6\u0cc7": 4976,
  "\u2581\u0d28\u0d3e\u0d25\u0d28\u0d4d": 4977,
  "\u2581environment": 4978,
  "\u2581sees": 4979,
  "\u2581particular": 4980,
  "\u2581\u0c24\u0c32": 4981,
  "\u2581\u0c38\u0c4d\u0c35": 4982,
  "\u2581wide": 4983,
  "\u2581iniquity": 4984,
  "\u2581practices": 4985,
  "\u0c15\u0c46": 4986,
  "\u2581letters": 4987,
  "\u2581\u0b9a\u0bbe\u0b9f\u0bcd\u0b9a\u0bbf": 4988,
  "\u0c28\u0c48": 4989,
  "\u2581busy": 4990,
  "\u2581\u0baa\u0ba4\u0bbf\u0bb2\u0bcd": 4991,
  "\u2581\u0cae\u0cca\u0ca6\u0cb2": 4992,
  "\u2581community": 4993,
  "\u2581safe": 4994,
  "up": 4995,
  "\u0cc1\u0cb5\u0cb5\u0cb0\u0cc1": 4996,
  "\u2581conclusion": 4997,
  "\u2581occurred": 4998,
  "\u2581supported": 4999,
  "\u2581\u0b89\u0ba3\u0bcd\u0bae\u0bc8\u0baf\u0bbe\u0ba9": 5000,
  "\u2581American": 5001,
  "\u2581warm": 5002,
  "\u2581endurance": 5003,
  "\u2581hide": 5004,
  "\u2581elderly": 5005,
  "\u2581pieces": 5006,
  "\u258128.": 5007,
  "\u2581unless": 5008,
  "\u2581Lot": 5009,
  "\u2581rock": 5010,
  "\u2581\u0c2f\u0c46\u0c39\u0c4b\u0c35\u0c3e\u0c38\u0c3e\u0c15\u0c4d\u0c37\u0c41\u0c32\u0c41": 5011,
  "\u2581\u0d36\u0d15\u0d4d\u0d24\u0d3f": 5012,
  "\u0d2a\u0d4b": 5013,
  "\u2581\u0c38\u0c4d\u0c24\u0c4d\u0c30\u0c40": 5014,
  "\u2581\u0caa\u0ccd\u0cb0\u0cbe\u0ca3": 5015,
  "\u2581\u0d1a\u0d4d\u0d1a\u0d41": 5016,
  "\u2581\u0d30\u0d3e\u0d1c\u0d4d\u0d2f": 5017,
  "\u2581\u0b85\u0bb5\u0ba9\u0bc1\u0b95\u0bcd\u0b95\u0bc1": 5018,
  "\u0c2c\u0c3f": 5019,
  "\u0c38\u0c4d\u0c24\u0c41": 5020,
  "\u2581\u0c8f\u0ca8\u0ca8\u0ccd\u0ca8\u0cc1": 5021,
  "\u258112;": 5022,
  "\u2581direct": 5023,
  "\u0baf\u0bbe\u0b95\u0bc1\u0bae\u0bcd": 5024,
  "\u0cc1\u0cb5\u0cc1\u0ca6\u0cb0\u0cbf\u0c82\u0ca6": 5025,
  "\u2581Philippians": 5026,
  "\u2581\u0d05\u0d24\u0d3f\u0d28\u0d41": 5027,
  "\u0d15\u0d41\u0d15\u0d2f\u0d41\u0d02": 5028,
  "\u0c28\u0c28\u0c41": 5029,
  "\u0d33\u0d4d\u0d33": 5030,
  "\u2581\u0c28\u0c46": 5031,
  "\u2581\u0d31\u0d3f": 5032,
  "\u2581correct": 5033,
  "\u2581east": 5034,
  "\u2581\u0c9c\u0ccd\u0c9e\u0cbe\u0ca8": 5035,
  "\u0bb0\u0bcd\u0b95\u0bb3\u0bcd": 5036,
  "\u2581\u0c24\u0c46\u0c32\u0c3f\u0c2f": 5037,
  "\u2581\u0c2c\u0c4b\u0c27": 5038,
  "\u258128,": 5039,
  "\u2581eternal": 5040,
  "\u2581weight": 5041,
  "\u2581\u0baa\u0bc7\u0bb0\u0bcd": 5042,
  "\u2581\u0d05\u0d2f\u0d3e\u0d33\u0d4d": 5043,
  "\u2581\u0d1a\u0d46\u0d2f\u0d4d\u0d2f\u0d41\u0d28\u0d4d\u0d28\u0d24\u0d4d": 5044,
  "\u2581\u0c05\u0c24\u0c3f": 5045,
  "\u2581\u0c35\u0c32\u0c4d\u0c32": 5046,
  "\u2581\u0c87\u0ca1": 5047,
  "\u0bbe\u0bb0": 5048,
  "\u0ca6\u0cb0": 5049,
  "\u2581\u0b9a\u0bc0": 5050,
  "\u2581\u0b9a\u0bae": 5051,
  "\u2581\u0d12\u0d30\u0d3f\u0d15\u0d4d\u0d15\u0d32\u0d41\u0d02": 5052,
  "\u2581\u0c35\u0c3f\u0c36\u0c4d\u0c35\u0c3e\u0c38\u0c02": 5053,
  "\u2581belief": 5054,
  "\u2581\u0c86\u0c97\u0cbf\u0ca6\u0cc6": 5055,
  "\u2581task": 5056,
  "\u2581\u0b87\u0ba4\u0ba9\u0bcd": 5057,
  "\u2581\u0d28\u0d2e\u0d4d\u0d2e\u0d7e": 5058,
  "\u2581\u0d2a\u0d15\u0d30\u0d02": 5059,
  "\u0c97\u0ccd": 5060,
  "\u2581iron": 5061,
  "em": 5062,
  "\u0bb5\u0bb0\u0bc1\u0bae\u0bcd": 5063,
  "\u2581dangerous": 5064,
  "\u2581\u0c95\u0cc6": 5065,
  "\u0cac\u0ccd\u0cac": 5066,
  "\u2581publishers": 5067,
  "\u0c15\u0c02": 5068,
  "\u0cc1\u0cb5\u0cb5\u0cb0": 5069,
  "ad": 5070,
  "\u0d2f\u0d41": 5071,
  "\u2581\u0baa\u0b9f\u0bcd\u0b9f": 5072,
  "\u2581\u0c38\u0c41": 5073,
  "\u0c32\u0c47\u0c2e\u0c41": 5074,
  "\u2581Hey": 5075,
  "\u2581disbelievers": 5076,
  "\u0d2a\u0d4d\u0d2a\u0d3f\u0d15\u0d4d\u0d15": 5077,
  "\u2581growth": 5078,
  "\u0c24\u0c4d\u0c2f": 5079,
  "\u2581\u0c2e\u0c39\u0c3e": 5080,
  "ph": 5081,
  "\u0d2a\u0d28": 5082,
  "\u2581\u0c32\u0c3e": 5083,
  "\u0baf\u0bcb\u0b9f\u0bc1": 5084,
  "\u0bb5\u0bb0\u0bcd\u0b95\u0bb3": 5085,
  "\u0d24\u0d40\u0d2f": 5086,
  "\u2581\u0c2a\u0c30\u0c3f": 5087,
  "\u2581\u0c85\u0ca7\u0cbf\u0c95\u0cbe\u0cb0": 5088,
  "\u0cbf\u0c95\u0cca\u0c82\u0ca1\u0cc1": 5089,
  "\u2581newspaper": 5090,
  "\u0ca6\u0cbf": 5091,
  "\u2581leading": 5092,
  "\u2581\u0c30\u0c46\u0c02\u0c21\u0c35": 5093,
  "\u2581\u0d06\u0d24\u0d4d\u0d2e\u0d40\u0d2f": 5094,
  "\u0d2d\u0d02": 5095,
  "\u0c35\u0c30\u0c4d": 5096,
  "\u2581\u0ba8\u0bbf\u0bb1\u0bc8\u0bb5\u0bc7\u0bb1\u0bcd\u0bb1": 5097,
  "\u2581\u0d2a\u0d30": 5098,
  "\u2581\u0d2f\u0d39\u0d4b": 5099,
  "\u2581\u0b8e\u0ba9\u0bcd\u0bb1\u0bbe\u0bb2\u0bcd": 5100,
  "\u0d36\u0d47\u0d37\u0d02": 5101,
  "\u2581\u0b95\u0bbe\u0b9f\u0bcd\u0b9f\u0bc1": 5102,
  "\u0bc1\u0b95\u0bbf\u0bb1\u0bbe\u0ba9\u0bcd": 5103,
  "\u0d39\u0d4d": 5104,
  "\u2581\u0c17\u0c32": 5105,
  "\u2581\u0c2a\u0c1f\u0c4d\u0c1f": 5106,
  "\u0d3f\u0d1a\u0d4d\u0d1a\u0d4d": 5107,
  "\u2581\u0c38\u0c43\u0c37\u0c4d\u0c1f\u0c3f\u0c02\u0c1a": 5108,
  "\u2581\u0d38\u0d24\u0d4d\u0d2f\u0d28\u0d3f\u0d37\u0d47\u0d27\u0d3f\u0d15\u0d33\u0d4d": 5109,
  "\u0cac\u0cc7\u0ca1": 5110,
  "000": 5111,
  "\u0bc2": 5112,
  "\u2581discuss": 5113,
  "\u2581taste": 5114,
  "\u2581\u0d38\u0d32\u0d4d": 5115,
  "\u2581\u0d07\u0d35": 5116,
  "\u2581\u0d2d\u0d3e\u0d30\u0d4d\u0d2f": 5117,
  "\u0c9f\u0cbf": 5118,
  "\u2581burden": 5119,
  "\u0d24\u0d46\u0d28\u0d4d\u0d28\u0d4d": 5120,
  "\u2581\u0b89\u0bb0\u0bc8": 5121,
  "\u0d3e\u0d23\u0d41": 5122,
  "\u2581energy": 5123,
  "\u0ca8\u0ca8\u0ccd\u0ca8": 5124,
  "\u2581companions": 5125,
  "\u2581\u0ba4\u0b95\u0bb5\u0bb2\u0bcd": 5126,
  "\u0cbf\u0cb8\u0cbf\u0c95\u0cca\u0cb3\u0ccd\u0cb3": 5127,
  "\u2581\u0c86\u0ca6\u0cbf\u0c95\u0cbe\u0c82\u0ca1": 5128,
  "\u258139": 5129,
  "\u2581convinced": 5130,
  "\u2581trial": 5131,
  "\u2581\u0d35\u0d46": 5132,
  "\u0cb2\u0ccd\u0caa\u0ca1\u0cc1\u0cb5": 5133,
  "\u2581stars": 5134,
  "\u0d4d\u0d2f\u0d02": 5135,
  "\u2581color": 5136,
  "\u2581\u0d09\u0d24\u0d4d\u0d24\u0d30\u0d02": 5137,
  "\u2581generations": 5138,
  "\u2581messengers": 5139,
  "\u2581younger": 5140,
  "\u2581\u0d05\u0d24\u0d3f": 5141,
  "\u0bb5\u0bc7\u0ba3\u0bcd\u0b9f\u0bc1\u0bae\u0bcd": 5142,
  "\u2581burned": 5143,
  "\u2581viewed": 5144,
  "\u2581\u0cae\u0cbe\u0ca1\u0cac\u0cc7\u0c95\u0cc1": 5145,
  "\u2581Under": 5146,
  "\u2581\u0c2e\u0c28\u0c38\u0c4d\u0c38\u0c41": 5147,
  "\u2581Thank": 5148,
  "\u25813)": 5149,
  "\u2581sinned": 5150,
  "\u0ca6\u0cb0\u0cbf\u0c82\u0ca6": 5151,
  "\u0d2e\u0d3e\u0d2f\u0d3f\u0d30\u0d41\u0d28\u0d4d\u0d28\u0d41": 5152,
  "\u2581\u0b9a\u0bae\u0baf\u0ba4\u0bcd\u0ba4\u0bbf\u0bb2\u0bcd": 5153,
  "\u0b95\u0bb3\u0bc1\u0b95\u0bcd\u0b95\u0bc1\u0bae\u0bcd": 5154,
  "\u0c2a\u0c3f": 5155,
  "\u0c41\u0c32\u0c28\u0c41": 5156,
  "\u2581\u0bae\u0bb1\u0bcd\u0bb1\u0bca\u0bb0\u0bc1": 5157,
  "\u2581\u0b85\u0baa\u0bcd\u0baa\u0b9f\u0bbf": 5158,
  "\u2581circuit": 5159,
  "\u2581\u0c2f\u0c46\u0c21\u0c32": 5160,
  "\u2581store": 5161,
  "\u2581\u0b8e\u0b99\u0bcd\u0b95\u0bb3\u0bc1\u0b95\u0bcd\u0b95\u0bc1": 5162,
  "\u2581\u0c87\u0cb2\u0ccd\u0cb2\u0cbf": 5163,
  "\u0c32\u0c41\u0c17\u0c3e": 5164,
  "\u0d37\u0d4d\u0d1f": 5165,
  "\u2581\u0b85\u0bb1\u0bbf\u0ba8\u0bcd\u0ba4\u0bc1": 5166,
  "\u0cb5\u0cbf\u0ca8": 5167,
  "\u2581Being": 5168,
  "\u2581\u0baa\u0bc6\u0b9f\u0bcd\u0b9f\u0bbf": 5169,
  "\u2581\u0d2e\u0d30": 5170,
  "\u2581YOU": 5171,
  "out": 5172,
  "\u2581\u0c32": 5173,
  "\u2581\u0ca8\u0c82\u0cac\u0cbf\u0c95\u0cc6\u0caf": 5174,
  "\u2581\u0c95\u0cb2\u0cbf\u0caf": 5175,
  "\u0cb2\u0ccd\u0cb2\u0cc2": 5176,
  "\u2581\u0baf\u0bc6\u0b95\u0bcb\u0bb5\u0bbe\u0bb5\u0bc1\u0b95\u0bcd\u0b95\u0bc1": 5177,
  "\u2581Christianity": 5178,
  "\u2581Really": 5179,
  "\u2581extreme": 5180,
  "\u2581secure": 5181,
  "\u2581\u0baa\u0bcb": 5182,
  "\u2581\u0b8e\u0ba3\u0bcd": 5183,
  "vi": 5184,
  "\u2581island": 5185,
  "\u2581\u0d1f": 5186,
  "\u0c48\u0c24\u0c47": 5187,
  "\u258155": 5188,
  "All": 5189,
  "\u2581\u0cb8\u0cbf\u0c97": 5190,
  "\u2581\u0cb5\u0ccd\u0caf\u0c95\u0ccd\u0ca4\u0cbf\u0caf": 5191,
  "\u2581\u0b89\u0ba4\u0bbe\u0bb0\u0ba3\u0bae\u0bbe\u0b95": 5192,
  "\u2581\u0b9a\u0bbe\u0b9f\u0bcd\u0b9a\u0bbf\u0b95\u0bb3": 5193,
  "\u0cb8\u0cc6": 5194,
  "\u2581\u0bb5\u0bc8\u0ba4\u0bcd\u0ba4": 5195,
  "\u2581\u0c95\u0cbe\u0caf": 5196,
  "rs": 5197,
  "\u0c38\u0c4d\u0c1f\u0c4d": 5198,
  "\u0ca8\u0ca8\u0ccd\u0ca8\u0cc1": 5199,
  "\u2581\u0b8f\u0ba9\u0bc6\u0ba9\u0bbf\u0bb2\u0bcd": 5200,
  "\u2581\u0cae\u0cbe": 5201,
  "\u2581\u0d28\u0d3f\u0d19\u0d4d\u0d19\u0d7e\u0d15\u0d4d\u0d15\u0d4d": 5202,
  "\u0d1c\u0d3f": 5203,
  "\u2581\u0b88": 5204,
  "\u2581\u0b92\u0bb2\u0bbf": 5205,
  "\u0c06": 5206,
  "\u0ca6\u0ccd\u0cb0": 5207,
  "\u0d47\u0d23\u0d4d\u0d1f\u0d24\u0d3f\u0d28\u0d4d\u0d28\u0d41": 5208,
  "\u2581growing": 5209,
  "\u0c33\u0c4d\u0c33": 5210,
  "\u2581video": 5211,
  "\u0d3f\u0d32\u0d4d\u0d32\u0d47": 5212,
  "\u2581territory": 5213,
  "\u2581\u0b89\u0baf\u0bbf\u0bb0\u0bcd": 5214,
  "\u0c21\u0c28\u0c3f": 5215,
  "\u2581publication": 5216,
  "\u2581\u0bae\u0b9f\u0bcd\u0b9f\u0bc1\u0bae\u0bcd": 5217,
  "\u2581joined": 5218,
  "\u0b90": 5219,
  "\u0cbf\u0ca6\u0ccd\u0ca6\u0cc7\u0cb5\u0cc6": 5220,
  "\u2581touch": 5221,
  "\u2581translation": 5222,
  "\u0c30\u0c4d\u0c24": 5223,
  "\u0d2a\u0d4d\u0d2a\u0d3f": 5224,
  "\u0c4d\u0c2f\u0c42": 5225,
  "\u2581\u0c05\u0c17\u0c4d\u0c28\u0c3f": 5226,
  "\u0bc1\u0b95\u0bbf\u0bb1\u0bcb\u0bae\u0bcd": 5227,
  "\u2581119": 5228,
  "\u2581\u0d1a": 5229,
  "\u2581skin": 5230,
  "\u0c41\u0c15\u0c41\u0c28\u0c47": 5231,
  "\u2581authorities": 5232,
  "\u2581\u0c86\u0cb3": 5233,
  "\u2581calling": 5234,
  "\u2581\u0c28\u0c4d\u0c2f\u0c3e\u0c2f": 5235,
  "\u2581\u0d35\u0d38\u0d4d": 5236,
  "\u2581\u0bae\u0ba9\u0bc8\u0bb5\u0bbf": 5237,
  "\u2581\u0c2a\u0c4d\u0c30\u0c15\u0c1f\u0c28": 5238,
  "\u2581\u0cb8\u0cbe\u0cb5\u0cbf\u0cb0": 5239,
  "\u2581\u0d35\u0d3f\u0d33\u0d3f\u0d15\u0d4d\u0d15": 5240,
  "\u0bbf\u0b9f\u0bae\u0bbf\u0bb0\u0bc1\u0ba8\u0bcd\u0ba4\u0bc1": 5241,
  "\u0cab\u0ccd": 5242,
  "\u2581India": 5243,
  "\u2581Pharisees": 5244,
  "\u2581\u0c26\u0c3f\u0c28\u0c2e\u0c41\u0c28": 5245,
  "\u2581\u0d35\u0d3f\u0d36\u0d4d\u0d35\u0d38\u0d3f\u0d15\u0d4d\u0d15": 5246,
  "\u0cc1\u0ca4\u0ccd\u0ca4\u0cbf\u0ca6\u0cc6": 5247,
  "\u2581remains": 5248,
  "\u2581\u0b89\u0ba3\u0bcd\u0b9f\u0bc1": 5249,
  "\u2581\u0b8a\u0bb4\u0bbf\u0baf": 5250,
  "\u2581\u0c24\u0c4b": 5251,
  "\u0b99\u0bcd\u0b95\u0bb3\u0bbf\u0ba9\u0bcd": 5252,
  "\u2581excellent": 5253,
  "\u2581\u0b95\u0bbe\u0bb0\u0ba3\u0bae\u0bcd": 5254,
  "\u2581\u0c05\u0c28": 5255,
  "\u0b95\u0bcd\u0b95\u0bc2\u0b9f\u0bc1\u0bae\u0bcd": 5256,
  "\u2581\u0baa\u0b9f\u0bc8\u0ba4\u0bcd\u0ba4": 5257,
  "\u0d1e\u0d4d\u0d1e\u0d41": 5258,
  "\u2581\u0b86\u0bb0\u0bae\u0bcd\u0baa": 5259,
  "\u2581\u0baa\u0bc2\u0bae\u0bbf": 5260,
  "\u2581declare": 5261,
  "\u2581\u0d28\u0d3f\u0d28\u0d15\u0d4d\u0d15": 5262,
  "\u2581\u0bae\u0bbe\u0b9f\u0bcd\u0b9f\u0bbe\u0bb0\u0bcd\u0b95\u0bb3\u0bcd": 5263,
  "ter": 5264,
  "\u2581\u0baf\u0bc6\u0b95\u0bcb\u0bb5\u0bbe\u0bb5\u0bc8": 5265,
  "\u0d15\u0d30\u0d4d": 5266,
  "\u2581evident": 5267,
  "\u2581\u0c2e\u0c30\u0c32": 5268,
  "\u2581military": 5269,
  "\u2581\u0c1a\u0c46": 5270,
  "\u2581\u0c95\u0cb0\u0ccd\u0ca4\u0ca8\u0cbf\u0c97\u0cc6": 5271,
  "\u0c38\u0c4d\u0c24": 5272,
  "\u2581\u0c35\u0c3e\u0c30": 5273,
  "ent": 5274,
  "\u2581\u0c2a\u0c42\u0c30\u0c4d\u0c24\u0c3f\u0c17\u0c3e": 5275,
  "\u2581St": 5276,
  "\u2581\u0b8e\u0ba4\u0bc8": 5277,
  "\u2581\u0b95\u0bbf\u0bb1\u0bbf\u0bb8\u0bcd\u0ba4\u0bb5\u0bb0\u0bcd\u0b95\u0bb3\u0bcd": 5278,
  "\u2581\u0ca6\u0cbf\u0ca8\u0ca6\u0cb2\u0ccd\u0cb2\u0cbf": 5279,
  "\u0c27\u0c3f": 5280,
  "\u2581exists": 5281,
  "\u2581village": 5282,
  "\u2581\u0c09\u0c02\u0c21\u0c3e\u0c32\u0c3f": 5283,
  "\u0cb0\u0cbe\u0ca6": 5284,
  "\u2581\u0ba8\u0bc0\u0ba4\u0bbf\u0bae\u0bca\u0bb4\u0bbf\u0b95\u0bb3\u0bcd": 5285,
  "\u2581\u0c86\u0ca6": 5286,
  "\u2581\u0cb5\u0cbf\u0cb0\u0cc1\u0ca6\u0ccd\u0ca7": 5287,
  "\u2581abuse": 5288,
  "\u0c17\u0c3f": 5289,
  "\u0cbe\u0c97\u0cc1\u0cb5": 5290,
  "\u2581listed": 5291,
  "\u2581zeal": 5292,
  "\u2581Jonathan": 5293,
  "\u2581fulfill": 5294,
  "\u2581\u0d24\u0d28\u0d4d\u0d28": 5295,
  "\u0cb0\u0cbf\u0cb8": 5296,
  "\u2581witnesses": 5297,
  "\u0baa\u0b9f": 5298,
  "\u0cbe\u0c97\u0cbf\u0ca6\u0cc6": 5299,
  "\u0d35\u0d46": 5300,
  "\u2581effects": 5301,
  "\u0c3f\u0c15\u0c3f": 5302,
  "\u2581\u0c12\u0c15\u0c4d\u0c15": 5303,
  "\u0d31\u0d4d": 5304,
  "\u2581\u0c24\u0c4b\u0c1f\u0c3f": 5305,
  "\u0d2f\u0d02": 5306,
  "\u2581uses": 5307,
  "\u2581contribute": 5308,
  "\u0ca4\u0cbe": 5309,
  "\u0bc1\u0b95\u0bbf\u0bb1\u0bc7\u0ba9\u0bcd": 5310,
  "\u0cb0\u0cbe\u0c97\u0cbf": 5311,
  "\u2581advantage": 5312,
  "\u2581\u0d15\u0d42\u0d1f\u0d41\u0d24\u0d7d": 5313,
  "\u2581strengthened": 5314,
  "\u2581\u0cac\u0cb0\u0cc6\u0caf": 5315,
  "\u2581\u0cb8\u0cc6": 5316,
  "\u2581\u0d2e\u0d28\u0d41\u0d37\u0d4d\u0d2f\u0d28\u0d4d": 5317,
  "\u0bb5\u0bc1\u0b95\u0bcd\u0b95\u0bc1": 5318,
  "\u2581statement": 5319,
  "\u0d24\u0d4d\u0d24\u0d3f\u0d32\u0d47\u0d15\u0d4d\u0d15\u0d4d": 5320,
  "\u2581song": 5321,
  "\u2581\u0cb8\u0cbe\u0c95\u0ccd\u0cb7\u0cbf\u0c97\u0cb3\u0cc1": 5322,
  "\u2581confident": 5323,
  "\u2581tribes": 5324,
  "\u2581\u0b87\u0b9f\u0bae\u0bcd": 5325,
  "\u2581\u0c35\u0c1a\u0c4d\u0c1a\u0c47": 5326,
  "\u2581\u0ca4\u0ca8\u0ccd\u0ca8\u0ca8\u0ccd\u0ca8\u0cc1": 5327,
  "\u0bc1\u0bb5\u0bbe\u0bb0\u0bcd": 5328,
  "\u2581grace": 5329,
  "\u2581\u0bb5\u0bc6": 5330,
  "\u2581worshippers": 5331,
  "\u2581\u0c95\u0cca\u0cb0\u0cbf\u0c82\u0ca5": 5332,
  "\u0bb1\u0bc8": 5333,
  "\u0d46\u0d28\u0d4d\u0d28\u0d41": 5334,
  "\u2581\u0c2c\u0c3e\u0c2a\u0c4d\u0c24\u0c3f\u0c38\u0c4d\u0c2e\u0c02": 5335,
  "\u0baf\u0bc1\u0b9f\u0ba9\u0bcd": 5336,
  "\u0d3e\u0d15\u0d1f\u0d4d\u0d1f\u0d46": 5337,
  "\u2581female": 5338,
  "\u2581\u0b9a\u0bc7\u0bb0\u0bcd\u0ba8\u0bcd\u0ba4\u0bc1": 5339,
  "\u2581leaving": 5340,
  "\u2581\u0caf\u0cc1\u0ca6\u0ccd\u0ca7": 5341,
  "\u2581PAGE": 5342,
  "\u2581pattern": 5343,
  "\u2581separate": 5344,
  "\u2581\u0d15\u0d4d\u0d15\u0d3e\u0d7b": 5345,
  "\u2581\u0c24\u0c2a\u0c4d\u0c2a\u0c41": 5346,
  "\u2581\u0c2a\u0c3e": 5347,
  "\u2581unique": 5348,
  "\u2581Without": 5349,
  "\u2581red": 5350,
  "\u2581\u0c05\u0c2c\u0c4d\u0c30\u0c3e\u0c39\u0c3e\u0c2e\u0c41": 5351,
  "\u2581\u0d2b\u0d32": 5352,
  "\u2581issues": 5353,
  "\u2581\u0b86\u0b9f\u0bcd\u0b9a\u0bbf": 5354,
  "\u2581successfully": 5355,
  "\u2581worthy": 5356,
  "\u2581\u0c38\u0c2e\u0c2f\u0c02\u0c32\u0c4b": 5357,
  "\u2581instruction": 5358,
  "\u2581\u0c05\u0c2c\u0c26\u0c4d\u0c27": 5359,
  "\u2581\u0c95\u0cc6\u0cb2\u0cb8\u0cb5\u0ca8\u0ccd\u0ca8\u0cc1": 5360,
  "\u0c97\u0cca\u0cb3\u0ccd\u0cb3": 5361,
  "\u2581\u0cb0\u0ccb\u0c97": 5362,
  "\u2581arose": 5363,
  "\u2581\u0c92\u0ca6\u0c97\u0cbf\u0cb8": 5364,
  "\u2581\u0cae\u0cbf": 5365,
  "\u2581\u0d38\u0d28\u0d4d\u0d24\u0d4b\u0d37": 5366,
  "\u0d24\u0d4d\u0d2f": 5367,
  "\u0d46\u0d28\u0d4d\u0d28": 5368,
  "\u2581bearing": 5369,
  "\u2581minds": 5370,
  "\u0c15\u0c3e\u0c30": 5371,
  "\u0d1f\u0d41": 5372,
  "\u2581button": 5373,
  "\u2581race": 5374,
  "\u2581reality": 5375,
  "\u2581\u0caa\u0cc2\u0cb0\u0ccd\u0cb5": 5376,
  "\u0d3f\u0d15\u0d4d\u0d15\u0d41\u0d15": 5377,
  "\u2581Scripture": 5378,
  "\u2581\u0bae\u0bc1\u0b9f\u0bbf\u0baf\u0bbe\u0ba4": 5379,
  "\u0c35\u0c40": 5380,
  "\u0d32\u0d4d\u0d2f": 5381,
  "\u2581Body": 5382,
  "\u0c38\u0c47": 5383,
  "\u0cb5\u0cb0\u0cbf\u0c97\u0cc6": 5384,
  "\u2581\u0d24\u0d19\u0d4d\u0d19\u0d33\u0d4d": 5385,
  "\u0d41\u0d15\u0d2f\u0d3e\u0d23\u0d4d": 5386,
  "\u2581ear": 5387,
  "\u2581\u0c2a\u0c3f\u0c32\u0c4d\u0c32\u0c32": 5388,
  "\u0cbe\u0c97\u0cbf\u0ca6\u0ccd\u0ca6": 5389,
  "\u0cb9\u0cbe": 5390,
  "\u2581Memorial": 5391,
  "\u2581per": 5392,
  "\u2581south": 5393,
  "\u2581\u0c07\u0c36\u0c4d\u0c30\u0c3e\u0c2f\u0c47\u0c32\u0c40\u0c2f\u0c41\u0c32\u0c41": 5394,
  "\u0c96": 5395,
  "\u2581\u0bae\u0bb1\u0bc1": 5396,
  "\u0cad\u0cb0\u0cbf\u0ca4": 5397,
  "\u2581demonstrate": 5398,
  "\u2581\u0c15\u0c4b": 5399,
  "\u2581Next": 5400,
  "\u2581foundation": 5401,
  "\u2581\u0bae\u0bc1\u0ba9\u0bcd\u0baa\u0bc1": 5402,
  "\u2581\u0d0e\u0d28\u0d4d\u0d28\u0d41\u0d02": 5403,
  "\u2581\u0baa\u0bb0\u0bbf": 5404,
  "\u2581\u0c2a\u0c4d\u0c30\u0c27\u0c3e\u0c28": 5405,
  "0": 5406,
  "20": 5407,
  "\u0ca4\u0cc6\u0caf\u0ca8\u0ccd\u0ca8\u0cc1": 5408,
  "\u2581moment": 5409,
  "\u2581\u0c15\u0c3e\u0c15": 5410,
  "\u2581\u0d07\u0d35\u0d30\u0d4d": 5411,
  "\u0cbf\u0ca6\u0cb3\u0cc1": 5412,
  "\u2581extent": 5413,
  "\u2581guilty": 5414,
  "\u2581\u0b87\u0b99\u0bcd\u0b95\u0bc1": 5415,
  "\u2581\u0c17\u0c26\u0c3e": 5416,
  "\u2581\u0d2a\u0d31": 5417,
  "\u2581\u0c2d\u0c30\u0c4d\u0c24": 5418,
  "\u2581\u0c85\u0ca8\u0cc7\u0c95\u0cb0\u0cc1": 5419,
  "\u2581Brooklyn": 5420,
  "\u2581\u0c35\u0c40": 5421,
  "\u0c4d\u0c2f\u0c3e": 5422,
  "\u2581waste": 5423,
  "\u2581German": 5424,
  "\u2581encouraging": 5425,
  "\u2581recently": 5426,
  "\u2581\u0b92\u0bb3\u0bbf": 5427,
  "\u0b95\u0bb3\u0bc7": 5428,
  "\u0bbf\u0ba9\u0bcd\u0bb1": 5429,
  "\u0c33\u0c4d\u0c32": 5430,
  "\u2581\u0bb5\u0bbf\u0b9a\u0bc1\u0bb5\u0bbe\u0b9a": 5431,
  "\u2581Create": 5432,
  "\u2581merely": 5433,
  "\u2581\u0c15\u0c26\u0c3e": 5434,
  "\u2581\u0d28\u0d3f\u0d7c": 5435,
  "\u0c95\u0cca\u0ca1": 5436,
  "\u2581Christendom": 5437,
  "\u0cac\u0cc7\u0c95\u0cbe\u0ca6": 5438,
  "\u2581belong": 5439,
  "\u2581\u0cb9\u0cc6\u0cb8\u0cb0\u0ca8\u0ccd\u0ca8\u0cc1": 5440,
  "\u0c02\u0c1f\u0c3e": 5441,
  "\u0ca8\u0cc0\u0ca8\u0cc1": 5442,
  "\u2581\u0cb2\u0cc2\u0c95": 5443,
  "X": 5444,
  "\u2581across": 5445,
  "\u2581prospect": 5446,
  "\u2581violent": 5447,
  "\u2581\u0c24\u0c3e": 5448,
  "\u2581\u266a": 5449,
  "\u2581\u0cb9\u0cc7\u0cb3\u0cbf": 5450,
  "\u0c17\u0c4d\u0c30": 5451,
  "\u2581\u0b8f\u0b9a\u0bbe\u0baf\u0bbe": 5452,
  "\u2581\u0d1a\u0d41": 5453,
  "\u2581comments": 5454,
  "\u2581\u0c2a\u0c4d\u0c30\u0c24\u0c40": 5455,
  "\u2581\u0cae\u0cbe\u0ca1\u0cc1": 5456,
  "\u2581\u0d24\u0d3e\u0d34\u0d4d": 5457,
  ")...": 5458,
  "\u2581touched": 5459,
  "\u0bb5\u0bbf\u0b9f\u0bcd\u0b9f": 5460,
  "\u25813;": 5461,
  "\u2581higher": 5462,
  "\u0c3f\u0c38\u0c4d\u0c24\u0c41\u0c02\u0c26\u0c3f": 5463,
  "\u2581drinking": 5464,
  "\u0c2a\u0c30\u0c41": 5465,
  "\u258126:": 5466,
  "\u2581\u0c95\u0cca\u0c9f\u0ccd\u0c9f\u0ca8\u0cc1": 5467,
  "\u0c47\u0c35\u0c3e\u0c30\u0c41": 5468,
  "\u2581\u0c17\u0c4d\u0c30\u0c39\u0c3f\u0c02\u0c1a": 5469,
  "\u0cac\u0cb2\u0ccd\u0cb2\u0cc6\u0cb5\u0cc1": 5470,
  "\u2581Australia": 5471,
  "\u2581\u0d32\u0d41\u0d02": 5472,
  "\u2581background": 5473,
  "\u0bbf\u0bb0\u0bc1\u0b95\u0bcd\u0b95\u0bbf\u0bb1": 5474,
  "\u0d36\u0d3e": 5475,
  "\u2581fled": 5476,
  "\u2581\u0c28\u0c3f\u0c30\u0c4d": 5477,
  "\u2581formed": 5478,
  "\u0d28\u0d4d\u0d24": 5479,
  "\u0c36\u0c3e": 5480,
  "\u2581minutes": 5481,
  "\u2581\u0b89\u0bae\u0bcd": 5482,
  "\u2581bodies": 5483,
  "\u2581dream": 5484,
  "\u2581aid": 5485,
  "\u2581\u0bb5\u0bc0\u0b9f\u0bc1": 5486,
  "\u2581\u0c35\u0c4d\u0c30\u0c3e\u0c2f": 5487,
  "\u2581\u0d2a\u0d4d\u0d30\u0d3e": 5488,
  "\u2581lips": 5489,
  "\u2581\u0d15\u0d3e\u0d30\u0d4d\u0d2f\u0d19\u0d4d\u0d19\u0d7e": 5490,
  "\u0cb0\u0cc6\u0c82\u0ca6\u0cc1": 5491,
  "\u2581\u0c17\u0c41\u0c30\u0c4d\u0c24\u0c41": 5492,
  "\u2581conversation": 5493,
  "\u2581\u0cb9\u0cca": 5494,
  "\u2581\u201c[": 5495,
  "\u2581clothes": 5496,
  "\u2581discreet": 5497,
  "\u2581speaks": 5498,
  "\u0cbf\u0cb0\u0cac\u0cb9\u0cc1\u0ca6\u0cc1": 5499,
  "\u0cbf\u0caf\u0ca8\u0ccd\u0ca8\u0cc1": 5500,
  "\u2581Hezekiah": 5501,
  "\u2581Resurrection": 5502,
  "\u2581\u0b87\u0ba3\u0bc8": 5503,
  "\u2581\u0d2a\u0d31\u0d1e\u0d4d\u0d1e\u0d24\u0d4d": 5504,
  "\u0d57": 5505,
  "\u2581\u0c2e\u0c47\u0c32\u0c41": 5506,
  "\u2581\u0b89\u0bae\u0b95\u0bcd\u0b95\u0bc1": 5507,
  "\u0bb5\u0bcd": 5508,
  "\u2581\u0c2a\u0c24\u0c4d\u0c30\u0c3f\u0c15": 5509,
  "\u0d3e\u0d23\u0d46\u0d28\u0d4d\u0d28\u0d4d": 5510,
  "\u2581\u0d38\u0d39\u0d3e\u0d2f\u0d3f": 5511,
  "\u2581\u0b85\u0ba9\u0bc8\u0ba4\u0bcd\u0ba4\u0bc1": 5512,
  "\u2581\u0ba8\u0b95\u0bb0\u0bcd\u0ba4\u0bcd\u0ba4\u0bc1": 5513,
  "\u0baf\u0bb0\u0bcd": 5514,
  "\u0c32\u0c48\u0c28": 5515,
  "\u2581sinful": 5516,
  "\u2581\u0c2a\u0c42\u0c30\u0c4d\u0c24\u0c3f": 5517,
  "\u0c2b": 5518,
  "\u2581\u0cad\u0cc2": 5519,
  "\u2581\u0bb5\u0bb4\u0b99\u0bcd\u0b95": 5520,
  "\u2581\u0c1a\u0c46\u0c2a\u0c4d\u0c2a\u0c3f": 5521,
  "\u2581accomplish": 5522,
  "\u2581\u0c2a\u0c4b\u0c2f\u0c3f": 5523,
  "\u2581Ruth": 5524,
  "\u0d3f\u0d32\u0d47\u0d15\u0d4d\u0d15\u0d41": 5525,
  "\u0d24\u0d41\u0d2a\u0d4b\u0d32\u0d46": 5526,
  "\u0c32\u0c46": 5527,
  "\u0ca8\u0ccd\u0caf": 5528,
  "\u2581Hereafter": 5529,
  "\u2581surface": 5530,
  "ne": 5531,
  "\u0cb2\u0cc0": 5532,
  "\u0c2c\u0c21\u0c41\u0c28\u0c41": 5533,
  "\u0c37\u0c4d\u0c1f": 5534,
  "\u0cc6\u0cb5\u0cc1": 5535,
  "\u2581Last": 5536,
  "\u2581Matt": 5537,
  "\u2581praying": 5538,
  "\u0bbf\u0bb0\u0bc1\u0b95\u0bcd\u0b95\u0bbf\u0ba9\u0bcd\u0bb1\u0ba9": 5539,
  "\u0c2e\u0c40\u0c30\u0c41": 5540,
  "\u0d2f\u0d3e\u0d2f\u0d3f\u0d30\u0d41\u0d28\u0d4d\u0d28\u0d41": 5541,
  "\u2581Japan": 5542,
  "\u2581\u0ca8\u0cc6\u0ca8\u0cb8": 5543,
  "Why": 5544,
  "\u0d30\u0d02": 5545,
  "\u2581\u0cac\u0cb3\u0cbf": 5546,
  "\u2581decide": 5547,
  "\u0bb0\u0bbe\u0b95": 5548,
  "\u2581occur": 5549,
  "\u2581\u0d38\u0d39\u0d3e\u0d2f\u0d3f\u0d15\u0d4d\u0d15": 5550,
  "\u0ca6\u0ccd\u0ca6\u0ca8\u0ccd\u0ca8\u0cc1": 5551,
  "\u2581\u0c85\u0ca8\u0cc1\u0cad\u0cb5": 5552,
  "\u0cb5\u0cb2\u0ccd\u0cb2": 5553,
  "\u2581\u0b9a\u0bb0\u0bbf\u0baf\u0bbe\u0ba9": 5554,
  "\u2581writer": 5555,
  "\u2581telling": 5556,
  "\u2581\u0c30\u0c15\u0c4d\u0c37\u0c23": 5557,
  "\u2581\u0ca8\u0cbf\u0cb0\u0ccd\u0ca3\u0caf": 5558,
  "\u0b95\u0bcd\u0b95\u0bbe\u0ba9": 5559,
  "\u0cac\u0cbe": 5560,
  "\u2581\u0bae\u0bb0\u0ba3": 5561,
  "\u2581\u0c38\u0c2e\u0c38\u0c4d\u0c24": 5562,
  "\u2581\u0caa\u0ccd\u0cb0\u0cc0\u0ca4\u0cbf\u0caf": 5563,
  "\u2581\u0d30\u0d15\u0d4d\u0d37\u0d3f\u0d24\u0d3e\u0d35\u0d4d": 5564,
  "\u2581\u0b85\u0ba9\u0bc1\u0baa\u0bcd\u0baa": 5565,
  "\u2581\u0b8e\u0ba9\u0bcd\u0bb1\u0bbe\u0bb2\u0bc1\u0bae\u0bcd": 5566,
  "\u2581\u0c1c\u0c46": 5567,
  "\u2581\u0caa\u0ccd\u0cb0\u0cbe\u0cae\u0cc1\u0c96\u0ccd\u0caf": 5568,
  "\u2581\u0d0e\u0d1f\u0d41\u0d15\u0d4d\u0d15": 5569,
  "\u2581\u0c85\u0cb0\u0ccd\u0caa\u0cbf\u0cb8": 5570,
  "\u2581proud": 5571,
  "\u2581marry": 5572,
  "\u2581\u0c86\u0cb6\u0cc0\u0cb0\u0ccd\u0cb5\u0cbe\u0ca6": 5573,
  "\u0bb5\u0ba8\u0bcd\u0ba4": 5574,
  "\u2581appearance": 5575,
  "\u2581establish": 5576,
  "\u2581\u0b85\u0ba4\u0bbf\u0b95\u0bae\u0bbe\u0b95": 5577,
  "\u2581\u0c07\u0c1a\u0c4d\u0c1a\u0c3f\u0c28": 5578,
  "\u0ba4\u0bcd\u0ba4\u0bbe\u0bb2\u0bcd": 5579,
  "\u2581wood": 5580,
  "\u0d28\u0d3e\u0d2f\u0d3f": 5581,
  "\u2581\u0b87\u0baa\u0bcd\u0baa\u0b9f\u0bbf\u0baa\u0bcd\u0baa\u0b9f\u0bcd\u0b9f": 5582,
  "\u2581\u0c35\u0c3e\u0c33\u0c4d\u0c33\u0c41": 5583,
  "\u2581\u0d1a\u0d3e": 5584,
  "one": 5585,
  "\u2581hundreds": 5586,
  "ING": 5587,
  "\u0bbf\u0ba9\u0bcd\u0bb1\u0ba9": 5588,
  "\u0cbf\u0c97\u0cb3": 5589,
  "ma": 5590,
  "\u2581\u0b89\u0ba3\u0bb5\u0bc1": 5591,
  "\u2581\u0d09\u0d2f\u0d3f\u0d30": 5592,
  "\u2581\u0b85\u0bb3\u0bbf\u0ba4\u0bcd\u0ba4": 5593,
  "\u2581\u0b8e\u0bb5\u0bb0\u0bcd": 5594,
  "\u2581\u0c30\u0c3e\u0c24\u0c4d\u0c30\u0c3f": 5595,
  "\u2581\u0c17\u0c41": 5596,
  "\u2581slaves": 5597,
  "\u2581\u0c8f": 5598,
  "They": 5599,
  "\u0c1f\u0c3e": 5600,
  "\u2581\u0d07\u0d2a\u0d4d\u0d2a\u0d4b\u0d33\u0d4d": 5601,
  "\u2581angry": 5602,
  "\u2581\u0caa\u0ccd\u0cb0\u0caf\u0ca4\u0ccd\u0ca8": 5603,
  "\u2581\u0d06\u0d30\u0d46\u0d19\u0d4d\u0d15\u0d3f\u0d32\u0d41\u0d02": 5604,
  "\u2581wild": 5605,
  "\u2581\u0cad": 5606,
  "\u2581\u0cb9\u0cbe\u0c97\u0cbe\u0ca6\u0cb0\u0cc6": 5607,
  "\u2581mere": 5608,
  "\u2581\u0b89\u0ba3\u0bb0": 5609,
  "\u2581\u0c1c\u0c40\u0c35\u0c3f\u0c24": 5610,
  "\u2581\u0d15\u0d4d\u0d15\u0d3e": 5611,
  "\u0bbf\u0bb1\u0bbe\u0bb0\u0bcd": 5612,
  "\u2581\u0c30\u0c3e\u0c1c": 5613,
  "\u2581\u0d35\u0d30\u0d41\u0d28\u0d4d\u0d28": 5614,
  "\u2581Finally": 5615,
  "\u2581\u0d2c\u0d28\u0d4d\u0d27": 5616,
  "\u2581\u0c32\u0c4b\u0c15": 5617,
  "\u2581caring": 5618,
  "\u2581poverty": 5619,
  "\u2581\u0c06\u0c32\u0c4b\u0c1a\u0c28": 5620,
  "\u2581\u0c2d\u0c2f\u0c2a\u0c21": 5621,
  "\u0b95\u0bb3\u0bbe\u0bb2\u0bcd": 5622,
  "\u0ba3\u0bcd": 5623,
  "\u2581feed": 5624,
  "\u2581immorality": 5625,
  "\u2581\u0bae\u0bb2\u0bc8": 5626,
  "\u2581research": 5627,
  "\u2581assist": 5628,
  "\u2581\u0b85\u0b9a\u0bcd\u0b9a": 5629,
  "\u2581\u0b86\u0bb5\u0bbf": 5630,
  "\u2581\u0d38\u0d2e\u0d2f": 5631,
  "\u2581=": 5632,
  "\u0d2a\u0d4d\u0d2a\u0d41": 5633,
  "\u2581\u0cb9\u0cc6\u0c9a\u0ccd\u0c9a\u0cbe\u0c97\u0cbf": 5634,
  "\u2581\u0d2f\u0d46": 5635,
  "\u2581thank": 5636,
  "\u2581\u0d19\u0d4d\u0d19": 5637,
  "\u2581\u0baa\u0ba4\u0bcd\u0ba4\u0bbf\u0bb0\u0bbf\u0b95\u0bc8": 5638,
  "\u2581\u0d05\u0d35\u0d33\u0d41\u0d1f\u0d46": 5639,
  "\u2581\u0d15\u0d23\u0d4d\u0d1f\u0d46\u0d24\u0d4d\u0d24": 5640,
  "\u2581d": 5641,
  "\u2581\u0c24\u0c47": 5642,
  "\u2581\u0c28\u0c3f\u0c2e\u0c3f\u0c24\u0c4d\u0c24\u0c2e\u0c41": 5643,
  "\u2581Hell": 5644,
  "\u2581consideration": 5645,
  "\u2581expected": 5646,
  "\u2581\u0c26\u0c3e": 5647,
  "\u2581\u0c2e\u0c42\u0c32": 5648,
  "\u0c26\u0c3e\u0c28\u0c3f": 5649,
  "\u2581\u0c9c\u0ca8\u0cbe\u0c82\u0c97\u0c97\u0cb3": 5650,
  "\u2581\u0ca4\u0cc6\u0c97\u0cc6\u0ca6\u0cc1\u0c95\u0cca\u0cb3\u0ccd\u0cb3": 5651,
  "\u2581\u0ca8\u0ca1\u0cc6\u0ca6": 5652,
  "\u2581helpful": 5653,
  "\u2581\u0b9a\u0bbf\u0bb1\u0bbf\u0baf": 5654,
  "\u2581\u0ba8\u0bbf\u0ba9\u0bc8\u0bb5\u0bc1": 5655,
  "\u2581\u0c05\u0c27\u0c3f\u0c15": 5656,
  "\u2581fat": 5657,
  "\u2581\u0cab\u0cb2": 5658,
  "\u0bbf\u0ba4\u0bcd\u0ba4": 5659,
  "\u2581\u0b92\u0bb0\u0bc1\u0bb5\u0bc7\u0bb3\u0bc8": 5660,
  "\u2581\u0ba8\u0bcb\u0b95\u0bcd\u0b95\u0bbf": 5661,
  "\u2581\u0d26\u0d41\u0d30\u0d4d": 5662,
  "\u0b8e\u0ba9\u0bcd": 5663,
  "\u0ba8\u0bbe": 5664,
  "\u2581style": 5665,
  "\u2581theme": 5666,
  "\u2581\u0b9a\u0bc6\u0baf\u0bcd": 5667,
  "\u2581stress": 5668,
  "\u2581\u0d35\u0d3f\u0d27\u0d3f": 5669,
  "\u0cae\u0cbf": 5670,
  "\u0c2e\u0c4d\u0c2e\u0c41": 5671,
  "\u0cc6\u0c82\u0cac": 5672,
  "\u2581\u0d28\u0d3f\u0d19\u0d4d\u0d19\u0d33\u0d3f\u0d32\u0d4d": 5673,
  "\u2581cattle": 5674,
  "\u2581handle": 5675,
  "\u2581Mother": 5676,
  "\u2581purposes": 5677,
  "\u2581react": 5678,
  "\u2581\u0c87\u0ca6\u0c95\u0ccd\u0c95\u0cc6": 5679,
  "\u0bc1\u0bae\u0bbe": 5680,
  "\u0cc6\u0cb2\u0ccd\u0cb2\u0cbe": 5681,
  "\u2581factors": 5682,
  "\u2581\u0c24\u0c3f": 5683,
  "\u2581invitation": 5684,
  "\u2581\u0cae\u0ca8\u0cc1\u0cb7\u0ccd\u0caf\u0ca8\u0cc1": 5685,
  "\u2581\u0d2f\u0d47\u0d36\u0d41\u0d35\u0d3f\u0d28\u0d4d": 5686,
  "\u2581\u0d35\u0d3f\u0d33\u0d3f\u0d1a\u0d4d\u0d1a\u0d41": 5687,
  "\u2581\u0d09\u0d23\u0d4d\u0d1f\u0d4d": 5688,
  "\u0d2f\u0d3e\u0d23\u0d4b": 5689,
  "\u2581crime": 5690,
  "\u2581replied": 5691,
  "\u0d24\u0d4d\u0d24\u0d41\u0d02": 5692,
  "\u2581valley": 5693,
  "\u2581\u0c2c\u0c1f\u0c4d\u0c1f\u0c3f": 5694,
  "\u0d3f\u0d1f\u0d4d\u0d1f": 5695,
  "\u0c28\u0c40\u0c35\u0c41": 5696,
  "\u2581\u0b85\u0baa\u0bcd\u0baa\u0bcb\u0bb8\u0bcd\u0ba4\u0bb2\u0bb0\u0bcd": 5697,
  "\u2581\u0d26\u0d42\u0d24\u0d28\u0d4d": 5698,
  "\u2581\u0ba4\u0ba9\u0bbf": 5699,
  "\u0c35\u0c47\u0c2f": 5700,
  "\u2581status": 5701,
  "\u2581\u0b95\u0bbe\u0b9f\u0bcd\u0b9a\u0bbf": 5702,
  "\u0cbf\u0c9f\u0ccd\u0c9f": 5703,
  "\u2581anxiety": 5704,
  "\u2581\u0d12\u0d30": 5705,
  "\u0ba8\u0bbf": 5706,
  "\u0ca4\u0ccd\u0cb5": 5707,
  "\u2581\u0c1c\u0c28\u0c41\u0c32": 5708,
  "\u0cb9\u0cbf": 5709,
  "\u2581\u0ba4\u0bca\u0b9f\u0bb0\u0bcd\u0baa\u0bc1": 5710,
  "\u2581\u0cb5\u0cbf\u0cb5\u0cb0\u0cbf\u0cb8": 5711,
  "\u0ba4\u0bcd\u0ba4\u0bc1\u0b9f\u0ba9\u0bcd": 5712,
  "\u2581cost": 5713,
  "\u2581f": 5714,
  "\u2581possession": 5715,
  "\u2581global": 5716,
  "\u2581\u0c08\u0c32\u0c3e\u0c17\u0c41": 5717,
  "\u2581memory": 5718,
  "\u2581overseers": 5719,
  "\u2581\u0c05\u0c30\u0c4d\u0c2a\u0c3f\u0c02\u0c1a": 5720,
  "\u2581\u0c28\u0c3f\u0c1c\u0c3e\u0c28\u0c3f\u0c15\u0c3f": 5721,
  "\u2581forces": 5722,
  "\u2581\u0c07\u0c02\u0c1f\u0c3f": 5723,
  "\u2581\u0c30\u0c46": 5724,
  "\u0b9f\u0bbe": 5725,
  "\u2581Its": 5726,
  "\u2581idols": 5727,
  "\u2581\u0c15\u0c41\u0c21\u0c3f": 5728,
  "\u2581\u0cb9\u0ccb\u0c97\u0cc1\u0cb5": 5729,
  "\u2581\u0c24\u0c40\u0c30\u0c4d\u0c2a\u0c41": 5730,
  "\u2581\u0ba4\u0bb5\u0bb1": 5731,
  "\u0baa\u0bbf\u0ba9\u0bcd": 5732,
  "\u2581worse": 5733,
  "\u2581\u0c2c\u0c4d\u0c30": 5734,
  "\u0ca6\u0ccd\u0caf": 5735,
  "\u2581Never": 5736,
  "\u2581\u0b95\u0bca\u0b9f\u0bc1\u0baa\u0bcd\u0baa": 5737,
  "\u2581\u0cb8\u0cae\u0caf\u0ca6": 5738,
  "\u2581\u0c2c\u0c3e\u0c17\u0c3e": 5739,
  "\u0bc6\u0ba9\u0bcd\u0bb1\u0bc1": 5740,
  "\u2581\u0b85\u0ba8\u0bcd\u0ba4\u0b95\u0bcd": 5741,
  "\u2581La": 5742,
  "\u2581referred": 5743,
  "\u2581stayed": 5744,
  "\u2581\u0c9a\u0cc6\u0ca8\u0ccd\u0ca8\u0cbe\u0c97\u0cbf": 5745,
  "\u0d46\u0d32\u0d4d\u0d32\u0d3e\u0d02": 5746,
  "\u2581twelve": 5747,
  "\u2581\u0c38\u0c4a\u0c32\u0c4a\u0c2e\u0c4b\u0c28\u0c41": 5748,
  "\u2581\u0b89\u0b9f\u0bc8\u0baf": 5749,
  "\u0cab": 5750,
  "\u2581Ecclesiastes": 5751,
  "\u2581\u0cb9\u0cc7\u0cb3\u0cc1\u0ca4\u0ccd\u0ca4\u0ca6\u0cc6": 5752,
  "\u2581Zion": 5753,
  "\u2581\u0bb5\u0bc8\u0ba4\u0bcd\u0ba4\u0bc1": 5754,
  "\u2581\u0cb5\u0cbf\u0cb5\u0cbe\u0cb9": 5755,
  "\u2581bones": 5756,
  "\u0baa\u0bcd\u0baa\u0bb1\u0bcd\u0bb1\u0bbf": 5757,
  "\u0c15\u0c28\u0c4d\u0c28\u0c3e": 5758,
  "\u2581dwelling": 5759,
  "\u2581population": 5760,
  "\u2581version": 5761,
  "\u2581\u0c15\u0c1f\u0c4d\u0c1f": 5762,
  "\u2581\u0c2a\u0c30\u0c32\u0c4b\u0c15": 5763,
  "\u2581\u0c8e\u0ca6\u0cc1\u0cb0\u0cbf\u0cb8": 5764,
  "\u2581performed": 5765,
  "\u2581Mr": 5766,
  "\u2581\u0c1a\u0c3f\u0c30\u0c41\u0c28\u0c3e\u0c2e\u0c3e": 5767,
  "\u2581\u0baa\u0ba4\u0bbf\u0bb5\u0bc1": 5768,
  "\u2581\u0bb5\u0bc7\u0ba3\u0bcd\u0b9f\u0bc1\u0bae\u0bbe": 5769,
  "\u0b95\u0bb3\u0bbf\u0bb2\u0bc1\u0bae\u0bcd": 5770,
  "\u0baa\u0b9f\u0bc1\u0ba4\u0bcd\u0ba4": 5771,
  "\u0d28\u0d4d\u0d2e\u0d3e\u0d7c": 5772,
  "\u258135.": 5773,
  "\u2581cold": 5774,
  "\u2581\u0cb9\u0cc6\u0c82\u0ca1\u0ca4\u0cbf\u0caf": 5775,
  "\u258165": 5776,
  "\u2581\u0c87\u0ca4\u0ccd\u0ca4\u0cc1": 5777,
  "\u0d15\u0d30\u0d2e\u0d3e\u0d2f": 5778,
  "id": 5779,
  "\u2581Baal": 5780,
  "\u2581divided": 5781,
  "\u2581\u0c15\u0c32\u0c41\u0c17": 5782,
  "\u2581\u0b85\u0b95\u0bcd\u0b95\u0bb1\u0bc8": 5783,
  "\u2581\u0baa\u0bbf\u0bb3\u0bcd\u0bb3\u0bc8": 5784,
  "\u2581\u0baa\u0bcb\u0ba9": 5785,
  "\u2581displayed": 5786,
  "op": 5787,
  "\u0d24\u0d4d\u0d24\u0d3f\u0d28\u0d4d\u0d28\u0d41": 5788,
  "\u0d32\u0d4d\u0d32\u0d47": 5789,
  "\u2581\u0ca6\u0cc7\u0cb5": 5790,
  "\u2581\u0b95\u0bc1\u0bb4\u0ba8\u0bcd\u0ba4\u0bc8": 5791,
  "\u2581\u0bb5\u0bbf\u0b9f\u0bcd\u0b9f\u0bc1\u0bae\u0bcd": 5792,
  "\u2581\u0d21\u0d3f": 5793,
  "\u2581\u0c85\u0c82\u0ca4\u0ccd\u0caf": 5794,
  "\u2581\u0d24\u0d46": 5795,
  "\u2581approval": 5796,
  "\u2581trained": 5797,
  "\u2581\u0c0e\u0c35\u0c30\u0c41": 5798,
  "\u0b95\u0bcd\u0b95\u0baa\u0bcd\u0baa\u0b9f\u0bcd\u0b9f": 5799,
  "\u2581identify": 5800,
  "\u2581\u0c2f\u0c46\u0c26\u0c41\u0c1f": 5801,
  "\u2581\u0d2a\u0d47\u0d30": 5802,
  "\u0c02\u0c17": 5803,
  "\u2581\u0c05\u0c28\u0c4d\u0c28": 5804,
  "\u0d2f\u0d4b\u0d1f\u0d46": 5805,
  "\u2581\u0bae\u0bc1\u0b95": 5806,
  "\u2581mode": 5807,
  "\u2581\u0b89\u0bb1\u0bc1\u0ba4\u0bbf": 5808,
  "\u0cb3\u0cbf": 5809,
  "\u2581\u0ba8\u0b9f\u0ba8\u0bcd\u0ba4": 5810,
  "\u2581demons": 5811,
  "\u2581leads": 5812,
  "\u2581\u0d0e\u0d19\u0d4d\u0d15\u0d3f\u0d32\u0d41\u0d02": 5813,
  "ir": 5814,
  "\u2581worshipers": 5815,
  "\u2581Furthermore": 5816,
  "\u2581legal": 5817,
  "\u2581vain": 5818,
  "\u2581Almighty": 5819,
  "\u2581\u0c1a\u0c3f\u0c24\u0c4d\u0c30\u0c3e\u0c32": 5820,
  "\u2581\u0d1a\u0d4b\u0d26\u0d3f\u0d1a\u0d4d\u0d1a\u0d41": 5821,
  "\u2581husbands": 5822,
  "\u258143": 5823,
  "\u2581listened": 5824,
  "\u2581repentance": 5825,
  "\u2581temptation": 5826,
  "\u2581arise": 5827,
  "\u2581details": 5828,
  "\u2581\u0b9a\u0bc6\u0bb5\u0bbf": 5829,
  "\u0d3f\u0d15\u0d4d\u0d15\u0d41\u0d28\u0d4d\u0d28\u0d41": 5830,
  "\u2581hatred": 5831,
  "\u2581\u0b9a\u0ba8\u0bcd\u0ba4\u0bcb\u0bb7": 5832,
  "\u2581\u0cb9\u0cbe\u0c97\u0cbe\u0c97\u0cbf": 5833,
  "\u0c02\u0c24\u0c4b": 5834,
  "\u2581fruitage": 5835,
  "\u0bae\u0bcb": 5836,
  "\u2581\u0b85\u0bae\u0bc8\u0baa\u0bcd\u0baa\u0bc1": 5837,
  "\u2581\u0c28\u0c3e\u0c32\u0c41\u0c17\u0c41": 5838,
  "\u0d28\u0d4d\u0d31\u0d46": 5839,
  "\u2581\u0c87\u0cb8\u0ccd\u0cb0\u0cbe\u0caf\u0cc7\u0cb2\u0ccd\u0caf\u0cb0": 5840,
  "sh": 5841,
  "\u0d24\u0d4d\u0d24\u0d46\u0d34\u0d41\u0d28\u0d4d\u0d28\u0d47\u0d32\u0d4d": 5842,
  "\u2581\u0b95\u0bca\u0bb3\u0bcd\u0bb3\u0bc1\u0b99\u0bcd\u0b95\u0bb3\u0bcd": 5843,
  "\u2581\u0c39\u0c3e": 5844,
  "\u0ca1\u0cc1": 5845,
  "\u2581sorry": 5846,
  "\u2581Colossians": 5847,
  "\u2581\u0d2e\u0d39\u0d3e": 5848,
  "\u2581\u0d38\u0d4d\u0d35\u0d28\u0d4d\u0d24\u0d02": 5849,
  "\u2581\u0cae\u0cbe\u0ca4\u0cc1\u0c97\u0cb3\u0ca8\u0ccd\u0ca8\u0cc1": 5850,
  "\u2581believing": 5851,
  "\u2581verse": 5852,
  "\u2581\u0d2e\u0d3e\u0d24\u0d4d\u0d30\u0d2e\u0d47": 5853,
  "\u25812;": 5854,
  "\u2581\u0d2e\u0d41\u0d28\u0d4d": 5855,
  "\u0bbf\u0baa\u0bcd\u0baa": 5856,
  "\u0bc8\u0baf": 5857,
  "\u2581towards": 5858,
  "\u2581\u0c30\u0c4b\u0c1c\u0c41": 5859,
  "\u2581\u0c35\u0c47": 5860,
  "\u2581\u0c10": 5861,
  "\u2581\u0cb9\u0cc6\u0ca4\u0ccd\u0ca4\u0cb5\u0cb0\u0cc1": 5862,
  "\u2581\u0d35\u0d47": 5863,
  "\u2581plant": 5864,
  "\u2581\u0d2a\u0d20\u0d3f\u0d15\u0d4d\u0d15": 5865,
  "\u0d15\u0d33\u0d3f\u0d32\u0d4d": 5866,
  "\u2581sinners": 5867,
  "\u2581\u0b8f\u0bb1\u0bcd\u0baa\u0b9f\u0bcd\u0b9f": 5868,
  "\u2581\u0d09\u0d26\u0d4d\u0d26\u0d47\u0d36\u0d3f\u0d15\u0d4d\u0d15\u0d41\u0d28\u0d4d\u0d28": 5869,
  "\u2581international": 5870,
  "\u2581\u0baa\u0b9f\u0bbf\u0b95\u0bcd\u0b95": 5871,
  "\u2581\u0bb5\u0bbe\u0bb4\u0bcd\u0bb5": 5872,
  "\u2581\u0cb9\u0cbf": 5873,
  "\u2581\u0d35\u0d3f\u0d1f": 5874,
  "\u2581\u0bb5\u0bc6\u0bb3\u0bbf\u0baa\u0bcd\u0baa\u0b9f\u0bc1\u0ba4\u0bcd\u0ba4": 5875,
  "\u0cae\u0ccd\u0cae": 5876,
  "\u2581\u0bb5\u0ba3\u0b99\u0bcd\u0b95": 5877,
  "\u2581\u0d38\u0d41": 5878,
  "\u2581\u0cb8\u0cb0\u0cbf": 5879,
  "\u2581\u0b87\u0baa\u0bcd\u0baa\u0bca\u0bb4\u0bc1\u0ba4\u0bc1": 5880,
  "\u2581\u0c09\u0c02\u0c1f\u0c3e\u0c2f\u0c3f": 5881,
  "\u2581\u0c15\u0c4a\u0c28\u0c38\u0c3e\u0c17": 5882,
  "with": 5883,
  "\u0cbe\u0c9f": 5884,
  "\u2581\u0c17\u0c3e\u0c28\u0c40": 5885,
  "\u0d46\u0d19\u0d4d\u0d15\u0d3f\u0d7d": 5886,
  "\u2581City": 5887,
  "\u2581\u0bb8\u0bcd": 5888,
  "\u2581\u0cae\u0ca8\u0cc1\u0cb7\u0ccd\u0caf\u0cb0": 5889,
  "ig": 5890,
  "ut": 5891,
  "\u0ba4\u0bb1\u0bcd\u0b95\u0bbe\u0ba9": 5892,
  "\u0d2e\u0d3e\u0d15\u0d41\u0d28\u0d4d\u0d28\u0d41": 5893,
  "\u2581\u0ca4\u0cc6\u0cb0\u0cc6\u0caf": 5894,
  "\u2581\u0d09\u0d32\u0d4d": 5895,
  "\u0c2a\u0c47": 5896,
  "\u2581cloud": 5897,
  "\u2581flee": 5898,
  "\u2581ought": 5899,
  "\u2581\u0ba8\u0bcb\u0baf\u0bcd": 5900,
  "\u2581treasure": 5901,
  "\u0d3e\u0d15\u0d4d\u0d15\u0d3f": 5902,
  "\u2581lessons": 5903,
  "\u2581release": 5904,
  "\u2581\u0ca8\u0cbe\u0ca8\u0cc7": 5905,
  "\u2581resist": 5906,
  "\u2581rulers": 5907,
  "\u2581\u0d36\u0d4d\u0d30\u0d26\u0d4d\u0d27": 5908,
  "\u2581\u0c2a\u0c4d\u0c30\u0c15\u0c3e\u0c30\u0c02": 5909,
  "\u2581Micah": 5910,
  "\u2581unjust": 5911,
  "\u0c28\u0c4d\u0c28\u0c3f": 5912,
  "\u2581queen": 5913,
  "\u2581\u0bb0": 5914,
  "\u2581\u0caa\u0cb0\u0cbf\u0c97\u0ca3\u0cbf\u0cb8": 5915,
  "\u2581\u0d30\u0d23\u0d4d\u0d1f\u0d4d": 5916,
  "\u2581\u0d35\u0d7c\u0d37": 5917,
  "\u2581plan": 5918,
  "\u2581\u0cae\u0cb0\u0ca3": 5919,
  "\u2581Wise": 5920,
  "\u0b95\u0bb3\u0bbf\u0bb2\u0bbf\u0bb0\u0bc1\u0ba8\u0bcd\u0ba4\u0bc1": 5921,
  "\u0d2f\u0d4d\u0d15\u0d4d\u0d15\u0d4d": 5922,
  "\u2581difference": 5923,
  "\u2581ship": 5924,
  "\u0d26\u0d3f": 5925,
  "\u2581\u0d2a\u0d4b\u0d32\u0d41\u0d02": 5926,
  "\u2581\u0d38\u0d4d\u0d35\u0d2f\u0d02": 5927,
  "\u0c35\u0c48\u0c2a\u0c41": 5928,
  "\u0b9a\u0bcd\u0b9a\u0bc1": 5929,
  "\u0ba4\u0bcd\u0ba4\u0bbf\u0bb0": 5930,
  "\u2581\u0c35\u0c3e\u0c15\u0c4d\u0c15\u0c41": 5931,
  "\u2581receiving": 5932,
  "\u2581\u0c06\u0c30\u0c4d\u0c1f\u0c3f\u0c15\u0c32\u0c4d": 5933,
  "\u0ca8\u0cbe\u0c97\u0cbf": 5934,
  "\u2581dry": 5935,
  "\u2581series": 5936,
  "\u2581\u0b95\u0bc1\u0bb1\u0bbf\u0baa\u0bcd\u0baa\u0bbf\u0b9f": 5937,
  "\u2581\u0b95\u0bca\u0bb0\u0bbf\u0ba8\u0bcd\u0ba4\u0bbf\u0baf\u0bb0\u0bcd": 5938,
  "\u2581\u0baa\u0bbf\u0bb3\u0bcd\u0bb3\u0bc8\u0b95\u0bb3\u0bcd": 5939,
  "\u2581\u0c35\u0c46\u0c02\u0c1f\u0c28\u0c47": 5940,
  "\u2581\u0b9a\u0bcb\u0ba4\u0ba9\u0bc8": 5941,
  "ting": 5942,
  "\u0baf\u0bbf": 5943,
  "\u2581Internet": 5944,
  "ling": 5945,
  "\u2581Mexico": 5946,
  "\u2581Out": 5947,
  "\u2581Think": 5948,
  "\u2581\u0b9f": 5949,
  "\u2581\u0cb5\u0c9a\u0ca8": 5950,
  "\u2581standard": 5951,
  "\u0c2b\u0c4d": 5952,
  "\u2581location": 5953,
  "\u2581appears": 5954,
  "\u2581finished": 5955,
  "\u2581\u0c05\u0c02\u0c17\u0c40\u0c15\u0c30\u0c3f\u0c02\u0c1a": 5956,
  "\u2581\u0d28\u0d28\u0d4d\u0d28\u0d3e\u0d2f\u0d3f": 5957,
  "\u0cbe\u0caf": 5958,
  "\u2581\u0ca4\u0cbf\u0ca8\u0ccd\u0ca8": 5959,
  "\u0ba8\u0bbf\u0bb2\u0bc8": 5960,
  "\u2581server": 5961,
  "\u0c18": 5962,
  "\u2581Govern": 5963,
  "\u2581computer": 5964,
  "\u2581\u0d23": 5965,
  "\u0c15\u0c41\u0c28\u0c4d\u0c28": 5966,
  "\u0cb5\u0cb0\u0ccd": 5967,
  "\u2581Hav": 5968,
  "\u0d1a\u0d46\u0d2f\u0d4d\u0d24\u0d3f\u0d30\u0d3f\u0d15\u0d4d\u0d15\u0d41\u0d28\u0d4d\u0d28\u0d41": 5969,
  "\u2581illness": 5970,
  "\u2581\u0b9a\u0b9f\u0bcd\u0b9f": 5971,
  "\u2581\u0c2e\u0c30\u0c23": 5972,
  "\u2581beast": 5973,
  "As": 5974,
  "\u2581applied": 5975,
  "\u2581secular": 5976,
  "\u2581\u0c1a\u0c47\u0c24": 5977,
  "\u2581\u0c09\u0c02\u0c1f\u0c47": 5978,
  "\u0ca6\u0cbe": 5979,
  "\u2581pre": 5980,
  "\u2581\u0c95\u0cc1\u0cb0\u0cbf\u0ca4\u0cbe\u0c97\u0cbf": 5981,
  "\u0caf\u0cbe\u0c97\u0cbf": 5982,
  "\u2581ruin": 5983,
  "\u2581flow": 5984,
  "\u2581moves": 5985,
  "How": 5986,
  "\u0cbe\u0cb0": 5987,
  "\u2581\u0cae\u0cc1": 5988,
  "\u2581Questions": 5989,
  "\u2581popular": 5990,
  "\u2581\u0c89\u0cb3\u0cbf\u0ca6": 5991,
  "\u2581immoral": 5992,
  "\u2581\u0d28\u0d41": 5993,
  "\u2581beauty": 5994,
  "\u2581discussion": 5995,
  "\u2581indicate": 5996,
  "Who": 5997,
  "\u0d2f\u0d32\u0d4d\u0d32": 5998,
  "\u2581lasting": 5999,
  "\u2581\u0c1c\u0c4d\u0c1e\u0c3e\u0c28\u0c2e\u0c41": 6000,
  "\u2581\u0cb8\u0cc7\u0cb5\u0cc6\u0cae\u0cbe\u0ca1": 6001,
  "\u0baa\u0bbf\u0bb0": 6002,
  "\u0bb0\u0bc1\u0bae\u0bcd": 6003,
  "\u2581\u0d05\u0d26\u0d4d\u0d26\u0d47\u0d39\u0d24\u0d4d\u0d24\u0d46": 6004,
  "For": 6005,
  "\u2581Family": 6006,
  "\u2581\u0d2a\u0d4d\u0d30\u0d36\u0d4d": 6007,
  "\u2581Deuteronomy": 6008,
  "\u0cbe\u0c97\u0cbf\u0ca4\u0ccd\u0ca4\u0cc1": 6009,
  "\u2581content": 6010,
  "\u2581\u0d39\u0d3f": 6011,
  "\u0c2c\u0c21\u0c46\u0c28\u0c41": 6012,
  "\u2581\u0c15\u0c4d\u0c30\u0c3f\u0c02\u0c26": 6013,
  "\u0ca6\u0ccd\u0ca6\u0cb0\u0cbf\u0c82\u0ca6": 6014,
  "\u2581Whatever": 6015,
  "\u0c1f\u0c4d\u0c1f": 6016,
  "\u2581\u0b8e\u0b9f\u0bc1\u0b95\u0bcd\u0b95": 6017,
  "\u2581powers": 6018,
  "\u2581\u0c12\u0c15\u0c1f\u0c3f": 6019,
  "\u0bae\u0bb1\u0bcd\u0bb1": 6020,
  "\u2581Tell": 6021,
  "\u2581cell": 6022,
  "\u2581\u0bae\u0b95\u0bbf\u0bb4\u0bcd\u0b9a\u0bcd\u0b9a\u0bbf": 6023,
  "\u2581\u0c32\u0c47\u0c1a\u0c3f": 6024,
  "\u0c2a\u0c4b\u0c2f\u0c3f\u0c28": 6025,
  "\u2581charge": 6026,
  "\u25812002": 6027,
  "\u2581object": 6028,
  "\u2581\u0c17\u0c41\u0c30\u0c4d\u0c24\u0c3f\u0c02\u0c1a": 6029,
  "\u2581assured": 6030,
  "\u0c1f\u0c4d\u0c32": 6031,
  "\u2581\u0d28\u0d3f\u0d30": 6032,
  "\u0c35\u0c32\u0c38\u0c3f": 6033,
  "\u2581grown": 6034,
  "\u2581French": 6035,
  "\u2581\u0bb9": 6036,
  "\u2581\u0c09\u0c24\u0c4d\u0c24\u0c30": 6037,
  "\u2581\u0d24\u0d4b\u0d28\u0d4d\u0d28": 6038,
  "\u2581Text": 6039,
  "\u2581\u0bae\u0bc7": 6040,
  "\u2581\u0c06\u0c32\u0c4b\u0c1a\u0c3f\u0c02\u0c1a": 6041,
  "\u0bc1\u0bb5\u0ba4\u0bb1\u0bcd\u0b95\u0bbe\u0b95": 6042,
  "\u2581\u0b90\u0b95\u0bcd\u0b95\u0bbf\u0baf": 6043,
  "\u0bbf\u0ba9\u0bbe\u0ba9\u0bcd": 6044,
  "\u2581\u0b87\u0bb0\u0bc1\u0b95\u0bcd\u0b95\u0bbf\u0bb1\u0bbe\u0bb0\u0bcd\u0b95\u0bb3\u0bcd": 6045,
  "\u2581\u0d28\u0d1f\u0d15\u0d4d\u0d15": 6046,
  "ho": 6047,
  "\u0b95\u0bcd\u0b95\u0bbf": 6048,
  "\u2581travel": 6049,
  "\u2581\u0c15\u0c28\u0c41\u0c17\u0c4a\u0c28": 6050,
  "\u2581discovered": 6051,
  "\u0c35\u0c3e\u0c28\u0c3f": 6052,
  "\u0c38\u0c4d\u0c25": 6053,
  "\u2581contrary": 6054,
  "\u0cbe\u0caf\u0cbf\u0ca4\u0cc1": 6055,
  "\u2581satisfaction": 6056,
  "\u2581wedding": 6057,
  "\u0baf\u0bae\u0bcd": 6058,
  "\u0bbf\u0bb2": 6059,
  "\u2581succeed": 6060,
  "\u2581\u0c1a\u0c47\u0c38\u0c4d\u0c24\u0c41\u0c28\u0c4d\u0c28": 6061,
  "\u258123,": 6062,
  "\u2581widow": 6063,
  "\u2581\u0ba8\u0bb0\u0b95": 6064,
  "\u0cac\u0cb2\u0ccd\u0cb2\u0ca6\u0cc1": 6065,
  "\u0d31\u0d3e": 6066,
  "\u2581\u0ca4\u0cbf\u0cb0\u0cbf\u0c97\u0cbf": 6067,
  "\u2581\u0bb5\u0bbf\u0bb3\u0bc8\u0baf\u0bbe\u0b9f\u0bcd\u0b9f\u0bc1": 6068,
  "\u2581\u0cae\u0ccc\u0cb2\u0ccd\u0caf": 6069,
  "\u2581\u0c24\u0c32\u0c4d\u0c32\u0c3f\u0c26\u0c02\u0c21\u0c4d\u0c30\u0c41\u0c32\u0c41": 6070,
  "\u2581\u0d0e\u0d28\u0d4d\u0d24\u0d46\u0d19\u0d4d\u0d15\u0d3f\u0d32\u0d41\u0d02": 6071,
  "\u2581property": 6072,
  "\u0d3e\u0d35\u0d41\u0d28\u0d4d\u0d28": 6073,
  "\u2581height": 6074,
  "\u2581\u0baa\u0bc7": 6075,
  "\u2581\u0d30\u0d3e\u0d24\u0d4d\u0d30\u0d3f": 6076,
  "unit": 6077,
  "\u2581\u0ba4\u0bbe\u0bae\u0bcd": 6078,
  "\u2581operation": 6079,
  "\u2581plain": 6080,
  "\u2581\u0bb0\u0bca\u0bae\u0bcd\u0baa": 6081,
  "\u2581\u0c15\u0c4a\u0c1f\u0c4d\u0c1f": 6082,
  "\u2581\u0c95\u0ccb\u0caa": 6083,
  "\u2581\u0d2f\u0d3e\u0d24\u0d4d\u0d30": 6084,
  "\u2581\u0b95\u0bbe\u0bb2\u0bae\u0bcd": 6085,
  "\u0c32\u0c4d\u0c28\u0c3f": 6086,
  "\u2581firstborn": 6087,
  "\u0b95\u0bcd\u0b95\u0bb3\u0bcd": 6088,
  "\u0bbf\u0bb0\u0bc1\u0b95\u0bcd\u0b95\u0bbf\u0bb1\u0bbe\u0bb0\u0bcd": 6089,
  "\u0bbf\u0bb0\u0bc1\u0ba8\u0bcd\u0ba4\u0bbe\u0bb2\u0bcd": 6090,
  "\u2581\u0bae\u0bca\u0bb4\u0bbf": 6091,
  "\u2581unable": 6092,
  "\u2581curse": 6093,
  "\u2581played": 6094,
  "\u2581proof": 6095,
  "\u2581\u0d15\u0d34\u0d3f\u0d2f": 6096,
  "\u0cbe\u0ca4\u0ca8": 6097,
  "\u258126.": 6098,
  "\u2581\u0bb5\u0bbf\u0bb0\u0bc1\u0bae\u0bcd\u0baa\u0bc1\u0b95\u0bbf\u0bb1": 6099,
  "na": 6100,
  "\u2581\u0cb8\u0cb2\u0cb9\u0cc6": 6101,
[...]
